#version: 0.2
Ġ t
Ġ a
h e
i n
Ġt he
Ġ s
r e
Ġ w
Ġ o
i s
e r
n d
Ġ f
Ġ m
Ġ b
i t
h a
in g
Ġ c
e n
e s
o r
o u
o n
l l
Ġa nd
Ġo f
Ġt o
Ġ p
Ġ d
e d
a n
Ġ in
a t
Ġ l
a r
a s
o m
Ġ is
h is
b r
Ġ g
i c
Ġ I
Ġ /
Ġ/ >
l e
Ġ e
ha t
o t
Ġ n
u t
s t
c t
a l
i l
Ġ it
Ġb e
v e
i e
l y
Ġm o
Ġ T
Ġ ha
h o
Ġ re
Ġo n
Ġt hat
v er
en t
Ġ he
' s
r a
i on
Ġt his
i m
s e
Ġs t
a y
e t
g h
i d
Ġw as
Ġmo v
Ġ y
Ġ/> <
it h
il m
r o
Ġf ilm
Ġf or
a d
Ġ u
Ġa s
c e
a ll
Ġw ith
c h
k e
l d
Ġa n
Ġ A
Ġs e
Ġ S
Ġ h
o o
Ġmov ie
ĠT he
i r
Ġy ou
r i
o w
. <
a m
Ġt h
Ġ B
he r
Ġl i
u r
Ġ M
Ġb ut
i ll
Ġw e
' t
Ġn ot
all y
t er
Ġ (
Ġ C
Ġ "
Ġ H
c k
Ġa re
om e
Ġ his
p e
er s
ou ld
Ġ W
Ġa t
u l
. .
u n
Ġha ve
gh t
Ġ D
Ġs c
u st
i f
e m
Ġ j
Ġs u
ou t
Ġf r
Ġa ct
Ġd o
Ġw ho
b le
Ġe x
Ġon e
es s
a in
Ġ k
e l
Ġp l
Ġs o
Ġc om
ver y
Ġa ll
Ġa b
i es
ar t
oo d
an t
p p
Ġb y
Ġa l
Ġc ha
u s
o l
a k
a g
Ġ v
ho w
Ġw h
Ġd e
es t
ou s
Ġ P
Ġ L
Ġfr om
Ġthe y
or t
Ġn e
o p
Ġ R
as t
Ġli ke
on e
a nd
Ġo ut
is t
q u
Ġ F
Ġs ome
Ġw he
Ġin t
v en
Ġo r
f e
Ġc on
at ion
u m
Ġ J
Ġhe r
re d
Ġ G
a u
ou gh
Ġ r
Ġha s
Ġj ust
Ġab out
ĠI t
Ġm e
re s
ra ct
h ing
Ġp ro
Ġw or
i ve
in d
or y
p t
Ġ N
o s
at e
a ck
Ġc an
Ġu n
i g
Ġt im
T he
u d
Ġ E
Ġl e
i re
a ke
re at
ha n
i ght
Ġcha ract
Ġg ood
ic h
Ġu p
on g
oo k
Ġm an
Ġl o
Ġan y
Ġg o
Ġw at
Ġmo re
Ġ O
Ġg et
r y
it y
Ġn o
Ġw hat
Ġse e
Ġf e
Ġw ould
Ġ very
Ġf a
Ġthe re
ou nd
t her
n t
Ġs h
Ġm y
g e
it e
Ġst ory
id e
Ġbe c
o d
ar d
Ġtim e
Ġs he
Ġwhe n
am e
Ġ 1
Ġ en
Ġthe ir
e ll
Ġsc en
Ġwe re
a ble
Ġ -
Ġre ally
l f
u re
Ġha d
Ġon ly
o re
o y
it t
p l
i ous
Ġh im
Ġ if
Ġ K
Ġp er
ic k
Ġe ven
Ġwh ich
in k
i al
Ġo ther
s o
Ġs how
Ġthe m
Ġc l
Ġwat ch
Ġt han
m ent
ou r
m an
in e
a b
o nd
Ġk n
t e
Ġd id
o g
Ġe nd
Ġdo es
ar s
u ch
v es
ay s
Ġp e
r u
au se
a re
Ġl ook
Ġg reat
Ġ qu
Ġbe t
.. .
Ġb ad
ic e
Ġm uch
ad e
ire ct
ir st
p er
op le
Ġa r
Ġc ould
Ġbe en
Ġp o
p le
Ġint o
en ce
Ġo ver
Ġw ill
Ġ ro
Ġ how
Ġ im
Ġwe ll
Ġmo st
Ġp re
in t
Ġpe ople
ĠT his
Ġt w
a c
f or
ot her
n e
n g
Ġkn ow
er t
t h
Ġd is
Ġth ink
as s
Ġbec ause
ag e
Ġto o
Ġa d
Ġu s
f ter
Ġa g
Ġm ake
f f
i le
or s
f ul
Ġof f
Ġre al
Ġf irst
Ġd irect
Ġp art
Ġe very
v ing
Ġth ing
Ġm ade
Ġa m
u ll
n y
Ġw ay
e re
Ġal so
Ġf un
Ġs a
is h
ic t
ar y
t y
w n
Ġse em
a p
Ġmov ies
Ġd on
Ġcharact er
Ġit s
g in
Ġw r
o ll
i an
Ġ '
ic al
Ġm ak
e p
Ġb l
Ġg u
Ġcharact ers
res s
ie w
u e
at ed
c es
Ġwor k
Ġs p
Ġ Y
u ally
ĠA nd
c c
Ġfilm s
o b
pe ct
Ġf l
fe ct
i z
Ġt e
Ġpl ot
he d
Ġpl ay
se lf
Ġbe ing
Ġthe n
Ġw ant
Ġy e
om et
Ġ V
Ġse en
o st
itt le
Ġa w
ĠB ut
Ġs er
) ,
Ġa fter
Ġtw o
Ġyou r
Ġ ho
m er
r ough
g et
Ġlo ve
Ġne ver
ur n
en s
v ed
Ġman y
i p
) .
nd er
Ġwhe re
an s
ĠH e
Ġact ing
ow n
Ġs ay
h y
Ġ ent
Ġ <
Ġb ack
Ġth rough
Ġl ittle
m e
ĠI n
ul t
T his
Ġli fe
Ġb est
Ġh or
il d
Ġs omet
Ġ ra
d u
Ġre m
at her
il y
Ġe ver
ve l
ar k
Ġbet ter
e ver
r is
w e
c i
b er
a ce
ion s
Ġb r
a ch
Ġd es
Ġre c
u al
Ġper for
Ġscen e
l es
Ġf ind
Ġsh ould
Ġs pe
ĠS t
b e
an ce
ou ght
Ġs l
! !
Ġscen es
t hing
Ġat t
l ess
ert ain
Ġfe el
Ġcon t
Ġ 2
Ġu nder
t ing
ie nd
Ġm in
Ġ U
Ġag ain
l ie
ere st
ent s
ver s
Ġ ri
' ve
Ġc h
ho se
Ġhe re
i a
Ġk ill
Ġint erest
Ġt ra
re e
i gh
Ġst ill
ĠThe re
en se
Ġsomet hing
Ġ1 9
r d
n ing
re n
f ore
Ġha pp
Ġt r
Ġ i
Ġthe se
Ġsu ch
ation s
Ġs ur
Ġl ot
' m
Ġin c
Ġperfor man
ab ly
as on
Ġm ay
Ġim p
i v
at ing
r or
ct ion
an g
ra p
is e
Ġo ld
Ġh um
Ġc ast
t he
Ġg i
ar ly
as e
re en
Ġpo int
au gh
Ġg en
Ġdoes n
Ġde c
Ġa p
Ġre s
al k
Ġt hose
Ġw om
at er
Ġs im
Ġf am
ir l
Ġdid n
Ġye ars
p s
j oy
Ġc ou
Ġwatch ing
Ġact ors
Ġt ry
Ġp r
ot h
Ġst art
Ġgu y
ĠJ o
Ġs et
Ġfa ct
Ġmak es
Ġc he
f fect
Ġfun ny
o c
ĠA l
Ġgo ing
ers on
os s
Ġm us
Ġv iew
Ġen joy
ut e
Ġt ak
ed y
Ġo b
Ġbe lie
Ġd own
Ġs ame
Ġfe w
is s
at h
Ġcom p
u p
d er
ĠI f
a w
e ct
Ġwh ile
Ġact ually
a le
Ġe v
Ġf in
Ġbe fore
Ġd ra
Ġd if
Ġe m
Ġt ru
Ġl ong
Ġo wn
r it
* *
ri gin
f t
a v
Ġt er
Ġyou ng
Ġwh y
c ial
Ġpro du
Ġ ke
a ct
Ġb it
Ġpre t
Ġne w
i ence
l i
Ġg ot
Ġn ow
a z
Ġdirect or
Ġsu pp
Ġth ought
Ġo rigin
Ġsu b
ri pt
- -
Ġt ri
Ġt urn
Ġth ough
Ġs m
' re
Ġnot hing
on s
ĠC h
in ce
d e
Ġan other
u b
Ġex ce
o se
Ġb ig
Ġ &
Ġin v
e w
Ġg irl
he n
i ble
re nt
Ġcom ple
mer ic
Ġe ffect
s p
Ġre l
ig n
Ġqu ite
Ġseem s
Ġar ound
Ġfr iend
Ġthing s
Ġg r
i b
it ing
Ġsc reen
ic ally
Ġen ough
Ġa pp
Ġpret ty
c ed
Ġact ion
k s
a ut
st er
ing s
ond er
0 0
we en
Ġri ght
r an
a ve
Ġwor ld
Ġsc ript
Ġha rd
Ġorigin al
ate ly
Ġc o
w ays
m ost
Ġs ha
Ġp erson
Ġbet ween
Ġk id
Ġt ake
e ad
Ġne ed
n ess
c hed
Ġh igh
Ġa cc
Ġse c
ri ll
Ġf ar
Ġm ust
he s
ent ion
Ġhor ror
Ġap pe
ut es
Ġg ive
Ġse x
w ard
ĠA meric
Ġ es
ĠS he
Ġk ind
Ġro le
m a
Ġo p
Ġle ad
v ious
Ġm om
Ġre ason
Ġwho le
ĠA s
in em
" ,
Ġw onder
a pp
Ġb u
Ġser ies
Ġinterest ing
Ġt ell
it s
ort h
Ġle ast
n er
Ġis n
or d
Ġget s
Ġal ways
o ck
Ġhe l
Ġcom edy
Ġch ild
ĠH ow
as h
Ġp ut
Ġtim es
ic ul
od y
Ġc ome
Ġm ain
Ġb oth
Ġsa w
ĠThe y
Ġmus ic
g g
ro w
Ġdif fe
ĠY ou
ull y
Ġex pect
Ġha nd
if e
im e
he re
Ġb as
Ġex pl
h n
Ġwith out
Ġcl ass
Ġmin utes
Ġs ho
Ġre ad
Ġc am
Ġd one
ur ing
Ġ ide
Ġm ight
Ġl ast
in es
Ġal most
Ġbe gin
v iew
ra y
' ll
x t
ou se
o k
Ġperforman ce
ri ble
Ġ 3
Ġcomple te
b ably
Ġsh ot
Ġl augh
Ġbe aut
Ġa ud
Ġc our
Ġb o
Ġc are
Ġe p
Ġin st
Ġc inem
st and
Ġany thing
Ġc le
Ġse qu
ci ally
I t
Ġent ertain
p ris
Ġfam ily
th ough
Ġs ound
Ġaw ay
Ġw ar
Ġs ince
Ġcon s
Ġb ook
Ġe l
Ġf ound
e e
ro s
one y
Ġc r
Ġc ar
" .
at ive
Ġr un
er a
c o
ial og
s on
Ġwom an
Ġc all
re t
Ġex t
l ed
Ġpro bably
a il
pe cially
u res
m s
Ġd ialog
og rap
Ġhapp en
w ood
Ġsu re
Ġr ather
Ġin s
Ġw orth
it ion
me nd
Ġdiffe rent
l ing
ĠT V
al s
os ed
Ġar t
. "
o v
an e
Ġad d
o int
Ġm at
it her
Ġtry ing
E R
Ġli k
as ter
Ġke ep
d d
ĠB e
ĠJo hn
ar r
Ġs ense
Ġwor st
ing ly
u ck
Ġo ur
Ġmak ing
t en
Ġcour se
Ġ1 0
Ġl et
Ġcha n
e x
Ġab s
Ġpo or
Ġb or
Ġd el
Ġpl ace
V D
Ġcom es
ĠW hat
Ġbelie ve
oll y
j ect
Ġme an
Ġt y
a pt
Ġp ol
Ġsur pris
ĠS o
Ġp res
Ġhel p
ic s
Ġe ach
Ġy et
um b
Ġgo es
are nt
at es
h ip
Ġj ob
is od
Ġm ind
Ġend ing
Ġin ter
ĠT hat
ment s
Ġshow s
Ġplay ed
Ġl ess
re am
Ġany one
ĠD e
Ġpro ble
em pt
f in
ĠD VD
ort un
ow er
Ġst and
ist ic
Ġ vers
Ġst r
Ġg ra
Ġd ay
s c
on t
Ġbeaut if
Ġlook s
Ġre st
l ud
' d
Ġa c
Ġpl ays
Ġm oney
re ad
Ġep isod
ĠC ha
Ġb oy
oll ow
Ġg l
ĠW e
om mend
Ġcon f
id ent
Ġwas n
Ġc re
al ity
Ġper fect
il ar
ĠA ll
Ġc reat
ic ha
ne y
Ġeffect s
in c
Ġact or
Ġsu per
Ġp ort
.. ..
Ġhe ad
Ġha ving
get her
Ġto gether
Ġlook ing
ie ce
Ġsec ond
Ġsa id
re ak
ĠA n
Ġtak es
Ġm em
Ġf an
Ġm iss
Ġc ertain
Ġex per
ar n
is m
l and
w ay
Ġrec ommend
Ġwat ched
i ed
Ġsh ort
Ġaud ience
r ist
Ġunder stand
ĠN ot
le as
Ġt alk
ĠS c
in s
Ġex c
Ġel se
i o
Ġf ollow
Ġs it
ĠT H
Ġsome one
Ġp oss
ll ent
Ġha lf
Ġfa v
Ġspe cial
u es
Ġn ight
Ġhim self
ĠAmeric an
ĠB l
Ġf all
olly wood
h ile
Ġes pecially
t ed
Ġth ree
ce pt
ĠM ar
it ed
ros s
p ly
Ġre view
d ay
1 0
Ġcom m
Ġn ice
i red
o ld
Ġd et
n ot
Ġ ed
Ġv is
ist s
Ġtru e
at ic
Ġm ur
Ġs k
i x
Ġob vious
am es
Ġle ft
Ġm on
Ġu se
at t
Ġide a
ud get
Ġent ire
Ġm ar
Ġinv ol
ĠT h
ĠF or
i ol
Ġw ife
ĠR e
Ġc ame
Ġd uring
Ġh our
ĠC l
Ġf ight
u ff
om b
ion al
id es
Ġm en
ĠR ob
Ġim ag
Ġfriend s
i er
Ġd ist
or k
f ully
Ġsee ing
Ġc ho
Ġe le
up id
Ġus ed
s y
ĠU n
Ġf ather
Ġexce llent
Ġfe at
Ġevery thing
a h
Ġto t
Ġye ar
Ġh ome
Ġevery one
Ġl ater
Ġl ow
Ġon ce
Ġhis t
Ġatt empt
Ġvers ion
ir d
Ġs ing
Ġe y
app oint
Ġsim ply
li ke
ho ol
m ed
Ġun t
a red
Ġt al
Ġbeautif ul
Ġcomplete ly
ĠS e
Ġde ath
ou nt
Ġst y
or n
Ġgen er
Ġl ack
Ġc ra
Ġdis appoint
i en
a ir
m y
Ġp h
Ġst upid
at ch
oo l
o ve
c y
er y
Ġre t
Ġperforman ces
ol ute
Ġport ray
b ut
Ġt it
it er
Ġ 4
ĠH ollywood
ĠS p
Ġre p
Ġst ar
Ġhum an
Ġas s
Ġinc lud
y ing
Ġp ict
Ġrem em
Ġde fin
Ġwr ong
Ġop en
Ġan im
ot t
Ġser ious
Ġsupp osed
Ġc op
Ġm ess
Ġv iol
ĠW hen
Ġhe art
Ġst ud
Ġwor d
et s
Ġto p
Ġbor ing
Ġs y
I n
Ġe as
Ġl ine
it ies
Ġcou ple
Ġ- -
Ġal ong
Ġwom en
id er
Ġcon c
ha ps
f ic
ĠA r
Ġ Z
ut h
le ase
Ġlo c
Ġcam era
Ġin d
itt en
Ġsm all
ĠHow ever
i ke
Ġhe ro
Ġe ither
Ġho pe
Ġcou nt
pl ay
ide o
Ġfa il
id d
ot e
ĠS te
Ġh ouse
Ġbec om
Ġbl ack
Ġunt il
vel op
Ġkid s
Ã ©
ain s
ograp hy
el t
Ġgi ven
Ġabs olute
Ġem ot
Ġmom ents
Ġs ong
Ġhum or
ter n
Ġli ght
f ortun
Ġfl ick
ite ly
Ġcon v
Ġp ass
ĠO ne
Ġ 5
Ġ hat
Ġs ad
ĠM y
Ġr om
Ġ 8
c om
in ess
se l
Ġprodu ction
Ġinst ead
, "
Ġm other
ĠA t
m ak
a x
ter s
iz e
or m
Ġb udget
Ġtru ly
ĠM an
Ġex p
Ġw on
Ġclass ic
Ġs ort
ar ing
Ġit self
Ġget ting
Ġn ame
Ġf ull
Ġsc hool
Ġex am
ĠN o
Ġpart icul
Ġc red
ĠW ill
i ant
or ies
Ġfav or
a j
g er
n a
Ġde ad
Ġne xt
I N
Ġp ain
ĠCh rist
Ġgi ves
v is
il ity
Ġdo ing
Ġ Â
Ġde p
Ġfa ce
m p
u g
Ġd ri
Ġre g
Ġexce pt
Ġam az
ĠH ar
Ġaw ful
Ġc oll
Ġw a
Ġother s
Ġde velop
ĠL e
um ent
ent ly
o on
Ġplay ing
Ġdialog ue
Ġp ower
t s
qu e
m ing
Ġter rible
r ic
Ġ 9
Ġl ines
Ġbec ome
im es
ill y
Ġ 7
Ġsl ow
Ġentertain ing
Ġof ten
re me
Ġtal ent
Ġw ent
Ġwonder ful
r om
I f
ri ght
Ġhow ever
Ġremem ber
en n
Ġgu ess
Ġli ve
iz ed
Ġcould n
ĠC ar
ib ly
Ġqu est
ĠN ew
o id
Ġan n
r iend
Ġlik ed
on y
an c
Ġv ideo
Ġc or
ĠTH E
t ic
Ġm is
Ġe arly
Ġc ase
l er
an k
Ġst ars
ĠM r
u nd
Ġproble m
ĠO n
Ġc ut
Ġact ress
l ine
Ġre f
Ġepisod e
Ġcl ose
t on
ho l
e c
r ound
v ent
ĠM c
Ġb rill
Ġsty le
Ġp iece
i am
Ġd ark
Ġrel ations
Ġimp ress
u red
Ġmay be
Ġm ention
it ch
Ġagain st
Ġf elt
Ġstr ong
ĠW ell
Ġ z
The re
Ġtit le
o ot
cc ess
ĠD on
Ġr id
Ġchild ren
sel ves
in ed
us ed
ul ar
ĠD av
Ġdefin itely
p ite
Ġp ast
Ġs ide
Ġwas te
le y
Ġ .
Ġbegin ning
ou b
pp ed
Ġfor m
ĠJ ack
Ġs w
um p
augh ter
Ġse ver
ro p
b ody
Ġseem ed
Ġli ves
Ġth rill
Ġdirect ion
Ġpict ure
c ha
Ġtr ans
Ġwor se
Ġbl ood
Ġcertain ly
Ġre nt
fortun ately
Ġext reme
Ġp ar
Ġsever al
un k
read y
Ġf ans
un ch
Ġabsolute ly
Ġrelations hip
Ġguy s
Ġbr other
Ġbecom es
Ġwr itten
Ġv ill
Ġf ant
ĠH is
Ġp op
Ġp red
Ġsome w
Ġdra ma
Ġsu ccess
ĠE ven
Ġv o
Ġad m
l ish
Ġp at
Ġn at
Ġsupp ort
Ġwant ed
Ġal ready
re w
Ġa v
Ġgr ou
Ġto wn
ri ed
if ic
Ġs on
Ġse lf
Ġbrill iant
ĠE ng
ag es
Ġt ou
Ġf ine
Ġcha r
Ġcinem a
Ġa ble
) .<
ĠF ran
ot s
Ġtot ally
t o
Ġg ame
v able
y n
ro wn
Ġal though
Ġm aster
Ġe t
Ġo cc
Ġgen re
c ess
Ġs at
Ġlo st
Ġc ent
Ġdo c
g u
b y
us s
er n
Ġtri es
Ġd em
ie f
Ġpro v
ĠS ome
Ġbas ed
Ġwant s
o il
am p
un g
id ed
Ġlo ved
! <
Ġpres ent
u c
Ġp ur
ĠÂ ĸ
1 9
Ġc ult
Ġhist ory
Ġann oy
icha el
Ġcall ed
Ġimp ort
Ġthrough out
Ġstart s
Ġst ra
Ġm or
Ġe ff
Ġmy ster
Ġview er
Ġthem selves
Ġst uff
ch n
Ġv al
Ġwr iting
e y
or ge
Ġb reak
Ġexam ple
ĠT o
Ġqu ality
Ġw alk
h ind
Ġappe ar
Ġh on
it ive
Ġenjoy ed
Ġsit u
Ġm ag
ran ge
Ġdes er
Ġin f
Ġn um
us ing
Ġp sy
ĠI s
in ation
Ġfa ir
Ġwork s
Ġturn s
b and
i k
Ġf em
Ġcom ment
Ġc apt
Ġno vel
u se
Ġkill er
ĠA fter
is ter
Ġde al
Ġfin al
ĠS ha
Ġto day
Ġpart s
Ġte en
? ?
Ġmat ter
is hed
m b
Ġb ra
Ġm ed
Ġle vel
Ġle arn
ud e
Ġgrou p
Ġkill ed
Ġty p
o ke
ri b
Ġg ave
o ff
Ġl ist
Ġc ol
Ġst op
Ġcont in
Ġex act
Ġet c
ie t
Ġsu sp
ro du
O T
en e
Ġhor rible
us band
h ich
Ġdel i
Ġd ays
A s
Ġmom ent
Ġ Q
Ġdec ent
Ġsequ el
Ġo pp
Ġle a
Ġdoc ument
Ġ ,
r on
Ġfin ally
Ġfavor ite
es e
aj or
Ġpr om
Ġbe hind
d y
ĠB rit
ur al
Ġev il
Ġb us
nd ed
icul ous
i ent
ĠRob ert
ĠI nd
c hes
ĠThe n
Ġd aughter
ĠH er
Ġthink ing
Ġc rit
ĠW ith
a pe
Ġf ig
Ġamaz ing
ĠAl so
Ġmy self
Ġeff ort
Ġh ilar
ĠCha r
Ġ ir
Ġc ost
Ġf ore
Ġl ate
Ġas k
Ġpro f
i or
Ġmur der
o x
Ġm ot
er ing
Ġs ays
Ġty pe
Ġviol ence
ast ic
Ġcon st
Ġper haps
en ces
Ġp ick
ant ly
l t
Ġst ories
at or
Ġint ell
Ġro les
i ves
W hat
Ġh usband
Ġf oot
A N
y p
Ġso on
g s
ĠW ar
Ġtoo k
ur t
Ġcons ider
Ġhappen ed
Ġhapp ens
Ġho ld
Ġfeel ing
Ġst ru
Ġhe ard
Ġexper ience
an n
Ġg un
Ġcha ng
Ġey es
leas ed
Ġres ult
ard s
Ġinc red
Ġro om
Ġrid iculous
Ġspe ak
ward s
Ġinvol ved
Ġdirect ed
. )
Ġso l
Ġs le
Ġm ajor
ĠM ichael
Ġn on
a ul
Ġextreme ly
Ġvo ice
ĠW hile
ĠW hy
Ġhilar ious
ut ion
ok es
ĠO f
Ġes c
ĠK e
Ġgirl s
ant ic
u ge
Ġlook ed
Ġs n
k y
Ġwe ak
Ġop in
ĠB r
ck s
ĠG od
ur b
Ġcinem at
Ġwould n
Ġsc ore
ĠG e
Ġa ge
s ide
Ġle ave
A T
ov ie
A nd
Ġd r
Ġbr ing
ris on
I L
ie ld
Ġtak en
art h
Ġst e
Ġdis co
Ġm et
Ġall ow
ĠP l
m atic
em ent
ĠM ay
Ġpred ict
ren ch
Ġto ld
Ġcare er
am ed
nd s
idd le
Ġun i
Ġwh ite
Ġqu ick
Ġd ream
Ġcom ing
Ġret urn
O N
on es
Ġsho ot
ian s
Ġag o
Ġc ool
b el
Ġcan not
Ġf ut
B ut
Ġst ay
ĠD an
Ġknow n
Ġde v
Ġte le
Ġchan ce
e g
Ġst re
Ġh it
Ġcom ed
Ġs we
Ġmo ve
Ġte chn
z y
p h
Ġche ap
at s
Ġst range
S T
Ġpol it
ie ty
ar b
ĠG er
Ġac ross
e red
Ġv ar
Ġc rap
ag ed
o f
an y
a id
Ġsim ple
Ġhour s
Ġw in
y s
Ġin de
Ġp arent
re st
Ġbu ild
Ġev ent
Ġobvious ly
ou ble
ĠE d
Ġcount ry
.. .<
Ġannoy ing
ub l
Ġsim ilar
Ġp ay
ĠT om
Ġdes c
Ġ2 00
Ġexact ly
Ġf our
ĠE very
Ġprodu c
O R
g round
s h
e an
Ġf oc
Ġend s
Ġsho ck
ĠP et
Ġp os
ĠC on
Ġfind s
icha rd
Ġdis c
ation al
ent ial
Ġpol ice
Ġc a
Ġl ar
ur y
Ġwr iter
Ġapp arent
pp ing
ĠDav id
Ġgo re
Ġshow n
au g
il i
g an
Ġp ot
a im
Ġhigh ly
ĠN ow
ent y
Ġt reat
A R
Ġde ep
en g
Ġg ang
Ġimport ant
Ġpre m
he ad
Ġ 6
Ġan g
Ġopin ion
ren ce
t ra
m os
Ġsomew hat
ĠO r
Ġfem ale
Ġstra ight
Ġph ot
Ġhon est
Ġor der
!! !
Ġp ull
Ġun c
ict ion
Ġd oub
ĠP e
ĠWill iam
ĠEng lish
in a
Ġb ody
Ġposs ible
ĠJ ust
c he
Ġh uge
Ġyour self
Ġfilm mak
w ise
Ġh ot
Ġsomet imes
out h
Ġfor get
he tic
Ġwho se
ch ing
Ġatt ention
Ġstart ed
Ġchan ge
Ġnum ber
Ġ ill
Ġmo der
Ġus ual
ĠJ ames
Ġdisappoint ed
g ra
Ġparticul arly
vis ion
Ġ ve
itt ing
Ġsa ve
** **
ĠA d
Ġd est
re al
Ġli ving
ich Ã©
Ġdocument ary
Ġrun ning
Ġopen ing
Ġturn ed
Ġsay ing
Ġsing le
ol og
Ġreal ity
Ġmus ical
Ġsusp ense
ll ing
ĠN e
ou d
Ġcoll e
Ġal one
Ġsub ject
es tern
Ġne ar
Ġsub t
Ġs illy
Ġre leased
Ġj okes
Ġon es
al d
Ġf ill
Ġv ict
r al
Ġa ir
Ġcinemat ography
Ġhe ll
Ġw ish
Ġdes pite
ac ed
ĠD o
un t
IN G
Ġshot s
Ġtak ing
Ġdet ail
ot ic
us ion
Ġme et
Ġs ent
Ġpl an
Ġe qu
! "
ain ed
ap an
Ġcl ichÃ©
Ġpr ot
Ġloc al
mos p
b ack
Ġkn ew
re ly
Ġm iddle
Ġproble ms
Ġset s
ĠP er
ĠE l
Ġev ents
Ġrem ind
Ġ ut
in o
Ġknow s
Ġtell s
Ġwe e
Ġte am
Ġin n
u ra
Ġword s
ĠS h
Ġap art
Ġres pect
Ġc art
ĠG ra
Ġinclud ing
v ol
Ġs ign
Ġtalk ing
y ond
au ght
Ġun f
ĠBrit ish
m m
Ġus ually
re ci
Ġat mosp
Ġcom pl
Ġintell ig
ĠY ork
b all
nd ing
Ġ2 0
l ight
w ho
Ġmoder n
E N
Ġr ating
i od
u ri
Ġfut ure
ou l
Ġam ong
Ġsur v
Ġl and
Ġp ri
i ra
Ġquest ion
Ġfor g
w hich
is ed
us h
ĠR ichard
or able
Ġm ist
Ġan t
Ġsequ ence
Ġm ark
Ġpre vious
g o
Ġt en
Ġl ad
pp y
for m
att le
l o
Ġare n
Ġb ro
Ġcont ro
ang er
Ġhand s
it al
Ġsc ary
ke y
Ġho p
Ġl aug
Ġd ue
ct or
Ġcom ic
om p
Ġu lt
Ġas pect
an ces
Ġappe ars
ar is
el s
ĠJ apan
Ġm ater
Ġe ar
Ġn one
Ġen g
Ġcle ar
i res
Ġeas ily
Ġmost ly
Ġstory line
Ġw ays
ubl ic
w here
Ġrom antic
Ġatt ack
Ġparent s
ĠS am
Ġcle arly
Ġhapp y
ant s
Ġo dd
ie l
irect or
Ġad ult
M y
Ġsex ual
Ġgi ving
A l
Ġf ast
iv al
ĠGer man
Ġfl aw
Ġd ull
Ġmater ial
as c
Ġhat e
Ġn arr
or ry
Ġpredict able
ĠB ra
Ġbo x
r ated
Ġapp reci
Ġab ove
ic es
Ġtw ist
Ġbegin s
ub b
Ġcam p
Ġenjoy able
l in
Ġperson al
Ġfall s
Ġele ments
Ġha ven
ĠU S
Ġad v
S t
in al
ĠP aul
Ġvict im
or ld
Ġserious ly
Ġsu ff
ies t
ĠO sc
as y
Ġthrill er
Ġre ve
gg est
Ġb unch
ĠA m
Ġsp oil
Ġsec ret
en ing
Ġsurpris ed
Ġepisod es
Ġthem e
Ġeas y
Ġz omb
ir t
Ġpoint s
ĠG r
Ġset ting
c l
ver age
Ġn amed
Ġd ru
Ġper iod
Ġsu ggest
Ġdoub t
Ġmess age
ou n
Ġentertain ment
Ġis s
Ġtele vision
Ġm ix
Ġtyp ical
Ġm il
Ġst ri
? <
Ġbe yond
Ġsl ight
ĠAmeric a
Ġsong s
Ġsupport ing
w ork
Ġey e
Ġse ason
Ġneed s
tra ck
us es
o or
ens ion
Ġtr uth
Ġp leas
A L
Ġfeel s
Ġ8 0
ĠA ny
Ġlead s
Ġin sp
fic ult
Ġke pt
' ,
Ġcom b
Ġme ans
Ġ19 7
Ġview ers
Ġtri ed
Ġwork ing
et h
Ġlar ge
ĠB ro
Ġso ld
Ġche ck
Ġem b
ĠA ng
Ġher self
Ġdif ficult
Ġthe at
Ġwith in
ress ed
Ġb ar
Ġfeat ure
Ġcre ep
h ic
Ġf ree
Ġre lease
Ġup on
ĠF rench
Ġ19 8
b s
ar a
im ent
Ġac cept
ĠGe orge
Ġbr ought
g y
ĠL ee
ul a
ir c
ow s
Ġcom ments
Ġvis ual
i ally
Ġfilm ed
Ġr u
Ġdec ided
Ġs il
ous ly
Ġth row
ĠC ol
Ġshow ing
for d
Ġsequ ences
ĠD is
k ing
Ġs ens
Ġbus iness
Ġsound track
O U
m ore
Ġtra g
Ġcl im
Ġcr ime
Ġc ity
Ġp rison
Ġsp ir
Ġn orm
Ġact ual
Ġview ing
Ġpsy c
ĠN OT
!! !!
A n
ab y
Ġt ale
Ġpo st
S o
Ġover all
ĠI M
Ġre d
li er
k ay
is ing
ho st
ri fic
Ġne arly
Ġro b
Ġhe ar
ĠB en
ce ed
ĠM art
re y
Ġreview s
Ġprem ise
Ġint rodu
Ġus ing
Ġsuper b
Y ou
Ġwr it
Ġback ground
Ġfig ure
Ġg ay
ver all
Ġbelie vable
? "
Ġg row
t t
Ġav oid
Ġmov ing
es y
Ġexpect ed
Ġd ie
Ġatt ract
Ġha r
! )
inc ing
r ing
R E
Ġex ist
ll ow
Ġed iting
Ġbas ically
Ġbu y
ir lf
Ġgra nd
ĠFran k
ĠS m
Ġreal istic
Ġkill ing
ĠM or
b o
Ġre se
Ġad apt
in ing
es ome
ĠW ho
Ġeffect ive
Ġso c
Ġu nd
Ġatmosp here
ar ch
irlf riend
Ġwe ird
Ġwa it
dd en
Ġw it
ĠIt al
ĠUn fortunately
Â ħ
m as
Ġc ur
Ġl im
Ġst ere
Ġex ec
ĠO K
ĠMay be
Ġfam ous
Ġ/> "
Ġfor ced
Ġfant astic
Ġf ive
ĠP r
Ġlot s
Ġpoor ly
Ġlea ves
Ġc at
ĠD r
Ġ er
ct ed
ick s
b ers
Ġ *
Ġl ame
s w
ill s
ĠQ u
Ġt re
Ġsurpris e
ĠOsc ar
Ġthe ater
Ġst age
Ġen c
Ġanim ation
Ġult im
Ġob s
Ġa verage
W hen
s pect
Ġparticul ar
Ġexpl o
Ġbo red
Ġg one
Ġbec ame
Ġsitu ation
Ġfr ont
Ġ id
ur ther
Ġmyster y
r id
g es
Ġut ter
Ġres p
Ġm ale
av y
p iece
Ġs ister
Ġapp ro
Ġw ood
ac es
Ġp ure
ĠC an
al ing
is f
ĠW ood
Ġsu dden
Ġcre w
Ġear lier
Ġstru gg
y e
hy s
Ġvill ain
Ġapparent ly
ĠG u
Ġ19 9
Ġinterest ed
Ġbe l
ĠO h
ien ces
ĠPet er
he l
pe nd
u ro
Ġl os
ho od
ĠK ing
og n
Ġp ublic
Ġstere ot
er ry
Ġwhe ther
Ġmean ing
f er
Ġgreat est
' .
Ġcle ver
Ġcost um
c ing
Ġf ra
Ġth ird
O ne
om in
ak es
ĠAl though
Ġcon cept
Ġfoot age
k n
Ġst un
ri es
ll y
Ġwork ed
Ġmin ute
w ell
i us
Ġd umb
Ġmem orable
Ġprof ess
Ġto wards
Ġsoc iety
d ing
ĠJ ul
Ġcred its
b ert
Ġscreen play
Ġlaugh s
Ġuni que
Ġinv est
ri f
Ġr an
Ġposs ibly
Ġro ck
ĠM ost
Ġsome how
ag er
Ġgener al
Ġquick ly
Ġkeep s
t ime
Ġpower ful
f riend
Ġc ap
Ġl aw
Ġdes ign
Ġreal ize
Ġfeat ures
ar re
Ġ3 0
c ious
Ġexp ress
Ġl iter
Ġg irlfriend
ĠS im
Ġperfect ly
Ġold er
Ġneed ed
Ġme ant
Ġche esy
Ġt ast
Ġdist urb
ĠF ilm
ang u
ili ar
k es
Ġsha me
Ġad vent
t his
ur d
Ġemot ional
p or
Ġn or
Ġpro ject
Ġread ing
ĠC han
Ġr ich
Ġh om
ĠF rom
Ġwrit ers
Ġy es
m in
Ġc irc
Ġd am
Ġemot ion
ver n
Ġrom ance
F or
Ġw ind
Ġhist or
ect ive
Ġ7 0
Ġdevelop ment
Ġvar ious
Ġdo g
ĠC om
bel ie
s u
ĠC ra
Ġm ill
ĠS u
cess ary
ĠIM D
Ġwh om
ĠJo e
Ġco ver
Ġnat ure
ĠY es
ĠDis ney
Ġs ick
ĠT w
Ġpur p
ĠE x
Ġbr ings
Ġdra matic
Ġcon ne
Ġcop y
on ic
ro y
E S
oo f
and y
ĠJ im
Ġpop ular
g ed
ch ie
Ġimag ine
Ġfor ward
is es
Ġc ry
st ead
l ook
" )
Ġo per
et t
arr ing
Ġf ire
ĠJapan ese
ĠC he
Ġbad ly
Ġme ets
Ġany way
Ġtot al
ĠIt s
Ġdirect ing
Ġwr ite
n el
ĠBl ack
v in
Ġb attle
Ġman ages
Ġfl at
Ġ19 3
er v
Ġ $
Ġre pe
Ġam ount
ĠSc ott
ĠThe se
pp er
b or
un ny
Ġext ra
i ved
Ġa ut
b l
ol f
re ed
Ġc atch
Ġfair ly
Ġm ent
ĠD ra
er o
Ġag ree
Ġinn oc
Ġ9 0
Ġadm it
z z
ĠP h
ĠG ood
ak ed
Ġb are
Ġun like
Ġcomm un
in y
Ġne g
ac her
Ġreason s
ag on
w ith
Ġocc as
hol og
ag ue
? )
A ll
Ġide as
v al
Ġf asc
as k
ĠA nt
ck ed
itt y
iv id
Ġmon ster
ha m
a f
Ġact ed
ud ity
Ġcl aim
ĠL ike
Ġpot ential
ber g
Ġsy mp
el ess
o le
ip s
Ġevent ually
Ġ ident
b it
Ġcre ate
ĠW orld
Ġfail s
a ction
Ġd anc
itt ed
Ġ19 5
Ġfor mer
c her
Ġsle ep
Ġ era
ak ing
Ġcart oon
z e
Ġso cial
Ġrec ogn
ĠP at
Ġrem ake
Ġincred ibly
Ġpl ain
ĠL u
ĠB ill
Ġlead ing
Ġfl ash
Ġmaster piece
Ġ ...
Ġsp ace
Ġ ign
ĠM ac
ĠE n
Ġm ad
Ġdirect ors
Ġdeser ves
Ġim m
Ġmiss ing
O O
Ġp lease
Ġout side
Ġtell ing
it ation
Ġportray ed
e ven
Ġc ond
Ġ( "
Ġcreep y
ar ry
Ġbe ha
Ġst at
Ġfight ing
w rit
Ġmur d
Ġinde ed
Ġoff ic
Ġmar ried
ĠB y
ĠE uro
m ist
Ġwas ted
ĠM ad
Ġj oke
Ġl angu
Ġexpect ing
Ġcreat ed
ort hy
pt h
Ġar ri
Ġb le
Ġpolit ical
e le
ĠF l
ĠF red
Ġ est
Ġpl enty
Ġp hys
ĠT ra
Ġlaugh ing
Ġfilmmak ers
H ow
Ġl at
Ġswe et
ve red
e en
im p
Ġcomm on
Ġtra vel
ud d
Ġb and
ĠA N
Ġfam iliar
Ġha ir
arr ass
g ing
Ġn udity
ĠN ight
b oy
Ġcol or
a ur
Ġc aught
Ġwhat ever
Ġins ide
o pe
med i
Ġint ri
a per
om an
Ġ :
u ine
ĠI I
Ġdes per
se t
ĠE m
A D
c ent
Ġtra d
Ġend ed
Ġexpl ain
Ġcra zy
ĠIMD b
w hile
Ġpos itive
Ġj our
v il
en ed
Ġj ud
ven ge
Ġcl os
ut er
Ġsc ient
ious ly
Ġter ror
Ġsound s
c on
c le
ĠF irst
Ġpro p
Ġl oo
Ġst ep
ĠHar ry
Ġtalent ed
Ġemb arrass
al th
ac ing
Ġid i
ill er
Ġre qu
ĠA ust
I S
Ġs orry
Ġm id
ar l
Ġwat er
c ause
Ġsp ent
L Y
it es
L E
Ġf urther
Ġc ute
Ġattempt s
Ġa chie
Ġacc ident
T H
p ar
P O
Ġd ance
Ġp ace
Ġus es
Ġval ue
Ġspir it
Ġnot e
n ed
as her
Ġgen uine
Ġsubt le
Ġbr ief
Ġrec ord
00 0
Ġesc ape
ĠM on
Ġpoint less
iz ing
Ġentire ly
et te
Ġh y
Ġcomple x
as ed
Ġun belie
o e
Ġstereot yp
Ġan sw
Ġa f
g est
Ġde pth
Ġfun n
l u
Ġb iz
l ict
ĠIn stead
Ġdec ides
Ġ ess
ro om
un e
Ġcred it
k i
Ġhard ly
Ġin e
Ġst ore
Ġra d
f i
oss ible
ĠD ead
Ġcast ing
ra ge
Ġslight ly
o ver
ĠS w
Ġmem bers
Ġmention ed
Ġmed i
Ġsol id
ĠO ther
Ġexc iting
l usion
Ġp orn
le x
ĠItal ian
Ġsat isf
ĠS er
Ġcontro l
Ġre ce
Ġm el
ĠM e
ge nd
Ġ1 5
Ġrec ently
Ġtra il
Ġdel ight
Ġmo d
ĠG reat
Ġre vol
Ġcho ice
kn own
i ving
Ġim medi
Ġviol ent
ĠT r
Ġm er
ĠH a
ing er
Ġconc ern
em y
ĠEuro pe
Ġa ff
ie ces
ly ing
Ġdo ll
Ġportray al
s en
D on
ĠH en
ĠP ro
st ers
o red
ĠD es
Ġwa iting
il t
Ġrel ig
Ġpart y
ash ion
c ome
Ġconv incing
Ġforg ot
Ġb ed
ĠH ere
Ġf it
Ġw all
Ġd ied
Ġfollow s
Ġdra w
A S
Ġimp ro
ĠL ou
Ġbeaut y
Ġmov es
ĠB ru
Ġw estern
Ġintellig ent
Ġm ass
Ġwr ote
Ġfant asy
Ġother wise
Ġrem ark
Ġ19 6
Ġbra in
Ġsitu ations
n o
m en
Ġam using
ĠA f
ib ility
in ary
is hing
Ġse es
ĠJ e
Ġappreci ate
re l
ha r
ag ing
Ġfe ar
Ġ5 0
Ġl uck
ir ty
g l
Ġacc ent
if f
Ġtr ouble
idd en
Ġlad y
Ġt ort
Ġp u
Ġsuccess ful
re ct
ĠV an
Ġlong er
Ġt ension
Ġg host
Ġspe nd
Ġdec ide
O n
se qu
ap pe
Ġopp ortun
Ġcr im
le t
Ġgr ound
ri an
ĠM ary
Ġboy s
Ġfollow ing
ĠA ct
stand ing
Ġimpress ive
Ġc ross
ut ed
Ġpurp ose
Ġbr ut
Ġlangu age
E D
Ġsc ream
Ġmiss ed
ĠB ob
res h
Ġf ol
Ġsu spect
ĠR uss
ĠO F
as hing
Ġfoc us
it ary
ĠW h
Ġw ild
Ġsu m
ĠN or
rib ly
Ġcult ure
Ġb all
Ġb other
Ġprodu ced
Ġha ng
Ġr ate
f ort
en er
ic ed
Ġfill ed
Ġsc i
iz ation
Ġtou ch
Ġun fortunately
Ġrun s
ĠM ur
ĠW atch
Ġinvest ig
i ers
ar ily
ĠSt ar
Ġmin or
ens ive
Ġrep res
Ġ `
Ġproduc ers
Ġbig gest
Ġinvol ving
Ġreg ard
Ġc ru
ill e
Ġquest ions
Ġrec ent
Ġcomp et
mist ry
Ġbook s
m ovie
ĠInd ian
Ġs oul
Ġst ick
Ġcont ri
Ġexcept ion
Ġchang ed
Ġd anger
Ġj ump
Ġint e
Ġra p
Ġs qu
N ot
Ġb reat
ow ers
Ġlaug ha
Ġdo ctor
Ġun in
Ġ19 4
Ġhum our
Ġt ough
Ġbiz arre
Ġshow ed
Ġf ake
or ror
Ġsl asher
O W
b b
Ġnot ice
Ġyoung er
c ast
ĠH ol
ell y
Ġra nd
Ġcolle ge
O M
m es
ĠC ity
Ġun less
Ġsha r
Ġcomp ared
ĠG old
Ġaw esome
Ġwere n
Ġcontin u
Ġre fe
id ing
eng th
Ġt est
Ġp ract
Ġfasc in
ate ur
Ġche mistry
Ġocc ur
ĠL ove
Ġv amp
ru pt
ĠM ovie
Ġdep ict
Ġsudden ly
Ġa uth
Ġgo vern
Ġgl ad
Ġthink s
Ġre de
Ġpat hetic
Ġincred ible
Ġfail ed
Ġant i
ri ff
Ġlik es
form ation
re g
Ġpro per
Ġcomp any
Ġbas ic
ex ic
Ġre pl
le ct
ĠSt re
Ġinter view
Ġconc lusion
Ġbe at
PO IL
a i
W ell
Ġb aby
Ġk ick
Ġprodu ct
Ġbare ly
V ER
Ġval ues
an a
Ġnorm al
Ġg arb
Ġth reat
Ġappear ance
id ence
Ġne ither
Ġiss ues
ĠA g
Ġcrit ic
if ied
iz es
** *
Ġass um
Ġdisturb ing
ĠR ed
Ġro ll
w ar
ide red
Ġmat ch
Ġrand om
Ġd ro
ĠSm ith
ri age
Ġman ner
POIL ER
Ġsu c
Ġwee k
A fter
ĠG o
Ġfav our
Ġoff ice
less ly
Ġins ult
Ġmo od
ĠMart in
g ress
Ġun ex
Ġp un
Ġe arth
Ġb omb
Ġfor ce
cha ble
Ġd i
ir ing
Ġcom pe
Ġis land
Ġtra in
Ġra re
Ġkill s
T h
Ġp ers
Ġgen ius
Ġstud io
t hat
Ġdo or
Ġa ffect
Ġst ate
Ġp ack
ly n
Ġreve al
Ġre venge
Ġab ility
Ġsp ot
Ġtra ck
ĠM exic
Ġsymp at
ĠS at
ĠJo an
Ġlea ving
Ġshoot ing
ĠJ ane
n ie
Ġhe avy
Ġ !
ĠB oy
Ġimp ossible
ĠGr ant
ĠM at
Ġcons idered
Ġcar ry
ott om
al t
Ġsm art
Ġdeli ver
Ġpres ence
Ġrede em
Ġal ien
if y
Ġmag ic
Ġtast e
ĠB ig
st it
Ġcomp uter
Ġsu it
Ġc ause
Ġam ateur
Ġultim ately
Ġflash back
Ġadvent ure
st r
Ġj o
Ġco ld
J o
c er
Ġimag es
Ġsh ip
ĠAng el
k en
Ġde f
ĠBru ce
Ġind ust
Ġpl aces
ĠJ ones
Ġresp ons
Ġsuc ceed
Ġappe al
ress ing
Ġnat ural
Ġf at
Ġf resh
Ġimmedi ately
Ġav ail
n ow
Ġle g
Ġb ought
ver t
Ġr ide
Ġdr ink
ver se
ond on
Ġro ad
ĠM iss
Ġcl ot
Ġs pect
ĠC or
ĠP ark
Ġutter ly
W e
y le
Ġpro gra
Ġstand ard
ĠAll en
Ġconsider ing
mak ing
Ġcomed ies
ad es
L L
Ġ X
Ġgarb age
est ival
Ġaud iences
Ġtr ash
Ġsing ing
Ġun s
ic ated
Ġdru g
rop ri
ĠD u
Ġg rap
ent ed
in i
Ġl oud
ĠT im
Ġm ult
ut s
han t
Ġb ull
Ġintri gu
Ġf ashion
Ġst arring
Ġne igh
Ġconf lict
ĠAf ric
er m
j ust
Ġbuild ing
r ont
Ġobs ess
" .<
r as
Ġs ix
ve y
ain ing
Ġman aged
B e
Ġp il
Ġd ig
Ġem p
Ġstre et
Ġclim ax
s es
Ġauth or
Ġlo g
Ġlike ly
ĠRob in
Ġgener ally
f ace
y l
am b
a res
at ure
Ġtw ists
ĠPer haps
play ed
Ġd in
Ġgo d
Ġsex y
Ġu r
un ting
Ġzomb ie
ust er
ic he
Ġtri p
ĠChrist mas
Ġmyster ious
Ġl ab
al es
Ġchang es
Ġth rown
Ġcha ll
Ġind ivid
ĠChar lie
Ġal ive
ĠL au
Ġmon th
Ġadd ed
Ġadd ition
ĠAd am
a wn
Ġter ms
ĠR o
Ġlo ves
ir th
st em
ĠS and
Ġo kay
Ġho st
y ou
ive ly
ren ces
ĠW ay
Ġstun ning
I D
i ven
ĠE arth
Ġnow here
Ġt one
ĠH igh
Ġappro ach
Ġhistor ical
k in
T hat
Ġwit ness
Ġdri ve
Ġmil itary
ĠA lex
Ġboy friend
r ick
ĠL ondon
ĠChar les
Ġdest roy
Ġliter ally
h ouse
Ġimpress ion
g ue
ĠG l
Ġ1 00
Ġpl us
Ġgovern ment
Ġte acher
it ude
m on
n ight
Ġtou ching
es ides
ell ing
Ġcostum es
ain e
Ġmak ers
Ġdet ective
Ġdem on
Ġm ach
ĠH ard
Ġdisc uss
T o
a ff
Ġb oss
Ġc uri
ill ing
Ġsc ience
Ġter rific
Ġcinem atic
Ġchar m
Ġsil ent
Ġpain ful
Ġconst antly
pl es
Ġsurpris ingly
Ġmar riage
Ġanim ated
Ġinf lu
Ġdetail s
ĠHen ry
on ed
Ġd ad
ĠS ci
Ġle gend
ĠSt ill
Ġinnoc ent
Ġhappen ing
Ġchar ming
F irst
H e
ĠM el
ĠC G
ĠD ou
Ġrem ains
Ġsupp ose
Ġf ully
ill a
op her
Ġunbelie vable
Ġavail able
Ġg em
Ġbeautif ully
Ġesc ap
I T
Ġg ag
Ġknow ing
Ġke y
p art
ĠR ock
ĠL et
Ġpre p
Ġinter n
ĠC o
Ġprot agon
Ġpsyc holog
w art
u el
il es
Ġra ce
Ġput s
Ġdanc ing
Ġindivid ual
Ġcom mer
ĠSe c
Ġemot ions
Ġoff er
ĠY e
d own
Ġpresent ed
u it
ĠH all
Ġbrother s
Ġd im
ab ility
ok ing
Ġsy stem
Ġhop ing
Ġlaugha ble
Ġin it
Ġst o
Ġsomew here
c ock
ĠS ch
Ġabs urd
a us
ĠS T
ĠB ur
ĠB er
S ome
st e
Ġdis g
Ġsur round
ĠN ic
Ġnarr ative
Ġs itting
ĠH am
Ġspe c
ar ies
ĠTh om
Ġslow ly
Ġloo se
ĠR ay
pl oy
Ġopportun ity
Ġim pl
ĠSte ve
ri be
Ġdr unk
Ġaspect s
Ġl ength
Ġlove ly
s ing
Ġn ames
ĠM oo
N ow
ĠR E
Ġscen ery
Ġexpect ations
Ġpict ures
Ġfa ith
Ġphot ography
w hat
it or
Ġde fe
Ġdisappoint ing
ĠP ol
Ġdesc rib
ĠD irector
Ġvictim s
Ġdisco ver
Ġthem es
Ġlik able
Ġmist ake
Ġinte nded
Ġof fe
Ġd iv
Ġact s
ast y
Ġcont r
Ġdisappoint ment
Ġjour ney
Ġmedi oc
A C
Ġser ial
Ġstand s
Ġele ment
if t
Ġgo ld
Ġflick s
olog y
Ġfeel ings
Ġequ ally
Ġlack s
ĠR og
iv il
Ġfin ish
Ġrecommend ed
ĠB ad
ict or
ĠSt an
en ny
ĠB est
Ġart ist
Ġstud ent
ĠOn ly
p ro
Ġout standing
n at
Ġa st
Ġb urn
Ġli f
en cy
Ġd ies
ent ially
Ġ1 8
ines e
b udget
and s
Ġd ate
Ġcent ury
Ġri p
Ġpass ion
ĠB el
ĠH itch
Ġser v
Ġexc use
c ra
s ed
Ġst uck
Ġmor al
ain t
de red
Ġwalk ing
Ġfilm ing
te xt
ac hes
Ġf right
Ġdevelop ed
ĠCan ad
Ġaff air
ĠH ouse
Ġv irt
Ġbeha v
Ġp ieces
il ities
Ġadapt ation
.. ...
Ġtrad ition
he art
op h
ĠN at
ĠPe ople
Ġt ired
U n
ĠT ony
Ġpsy ch
Ġf reak
ra d
Ġmill ion
I G
ĠJ ean
? !
Ġfascin ating
ac hed
is ion
Ġc ell
Ġn umb
O V
ĠS ure
Ġrem ote
Ġadd s
ĠAn other
Ġinclud e
ĠMc C
Ġs pl
Ġn aked
Ġint ense
Ġlo ver
Ġdis appe
ĠSte p
Ġm outh
Ġli ved
Ġ4 0
Ġsold iers
t able
and er
ĠBe cause
Ġf iction
ĠC al
Ġdis aster
Ġrelationship s
A t
Ġqu al
Ġc as
ĠP aris
gg ed
a ire
Ġen er
Ġneg ative
Ġam b
ort s
Ġd read
ic a
ll ed
Ġdisg ust
ĠY et
Ġcommer cial
Ġun us
en a
Ġpro cess
pend ent
Ġfol ks
ĠS ad
Ġso ft
Ġfall ing
W hile
f ield
Ġpr im
Ġmag n
Ġmel od
re m
ĠJe ff
on na
Ġnew s
ĠW here
Ġdra wn
Ġconf used
ĠWilliam s
b an
er ous
Ġres c
g ly
ĠT han
ĠD ay
ĠD un
Ġor d
Ġconf using
ĠDav is
ĠL o
se e
Ġfe ll
ĠChrist ian
W ith
k a
Ġproduc er
u ous
Ġho sp
Ġse g
Ġob ject
Ġbreat h
Ġindust ry
ĠT e
Ġdeli vers
Ġ6 0
ĠB illy
Ġcont ains
ĠBr other
ele br
Ġinsp ired
Ġ ****
Ġimpress ed
Ġallow ed
Ġhas n
Ġqu iet
Ġbecom ing
ĠS pe
Ġr out
Ġactress es
i pp
m at
ĠS ee
Ġfa ces
Ġfa ult
Ġsha re
Ġstud ents
a ven
I C
Ġthan k
Ġseem ingly
led ge
Ġzomb ies
re nd
Ġw orthy
O h
ow ing
ĠJ ason
Ġme rely
Ġhigh light
Ġkid n
Ġflaw s
is on
ĠAmeric ans
Ġed ge
Ġfind ing
orge ous
Ġmult i
w r
Ġm art
ĠI r
ĠCh inese
Ġlaug hed
op s
Ġdiffe rence
x ual
Ġp aid
it ions
ĠA b
ĠE r
Ġapart ment
ĠMoo re
Ġcon vers
A meric
Ġoff ers
Ġd en
ho p
Ġcur rent
ĠSu per
ĠO verall
Ġacc ur
C h
ic ide
writ er
it a
ic ious
Ġcha se
Ġopp os
ĠW est
is hes
ĠM ag
Ġsl ap
ĠG ar
od ies
Ġwonder ing
Ġhonest ly
Ġgi ant
Ġa head
ĠM ore
ust r
O verall
Ġf ood
se y
Ġfor t
Ġh ig
ĠM us
au d
omet hing
Ġcont ent
Ġcompe lling
p ret
ĠS outh
Ġ1 3
pect ed
I E
ĠB at
ĠCh ris
Ġj oy
and a
ĠTh ough
Ġtrag ic
u nder
Ġprov ides
ĠP al
Ġir rit
Ġphot ograp
Ġs ight
Ġc elebr
Ġimp act
or ter
Ġhe ld
ag ger
ĠNot hing
l or
Ġany more
Ġun ne
ĠV ictor
Ġcle an
Ġadult s
Ġg ri
Ġcor rect
Ġforgot ten
i vers
ĠM ike
ĠL ew
Ġacc om
ra id
Ġh ide
in ct
Ġst ation
ĠC r
Ġappe ared
Ġcrit ics
bo ard
Ġperson ality
mb ol
ĠTw o
in ally
Ġshould n
Ġmain ly
Ġremind ed
Ġwe ap
Ġmurd ers
Ġhosp ital
Ġdra g
ĠM ark
e per
Ġb ase
Ġg orgeous
Ġspect ac
Ġd ouble
Ġcomp aris
Ġdream s
ĠW W
Ġlight ing
Ġattract ive
Ġth in
ough ly
od e
te nd
Ġwill ing
Ġho les
Ġin formation
Ġyou th
Ġrent ed
d o
i um
ow ell
ĠN az
enn is
Ġfore ver
ĠHitch cock
ist ent
Ġevery body
Jo hn
ar ant
Ġmelod ra
A ny
re qu
al y
ĠS how
i que
ot ed
ab l
Ġag ent
Ġfunn iest
Ġmedioc re
t a
Ġhel ps
Ġun w
Ġno body
N o
dd ie
ĠCG I
en ge
ĠH ell
th ur
ĠThe ir
Ġform ula
Ġprov ide
ĠI S
g ood
Ġw ise
ĠV ery
Ġput ting
Ġprogra m
an ic
Ġn asty
ill ed
Ġimag ination
ĠR y
w in
am ent
Ġn ons
ĠB oth
ur ch
Ġare a
Ġim age
Ġang ry
f fe
Ġfe llow
Ġkn ock
Ġturn ing
Ġmot ion
B l
e al
ĠSte ven
Ġexpl an
Ġmark et
Ġb i
Ġg ames
Ġansw er
Ġp ra
ĠP art
Ġr ound
Ġno ir
Ġcent ral
ĠW estern
Ġsurpris ing
Ġe at
Ġe ight
app ed
Ġsuper ior
Ġmem ber
ĠT er
Ġenc oun
B C
u k
Ġo h
Ġc row
le v
Ġas ide
Ġfollow ed
ag ers
Ġread y
c han
Ġb right
Ġun real
Ġbl ond
Ġcomed ic
Ġachie ve
. ,
D e
i ro
Ġon to
ĠH el
Ġexpl os
Ġloc ation
ĠS l
Ġun known
Ġcontin ue
Ġb ene
ĠYou ng
Ġre ach
Ġsu mm
Ġact ions
ĠJ ew
Ġdesc ribe
ĠM s
Ġunder st
Ġoccas ion
s he
A Y
g ar
if er
Ġlat ter
ropri ate
m ark
an ish
ĠM att
Ġpro ves
Ġstand ards
at ors
ul es
ĠHow ard
Ġtrail er
ĠC at
us hed
Ġlo se
Ġunus ual
os es
Ġm ut
Ġbo ard
Ġs our
Ġd ubb
an cy
as ure
Ġcou n
Ġcreat ive
Ġsupposed ly
Ġcolle ction
in n
Ġmov ed
ention al
Ġcomment ary
Ġtrag edy
ĠB o
Ġfavour ite
st al
r ance
ĠL ind
ĠG reen
Ġjust ice
Ġthan ks
Ġrese mb
oo per
A M
gl as
i ac
Ġa im
Ġse arch
Ġwe aring
ye ar
b ad
z en
om en
Ġchild hood
Ġsy mbol
Ġl ed
Ġaw are
Ġem ploy
ĠW il
Ġtr ust
p ort
Ġrel ative
l ife
Ġne cessary
Ġsecond s
Ġshock ing
ĠAust ral
Ġ1 2
Ġposs ess
ĠKe vin
Ġintrodu ced
f ather
ĠE ast
Ġbl ind
Ġbl ame
Ġaccom pl
i os
ĠD ark
Ġd u
Ġcreat ure
az y
ĠAn n
ura lly
T V
ot es
ad y
ĠJ es
Ġintrigu ing
Ġmo b
ĠF e
r ors
ĠD id
Ġpl ane
Ġtw ice
Ġwar m
Ġhero es
Ġaf raid
Ġunex pected
Ġt our
Ġhelp ed
Ġask ed
Ġpick ed
i ens
E T
ar get
se ll
ĠS il
Ġwood en
Ġth us
Ġplan et
Ġbro ad
Ġse ll
Ġdes ert
az z
Ġins ight
Ġspeak ing
ĠclichÃ© s
Ġb ank
Ġl oss
Ġas ks
Ġth or
Ġprofess ional
Ġs ac
Ġhead s
Ġbel ong
Ġsk in
Ġteen age
Ġb al
em por
ĠO l
Ġacc ount
Ġbor n
Ġscient ist
er k
ha s
an na
Ġbe gan
Ġho ok
Ġem pt
ĠRuss ian
Ġclot hes
C H
m iss
Ġb ottom
ĠB ond
Ġsha d
Ġintellig ence
ĠF ar
Ġpro gress
Ġperfor m
Ġsure ly
he rent
ĠT re
ĠK elly
ĠChrist opher
Ġmart ial
ro c
ĠG irl
ard ed
Ġrepe ated
Ġphys ical
Ġredeem ing
Ġb ur
ĠL uc
so ever
ac y
e ch
m i
ĠP res
Ġsub st
Ġc al
e k
Ġdam n
Ġnumb ers
Ġw ide
Ġp air
Ġha m
Ġh int
ĠL ittle
Ġreal ized
Ġinclud es
Ġhat ed
it z
pect ive
Ġwant ing
c ho
j a
Ġwhat soever
h ony
Ġp en
Ġd ying
ĠT oo
ent ious
Ġu gly
Ġfight s
Ġfilmmak er
ar io
ur ity
Ġbrut al
ste in
Ġ ver
Ġv ir
ĠN ick
ir k
Ġpre fer
es b
il os
Ġdist ract
Ġra c
Ġstre ng
ho d
ast s
Ġmem ory
ĠAN D
ĠS ar
Ġpart ner
ro g
ĠB as
ĠD ick
Ġpri v
) <
an ced
ov ies
k ins
l ock
her n
k ward
ĠO N
Ġvill ains
Ġwat chable
Ġcour t
Ġep ic
Ġmiss ion
ĠAny way
Ġstrugg le
ĠA pp
Ġchan nel
os h
ab e
Ġanim als
Ġmot iv
Ġinde pendent
Ġgang ster
Ġhot el
ĠL yn
Ġsad ly
ct ure
Ġde b
pl ot
Ġbl ock
ue en
o ons
u gg
Ġbit s
Ġcra ft
Ġre lie
Ġte ars
ĠJ erry
f ilm
und red
ate g
ab or
ap s
Ġiss ue
Ġb irth
ĠE ddie
I I
Ġte nd
Ġph one
g n
Ġd er
Ġ197 0
ĠDou glas
ll e
le ep
ĠR om
Ġr ubb
Ġfin ished
ĠMan y
Ġl a
ad ed
un ted
Ġst ink
ĠS us
Ġunderstand ing
Ġcrow d
Ġc ivil
ck ing
Ġany where
ĠI N
Ġknow ledge
Ġdru gs
Ġpil ot
Ġr is
pl ic
Ġgun s
Ġve hic
Ġmix ed
Ġh yp
Ġde but
ĠJack son
all ed
ĠA p
Ġaw kward
Ġhold s
Ġre act
ĠR us
Ġcl ub
Ġart s
Ġreturn s
ĠPh il
a ving
Ġr ated
so ci
Ġra rely
Ġdep art
Ġdeep ly
or ing
an ity
r ical
Ġt ed
Ġen v
Ġg e
te en
te red
Ġhor se
Ġvis ion
Ġrad io
Ġperson ally
Ġlead er
Ġrespons ible
Ġh its
ĠB ar
Ġlet s
Ġlim ited
ĠN ever
Ġst ock
ĠE s
Ġener gy
g ent
v ille
ian ce
Ġp acing
Ġconf ront
Ġconst ant
Ġh urt
Ġplay ers
Ġele ct
Ġde g
ĠR os
at on
ĠB rown
Ġvamp ire
Ġab and
Ġar my
Ġsm ile
ĠDan iel
Ġunne cessary
m ar
Ġse par
ĠB et
ĠDe ath
Ġdeser ve
Ġt ight
Ġc ars
ac he
Ġblood y
nat ural
U T
he ro
ĠE ll
Ġfl oor
ens ional
be red
Ġexpl ained
Ġnice ly
Ġ195 0
ĠM al
Ġsu icide
Ġcommun ity
Ġexplan ation
Ġg oof
Ġsign ific
et ic
The y
iv ity
Ġthat s
Ġmur dered
ĠEng land
Ġtort ure
Ġh undred
ul ation
Ġrelig ious
Americ an
ed ding
ĠF ord
ru ction
ĠOn ce
Ġmonth s
te rest
Ġgr at
Ġf ool
Ġtw enty
Â Ĺ
as m
the y
Ġconcern ed
ous y
Ġinc re
Ġdeser ved
Ġdet erm
Ġcrim inal
Ġb oo
ĠV H
Ġfore ign
r s
arent ly
Al though
c ula
es pecially
ĠD el
ann ed
Ġt arget
st ar
ĠD en
Ġpleas ure
Ġb an
ĠS n
Ġsc ared
Ġcon text
Ġlack ing
Ġsk ills
Ġdesper ate
R ob
. '
Ġpro ve
Ġra pe
o res
Ġm ount
ĠW ild
alth y
Ġaccur ate
ĠLew is
Ġthor oughly
ant ed
fort able
Ġm ild
Ġd ress
un ter
ord ing
Ġn a
ad ing
an o
ug s
Ġtechn ical
: <
y es
st ick
he red
Ġo pt
Ġresult s
o ks
p hy
es h
Ġlo vers
ĠBl ood
Ġvis it
Ġcop s
Ġcirc um
ĠWh ite
Ġstreng th
w olf
Ġw itty
Ġinst ance
Ġph ilos
Ġneigh bor
b reak
ho ld
Ġbl and
ĠSt ory
Ġown er
ĠEvery thing
ĠDes pite
b ur
Ġli es
ĠW in
ĠJ r
Ġlo ving
u ct
ĠV al
Ġp ark
Ġl ay
Ġcomparis on
Ġfor ces
ĠH ay
Ġins ane
Ġ198 0
Ġhum ans
Ġcreat ing
ĠJ ud
Ġmach ine
ĠStep hen
ro ll
oo p
ĠW ars
Ġment al
R e
s er
Ġsu cks
Ġpro stit
Ġf lying
Ġn er
Ġsubt it
Ġsurv ive
Ġc ard
Ġrem ain
Ġsw ord
ĠCra w
he t
Ġf ield
Ġp aper
ĠB arb
Ġpro ceed
Ġplot s
Ġmar ry
Ġoper a
Ġrepres ent
if ul
Ġun com
Ġcall s
Ġempt y
m o
m are
Ġfriends hip
E ven
v it
Ġ ?
ĠL i
ĠF ox
ĠSte wart
c is
il st
Ġloc ations
Ġeng aging
Ġh idden
Ġwonder fully
Ġm ine
Ġc ow
ĠM en
Ġgot ten
Ġeffort s
Ġprot ect
Ġw ond
ĠD am
ĠAl an
.... ....
Ġdri ving
Ġhop es
Ġcontr ast
2 00
em ber
ell e
Ġcomp are
Ġart istic
Ġbel ow
POILER S
r ous
Ġs al
Ġe arn
ud dy
Ġman age
Ġop ens
Ġunc on
se c
Ġcha ris
ĠL es
Ġmis er
d irector
Ġl esb
Ġ/> -
em an
Ġsur real
Ġbelie f
hol ic
the re
Ġnum erous
S c
Ġto ward
ĠA v
Ġch ick
Ġhuman ity
ĠJ on
Ġover ly
Ġbig ger
Ġpar ody
ĠW al
ru e
Ġbehav ior
enn ifer
ĠWay ne
Ġth ous
Ġrubb ish
ir on
ĠW alk
ĠSt one
Ġinclud ed
Ġreg ret
Ġst ret
Ġstre ets
Ġdanger ous
Ġ ing
Ġoffic er
Ġremark able
ad emy
ĠW as
Ġass ist
Ġlearn ed
Ġtreat ed
Ġreveal ed
ĠVH S
Ġcor rupt
t op
ound s
ĠBrother s
ĠA c
ĠP lease
ĠL aw
Ġsa fe
Ġcircum st
ay lor
Ġor gan
ci ent
Ġkeep ing
ĠSp anish
Ġconv in
Ġt ur
Ġp ress
Ġcapt ured
ĠThom as
ay be
Ġmem ories
ic ation
ak er
ĠR on
ĠR od
ĠJ an
Ġsha llow
Ġanim al
pl ess
Ġwood s
Ġreal ism
Ġed uc
Ġref res
Ġremind s
ĠCraw ford
W hy
he nt
Ġd ated
Ġas soci
Ġhad n
Ġpre c
Ġent h
Ġbreak s
Ġpers pective
ent ions
Ġdes p
Ġfin ale
Ġlist en
r at
ĠM ax
ul f
Ġres ol
ĠAr thur
Ġfra me
ĠC apt
ĠD ennis
Ġun int
ĠEurope an
Ġmagn ific
S p
ĠH orror
ose xual
Ġbu ff
Ġcame o
ĠMr s
Ġve ter
Ġgrow ing
Ġdis play
ab b
O K
s ion
u ed
Ġf requ
ĠS ant
o om
Ġg as
ad d
Ġob sc
Ġinter pret
Ġreg ular
Ġpull ed
r ate
aw ay
Ġtal ents
Ġsent iment
ĠMur phy
Ġsc rew
Ġen s
Ġmed ia
Ġt ick
us hing
ĠL ife
Ġplay er
ĠCar l
How ever
Ġfr ank
Ġv ol
Ġany body
Ġexper ien
look ing
Ġcontri ved
Ġoppos ite
Ġg onna
Ġtri b
a ust
ar c
al though
ro l
ĠC le
ru ct
Ġtr ick
re ck
Ġc ateg
im al
Ġnot iced
Ġbl ue
Ġt ape
ĠL ast
y al
Ġc able
ac hel
Ġcho re
Ġrefres hing
e ed
Ġlos es
at ory
Ġshe er
Ġrel ate
Ġwind ow
omet imes
sc reen
Ġf ate
Ġreview ers
Ġsequel s
J ust
Ġs ed
ĠR ose
Ġpret entious
Ġteen agers
Ġpsycholog ical
O L
s pe
Ġp et
ir m
um s
um ps
Ġthere fore
ĠV iet
m ble
og y
Ġhero ine
Ġwin ning
Y es
f l
w o
is ters
Ġal iens
ĠAnd erson
Ġspe ech
5 0
Ġt ack
Ġso ap
Ġter ribly
Ġfeat uring
Ġhumor ous
ll a
g a
Ġs in
Ġn et
ĠB E
ul ous
Ġdisco vers
Ġhig her
Ġvill age
Ġpri est
Ġrece ived
il ing
Ġdeal ing
Ġadv ice
Ġident ity
Ġmod el
Ġal tern
ĠL a
Ġnons ense
ol a
Ġman ip
Ġdec ade
Ġcontin ues
Ġgag s
ĠW hich
Ġstereotyp es
Ġchall eng
) ;
b ell
ĠC am
Ġstart ing
Ġfin est
Ġdep ressing
omin ated
g en
Ġb ot
Ġk ing
Ġrec all
old s
Ġprotagon ist
ad s
Ġj unk
qu es
Ġsome body
Ġdes ire
Ġexper iment
Ġgener ation
Ġunf unny
Ġjud ge
ĠM er
is er
or ious
ĠC ent
ĠD or
Ġsu ck
Ġar m
the less
Ġpr int
Ġstud y
Ġtrans l
hent ic
Ġp owers
Ġan ime
Ġaw ard
Ġbo at
Ġbro ken
Ġrelie f
ĠDe an
Ġlevel s
Ġg ory
ĠB rian
Ġsc are
Ġde als
d ra
ĠB og
out s
act ing
Ġcons ist
Ġgra ce
Ġmeet ing
ĠW at
are t
ĠSe an
Ġsat ire
Ġf if
le ar
ĠM a
Ġatt itude
Ġev idence
Ġinvol ves
Ġrefe rences
s ome
Ġr ing
Ġtr oub
ĠFran cis
Ġca res
ĠWood y
reed om
ĠB arry
Ġob l
Ġtreat ment
p oint
." <
ĠJohn ny
rif ying
ĠStre et
ĠD O
Ġv ote
Ġpass ed
Ġcap able
Ġs un
id s
Ġse ven
ĠW H
ĠR am
ord on
Ġflashback s
ĠT aylor
ĠC oll
ĠG ener
ĠJo se
lud ing
Ġmajor ity
rid ay
Ġb odies
Ġe mer
Ġkind a
Ġdisco vered
ĠT hose
ri but
ĠD E
Ġv ul
ive red
Ġsa ved
Ġunreal istic
n ers
Ġdis p
Ġfact s
Ġcapt ure
ĠAnt hony
Ġb at
his tic
ĠK ong
Ġfam il
Ġremem bered
Ġord inary
ĠRy an
Ġed ited
Ġresc ue
Ġt or
ic ate
Ġspe ed
Ġorigin ally
Ġmar vel
o h
Ġt un
Ġg ru
Ġha ll
Ġpro ved
Ġran ge
ĠDra cula
Ġgenuine ly
ot ing
Ġbe ar
ĠV er
ĠHol mes
Ġgrap hic
Ġinc omp
ĠSp ace
n ox
Ġfail ure
ĠCol umb
Ġultim ate
Ġenv iron
R A
is a
Ġsp oof
Ġste al
Ġtheat re
Ġsum mer
Ġuncon v
an ks
Ġg ent
Ġmin i
Ġstand ing
Ġexper t
Ġintell ect
z a
ĠR oy
ĠT urn
ĠS ince
Ġh ur
ter ing
Ġun able
ok en
Ġexplo itation
kes pe
Ġcru el
Ġf und
as hed
Ġg ross
Ġportray s
ĠRus sell
c ore
et her
Ġse at
Ġtyp es
Ġsold ier
r ang
Ġf ame
Ġin ex
ĠT ex
Ġre du
Ġre action
Ġv ac
Ġexec uted
Ġpr oud
ail s
d on
Ġse ar
Ġdel ivered
Ġcra ppy
Ġcomb ination
Ġf al
ar ian
if orn
Ġdec ision
ĠEvery one
Ġvisual s
c ies
t le
Ġs ite
ĠT od
ĠB ern
un s
?? ?
Ġconne ct
ĠPat rick
u ps
y er
ĠT ime
ĠAnd rew
Ġdread ful
ĠS an
ĠK u
ĠBat man
im ate
ĠD og
ĠAnd y
Ġspectac ular
S E
in is
Ġg rew
Ġine pt
a a
Ġconne ction
ĠG ene
Ġ1 1
Ġimag in
ĠMexic an
L et
Ġpe ace
Ġsuff ering
Ġhy ster
st ream
Ġgu est
Ġpr inc
Ġgrat uit
Ġf ly
Ġp ath
Ġcut s
Ġallow s
B I
Ġs ides
am a
ĠL ord
um an
Ġad vert
Ġte ach
ention ally
Ġmurd ere
Ġcoun ter
Ġs ake
Ġfe et
Ġunder rated
ean while
t elling
Ġd ry
ĠI m
ĠF rance
ab eth
ĠAfric an
Ġc yn
Ġbrilliant ly
Ġexist ence
i ver
k ed
Ġg reen
Ġtalk s
yn am
Ġcircumst ances
n am
Ġse nd
Ġso le
us ive
ort ed
Ġirrit ating
Ġc ab
ĠI T
ap h
Ġtheat ers
heart ed
empor ary
! ).
O f
ĠP ar
ac c
Ġc ash
Ġk iss
The n
fin itely
Ġmor ning
Ġted ious
ĠE ric
Ġhands ome
Ġsympat hetic
Ġl one
ĠS E
Ġne cess
Ġmon sters
Ġdescrib ed
Ġp it
Ġj u
Ġclass ics
Ġaut hentic
Ġna ive
ĠL ong
ĠG ary
Ġoccasion ally
Ġt em
om ed
ĠJ ennifer
Ġsk ill
Ġvehic le
oy d
ĠAs ian
Ġpain fully
Ġref lect
Ġemotion ally
Ġb ath
ĠP ac
os aur
ĠY OU
inc ent
ĠG ordon
Ġte xt
Ġask ing
Ġcart oons
Ġfamil ies
S he
p ed
Ġ ic
ĠS y
z o
id ge
ĠS un
Ġsu cked
um m
Ġthought s
Ġmain t
ĠPr ince
ĠSec ond
ĠO ut
Ġbu ilt
lev ant
as hes
ĠS und
Ġsa ving
Ġte ens
ĠF estival
ĠUn ivers
Ġteen ager
Ġ193 0
ĠO ld
Ġcho ose
Ġsing er
Ġpsyc ho
An other
Ġsatisf ying
Ġassum e
" ),
A r
Ġse a
ag ney
ard en
Ġcomp an
IL L
Al so
d one
f it
Ġprodu ce
Ġlog ic
l aw
Ġg rown
Ġe ating
ĠF er
Ġass ass
Ġtechn ology
Ġlad ies
ĠRE AL
Ġblond e
ĠL A
ĠBe at
Ġgra de
ĠTH IS
Ġw edding
Ġb ag
ag o
ĠE VER
ĠLyn ch
ĠL ook
te nded
Ġlaugh ter
Ġless on
ĠDan ny
cra ft
U N
Ġembarrass ing
IG H
Ġseg ment
fortun ate
Ġexec ution
Ġest abl
iforn ia
R I
l im
ĠSha kespe
Ġlarge ly
Ġvirt ually
ĠKe aton
u pt
Ġfor th
ĠC amp
Ġbl ow
ĠCh uck
Ġapp ropriate
ĠCom m
lyn n
ĠK arl
Ġbelie ves
ib al
Ġnorm ally
G E
es pite
Ġd a
ĠC inem
Ġfr ustr
ĠN O
Ġsp in
Ġhor ribly
Ġexc ited
Ġrese arch
Ġprop ag
terest ing
ld er
Ġwar ning
Ġcreat es
ight s
Ġgratuit ous
ĠS ho
ĠC ass
um my
Ġcan n
-- --
Ġexc it
E very
Ġb re
Ġwee ks
Ġer otic
n al
u pp
Ġp al
ir ation
Ġwe l
out hern
Ġv an
Ġprom ise
u be
Ġwhen ever
igh ter
c ol
ĠH o
ant e
Ġslap stick
Ġmagnific ent
Ġt ill
Ġhe av
Ġrent al
ĠPl us
ĠBra d
Ġdelight ful
ĠI re
Ġsho p
Ġexpress ion
ĠS her
our s
ug os
Ġtheat rical
Ġqual ities
Ġf le
Ġal co
it iz
Ġp unch
Ġl ower
ur day
ian o
Ġz ero
Ġpract ically
Ġhe aring
Ġpl ans
Ġv ide
um e
Ġste als
ĠAg ain
Ġsto pped
Ġenviron ment
ha l
Ġd ressed
il ty
ĠS in
Ġlearn s
ĠRog er
Ġsubtit les
Ġlesb ian
ol en
Ġoff ensive
Ġdeath s
Ġshock ed
aus ible
ol ph
ĠP owell
Ġch urch
19 7
Ġwalk s
Ġs ch
Ġn in
ĠA dd
19 9
Ġine vit
c ul
on a
ĠS H
ĠK ore
ĠJul ie
Ġscream ing
L e
u h
ĠC agney
Ġv s
Ġcoll ect
Ġess entially
C l
m ade
er ie
Ġf ict
Ġca used
Ġluck y
Ġb att
ac re
Ġpleas ant
r ie
v y
Ġun fortunate
ig er
ĠAn na
Ġlos ing
Ġsour ce
ĠZ omb
ĠSim on
ĠCapt ain
F i
Ġf reedom
Ġye ah
Ġho l
Ġmat ters
Ġvers ions
Ġexcit ement
ĠM ars
ĠK at
Ġview ed
ĠHar ris
Ġshar p
Ġt able
ĠT hing
am ily
ĠC ount
Ġsc ar
Ġcon vey
ud es
Ġ1 6
be at
Ġinvol ve
P l
Ġc ant
Ġqu ir
Ġapp l
EN T
F rom
Ġc ook
Ġend less
Ġter m
Ġcent er
Ġrevol ution
Ġamateur ish
ic it
Ġreal izes
Ġhold ing
Ġcuri ous
ĠA st
ĠM i
Ġso p
Ġwh ilst
ĠJ ess
ĠK enn
Ġru ined
Ġhom osexual
p ass
ĠT or
Ġha unting
ĠK ate
Ġcomp os
ak en
ĠN orth
Ġar rest
Ġmake up
Ġcor ny
Ġbring ing
Ġdoll ars
ĠP o
Ġpre gn
ung le
Ġpur cha
ĠQ ueen
Ġsubst ance
) :
Ġd irty
ĠI nt
ot hy
ĠC ast
ĠW he
Ġj ail
Ġag es
Ġsur face
Ġcreat ures
Ġsurv iv
ĠBro ad
ĠLou is
m ond
ot ion
Ġportray ing
Ġspeak s
cl ass
Ġhar sh
Ġdisgust ing
Ġrelative ly
Ġincre as
Ġfrank ly
D o
ĠM iche
ĠH or
ĠK im
ĠK han
19 8
Ġrout ine
d om
w ing
y r
Ġd rop
Ġcomm and
ĠH aw
ĠR en
Ġexper iences
Ġrep ut
ump h
Ġprov ided
his e
Ġre vel
ur se
ĠH ope
Ġrem inis
ĠU p
a ult
k er
ĠM in
ĠH it
ul p
Ġcon ce
Ġpo ign
ĠCl ark
ĠEl iz
ĠL ady
og ether
for med
ĠJack ie
ĠInd ia
ĠTex as
ĠS al
Ġforget table
Ġextra ord
Ġtradition al
ĠShakespe are
Ġf its
Ġl ie
ress ion
ree k
Ġfeat ured
ĠUS A
Ġconvin ced
Ġm ask
Ġl ink
ĠM ic
Ġsc he
Ġcon sequ
Ġend e
ĠV ER
Ġsuper natural
Ġreview er
Ġref er
Ġfal se
s hip
ĠM ass
Ġun p
Ġspe nds
Ġpr ice
Ġbelie ved
ĠTH AT
Ġstrong ly
Ġpull s
Ġmanip ul
b ly
v est
ĠF lynn
ĠU K
Ġfact or
ĠNaz i
nd a
pl in
Ġentertain ed
Ġexp os
ĠMc G
t han
w hel
Ġr ules
ĠSt ates
Ġpres ents
ĠLe on
Ġtwist ed
Ġmulti ple
ĠWil son
i xt
ĠP re
vious ly
Ġgl ass
Ġtou ches
wr itten
ĠPres ident
p et
ed s
Ġwe ar
Ġcon sp
Ġp aced
ar i
Ġan cient
V E
Ġhe y
Ġacc omp
ĠIs land
Ġcost s
Ġstay ed
l ong
Ġm ir
Ġover look
Ġhand led
Ġcostum e
ĠCal ifornia
g on
g irl
ĠM il
ĠR ing
Ġcr ash
m other
Ġl ousy
Ġrep orter
Ġclaim s
Ġidi ot
Ġdepict ed
ĠAc ademy
i j
Ġin ner
Ġex agger
Ġstru cture
Ġsuff ers
Ġsens itive
Ġdemon str
Ġconvers ation
l s
Ġd ynam
Ġas leep
ĠA ra
â Ģ
is c
ĠM aster
ĠH ill
us i
Ġv ague
Ġfa re
Ġeven ing
Ġcomm itted
Ġpur su
ĠThan k
Ġpropag anda
g ie
ĠMar ie
ĠHa ving
Ġb ond
ĠR em
Ġac qu
Ġdev ice
Ġexperien ced
S te
Ġc ro
Ġne at
Ġprom ising
ĠT O
ĠE vil
Ġpart ic
Ġstr ang
2 0
Ġcl ue
Ġcr ing
ĠUn ited
p rodu
il ed
ĠD em
are n
Ġser ves
Ġcomm it
ĠDo es
Ġcompl ain
Ġhang ing
ĠNic hol
b uster
ri x
ĠD ian
ĠE v
ĠE ve
Ġgu ard
Ġappe aling
Ġvo ices
Ġclos er
Ġpu zz
m ind
s s
ar ning
am ous
ĠB u
ort ing
Ġinflu ence
I ON
Ġa br
Ġp ile
ĠV incent
Ġfright ening
ĠCanad ian
ĠApp arently
Ġc ust
ĠD ar
Ġbet ray
Ġfl esh
ĠAs h
Ġsy n
Ġpolit ics
Ġpra ise
L ike
v o
or a
id ay
Ġcut ting
Ġdin ner
Ġf estival
ĠC omp
Ġri val
ĠEd ward
Ġdesc ript
ĠMor gan
Ġveter an
l oyd
Ġw itch
ion ed
Ġst olen
ĠH ong
Ġun for
ĠWar ner
Ġsn ow
Ġdestroy ed
st on
Ġar ms
Ġfoc uses
i pped
Ġg ig
Ġbit ter
ĠC ost
ĠF BI
Ġad op
ost er
Ġmet hod
ĠA LL
Ġcho sen
Ġgent le
Ġ )
Ġst om
ro cious
um mer
Ġun se
Ġinv ent
ĠAn ne
Ġconc ent
Ġlat est
Ġrelig ion
Ġinit ial
ĠBarb ara
! ),
ĠB or
ud ic
Ġ1 4
ĠAct ually
Ġlegend ary
Ġremote ly
y a
ho b
ĠF riday
app ing
inc luding
Ġpri or
Ġstereotyp ical
Ġr ough
ick ed
Ġexc ess
Ġrep et
Ġstat ement
i ents
Ġab use
Ġar g
Ġaband oned
Ġbe ach
Ġhe n
Ġsk ip
Ġmove ment
ĠBra nd
w w
ĠR oman
Ġsh ut
Ġshe riff
Ġfl o
ĠJohn son
M an
N e
i at
im m
Ġide al
Ġsuff er
Ġt ap
Ġtra pped
Ġcam er
Ġpol ic
1 1
d im
w orld
an ny
Ġgr itty
Ġsuspense ful
ashing ton
Ġgoof y
Ġmurdere r
a br
r ation
re es
ĠE ach
ĠGra nd
Ġweap ons
_ _
Ġb ound
ĠS k
Ġr ise
Ġwor ry
Ġdirect ly
Ġsp ark
li ver
Ġvis ually
Ġencoun ter
Ġpriv ate
Ġreput ation
U R
p han
Â ´
er al
Ġwalk ed
Ġvar iety
Ġdrink ing
Ġw ound
il s
Ġli ft
Ġen emy
Ġperfor med
Ġmain stream
Ġdri ver
Ġunin teresting
Ġdeg ree
G M
Ġp ity
Ġli ber
um ber
Ġdri ven
Ġcry ing
Ġstat us
Ġhe ck
ĠC urt
Ġout rage
ond a
Ġdis ag
Ġbot hered
en ess
ĠC ooper
un ning
Ġgreat er
ĠAl bert
ĠMexic o
Ġdubb ed
B O
z an
z il
Ġsp ite
Ġcont act
Ġcont emporary
umb ling
ĠCar ol
ĠViet nam
ĠJose ph
an i
as p
Ġst alk
Ġspoil ers
Ġseason s
ĠJes us
Ġsop histic
Ġf ix
Ġse mi
Ġevery where
Ġright s
Ġcompl icated
Ġdiv or
ha nd
Ġc ris
ke nd
ĠA re
Ġh ired
am ing
ĠL and
Ġscen ario
Ġad e
oc al
ĠBe fore
ĠJim my
Ġat rocious
Ġfr anc
Ġang les
in als
om er
Ġent er
ret t
uc lear
Ġis ol
ĠH al
Ġsc ale
ĠCha plin
Ġconv ince
Ġpos ition
ĠSus an
k ind
ĠF re
Ġcou rage
Ġexpl ains
Ġ196 0
ĠIr ish
m al
Ġs ne
as ant
ut ch
ĠW ashington
Ġno stal
Ġsurpris es
ĠRe ally
atch ing
Ġcapt ures
ĠclichÃ© d
Ġrequ ired
Ġimpro ve
ĠSand ler
Ġcateg ory
ĠVER Y
a it
ant age
Ġfa b
Ġkind s
Ġoccas ional
Ġsympat hy
I s
f ess
Ġto ler
Ġl udic
Ġre un
Ġgu ilty
Ġinc ident
Ġamaz ed
Ġprevious ly
ĠGerman y
Ġnostal g
or ig
ĠV ir
oc he
Ġco vered
Ġworth while
Ġcapt iv
Ġstrugg ling
ĠLu cy
ĠEs pecially
ow een
em s
Ġde eper
Ġacc ents
I M
Ġc ore
ĠS on
ĠN one
Ġcho ices
Ġfoot ball
Ġarri ves
ĠSat urday
Ġmelodra ma
Ġpartic ip
l ow
r ant
u le
il ogy
ĠL ater
Ġra ised
Ġhar m
Ġaccident ally
Ġfunn ier
Ġemp has
Ġ 0
Ġb ab
Ġev ol
Ġobsess ed
Ġheav ily
ha rd
et ime
Ġwe althy
Ġenjoy ing
Ġland sc
Ġgrap h
Ġquir ky
d ie
h ib
om ination
Ġha unted
ĠAr t
Ġpain ting
Ġmet al
Ġn ude
Ġse ction
ĠM eanwhile
ĠL loyd
Ġkill ers
Ġob nox
Ġserv ice
Ġdo gs
sp ired
Ġdist ribut
com ing
Ġuni vers
Ġru in
, '
a fter
g un
Ġp an
Ġre nd
Ġdown right
ĠDon ald
Ġdeli very
Ġstom ach
f all
o oth
z ed
Ġa in
et he
ĠB urn
Ġfig ured
ĠSar ah
ha d
ur s
ĠR ick
Ġun if
Ġmind s
Ġw and
Ġha ck
ĠB ell
Ġcamp y
" ).
ut y
ĠN E
ign ed
Ġscreen ing
Ġchang ing
Ġcontro vers
Ġinterview s
Ġunconv incing
Ġfict ional
B y
b ing
os ity
Ġspe ll
Ġdec ades
Ġtru ck
Ġsub sequ
Ġoriginal ity
Ġsort s
m ber
s m
re hen
at ives
ĠT ed
ĠP ri
ĠL at
Ġr ot
Ġlight s
W ho
Ġ ice
he m
Ġin ha
Ġwere wolf
Ġam bit
Ġser ve
ps on
Ġform at
Ġb esides
Ġ/> *
ow ed
ĠC andy
Ġpl aced
be it
uck y
Ġunlike ly
Ġc hose
ul s
ĠL am
Ġtit les
Ġenth usi
ugos i
e ase
Ġan tic
Ġsc ares
Ġbreak ing
ĠBroad way
Ġv ast
ĠF air
ons ider
Ġfore st
ĠSad ly
ar able
ĠC H
ĠAustral ian
Ġt ax
at ra
ĠT ri
ĠTh rough
ĠPark er
b ed
w en
st one
ĠP itt
ĠN Y
Ġcar ries
ron ic
Ġlaw yer
Ġpu pp
Ġjo in
Ġ2 5
Ġconc ert
M ichael
on est
ĠM iller
Ġwe ars
ĠD et
ĠL ost
Ġsp orts
Ġch uck
Ġmag ical
Ġpay ing
ĠAny one
Ġclos ing
Ġmass ive
Ġcrim inals
dim ensional
A A
ĠB ack
Ġche er
Ġsk et
Ġexam ples
Ġcrit ical
ĠFred dy
Ġsucceed s
Ġoffe red
ĠHel en
C K
t w
Ġs ink
on el
as hy
ĠM et
Ġrem o
Ġext ras
bel ief
Ġdesper ately
I R
h orror
his t
Ġar ch
ĠAnd re
ĠEliz abeth
ethe less
m od
er c
Ġf ish
Ġg re
id ents
ĠW all
Ġstory telling
pl ays
Ġattack ed
ĠJul ia
Ġansw ers
ĠY our
Ġcont est
Ġwin ner
Ġrecogn ize
is her
ha med
ĠAfric a
f un
ĠM GM
ĠW es
Ġlo yal
ĠO ver
ĠBe aut
Ġfavor ites
Ġdem and
Ġthrow s
Ġrefe rence
Ġin j
om s
Ġn ominated
Ġj eal
ĠK ill
Ġpre vent
Ġte ar
Ġho le
Ġjob s
Ġdist inct
Ġstar red
Ġcontri but
Ġcontinu ity
Ġunderst ood
ĠTre k
Ġlone ly
H ere
Ġan ger
Ġdo zen
Ġbl at
ather ine
Ġbu ying
lo ved
Ġnarr ation
ĠSw ed
Ġsear ching
z illa
Ġdeli ber
ĠWith out
Ġmist akes
ĠAm az
IGH T
le cted
st yle
ĠS O
ĠF inally
ĠO b
ict ed
Ġchar ge
Ġunc le
ĠTurn er
c alled
Ġt ong
Ġp ool
Ġre v
et er
Ġover whel
Ġreminis cent
Ġobnox ious
Ġm as
Ġse ve
Ġint eg
ĠG et
act ic
Ġnecess arily
ĠHit ler
Ġst ates
et y
ad a
ĠD ream
ĠO ur
ian c
Ġpr ime
Ġsk y
Ġnat urally
Ġenc ou
W ill
c an
Ġw id
Ġf u
en ced
au de
Ġtra ining
ĠTh ree
Ġdesign ed
Ġdepart ment
Ġup set
Ġsa v
Ġser ved
ĠGu y
Ġcond ition
l aim
n es
Ġp ed
Ġd ed
ĠW or
ĠW ind
ĠF ull
Ġgr im
ib ilities
Ġproper ly
Ġdeterm ined
Ġ #
Ġt ask
in er
Ġbl own
Ġeffective ly
ĠGener al
Ġt iny
all ing
ĠS ometimes
ĠM ont
Ġpass ing
Ġca uses
Ġg ar
ĠM oon
Ġtim ing
app y
ret ty
ĠSuper man
c ase
n oon
ĠS id
Ġrel ated
Ġsec urity
Ġconf ess
Ġprof ound
ĠS ur
ĠC ru
ass ion
ex cept
Ġcomb ined
Ġ194 0
le ction
ĠH E
Ġsee k
Ġcont ain
Ġpain t
ĠWell es
Any way
ĠT ur
Ġra w
Ġsim pl
Ġwar n
Ġmat ure
Ġbra ve
Ġrob ot
ĠAv oid
h h
Ġb ore
ĠL ugosi
Ġme re
Ġhor rific
az e
Ġfar m
Ġsty lish
ĠLau ra
B S
es c
Ġn uclear
ut her
am s
Ġhand le
Ġir re
Ġreve als
E x
P er
Ġb ill
ĠD uring
Ġadm ire
ĠJew ish
break ing
Ġuncom fortable
er ved
am or
ĠM uch
Ġdis belief
Ġfoc used
ĠChan nel
Ġign or
Ġsignific ant
Ġgru esome
Ġintellect ual
Ġaccomp an
t aking
y pe
en stein
Ġsha pe
Ġext ent
Ġpresent ation
Ġuni verse
Ġregard ing
ĠG reg
te nding
Ġstop s
Ġru le
Ġtre mend
e ction
w or
it ter
Ġcar ried
Ġpregn ant
a ves
c hen
ĠM OV
Ġnew sp
Ġbas is
Ġwar ned
ĠBrit ain
Ġcap ital
y m
Ġc and
ĠK en
Ġstr ict
Ġattempt ing
Ġprofess or
Ġcritic ism
l ance
Ġy ell
ĠC ap
Ġcha ir
Ġv ia
Ġ1 7
Ġacc ording
Ġfig ures
iel berg
ĠPh ill
Ġchall enge
Ġsin ister
r im
Ġf ond
ĠPl ay
Ġst ays
ĠO liver
ple nd
Ġsw im
Ġcol ors
ĠOther wise
Ġextraord inary
Ġludic rous
U L
w alk
ĠH op
aw a
Ġcr ude
Ġsit com
Ġfranc hise
D av
t es
v ably
oo oo
Ġsur f
Ġdep iction
Ġnovel s
A d
p ent
ĠS ol
ĠM ill
irect ed
Ġcor por
Ġspoil er
ĠA L
ĠH art
Ġj ungle
ĠJ u
Ġev ident
ĠCh ina
Ġacc ess
pris e
ĠRobert s
ĠBro oks
OO D
D espite
Ġcom ical
Ġinc or
Ġadd ing
ĠMar c
che ll
ĠWal ter
ĠP a
Ġte eth
Ġsound ed
Ġrest aur
Ġappreci ated
Ġthrow ing
Ġmild ly
Ġcyn ical
G ood
s omething
Ġs isters
Ġc ous
ag al
ĠP ower
Ġdis s
Ġco inc
Ġcall ing
Ġimag ery
ĠUn like
Ġ200 0
iven ess
Ġsumm ary
Ġre ject
ch y
ĠC ann
ĠD ep
Ġr ank
Ġbl ah
Ġview s
Ġcount ries
Ġfaith ful
Ġbase ball
C on
f rom
i pping
i ques
Ġt on
Ġt ree
or row
il a
Ġbut t
ĠP enn
aw s
Ġbor der
Ġattack s
Ġshar k
Ġproduct ions
M ar
O kay
i able
u x
Ġo il
Ġn u
ĠR achel
Ġfa cial
Ġdis gu
Ġra ise
-- -
Ġprep ared
Ġinit ially
Ġpoign ant
ĠI ra
ad ays
if ies
ĠP ict
ĠF onda
we et
Ġrac ist
Ġdescript ion
D irector
c ut
um ble
ner y
Ġart ists
Ġcra ck
Ġtou ched
Ġpick s
ield s
ĠBas ically
Ġwel come
B ra
l ist
Ġs ke
Ġman sion
air s
Ġdead ly
Ġintrodu ction
Ġb uddy
ĠAr n
ĠFran co
Ġintern ational
Ġn ative
ĠT y
Ġen han
for ward
Ġevery day
ĠSha r
Ġadv antage
Ġsetting s
ĠAN Y
w l
ĠB aby
Ġgreat ly
Ġra in
co ver
ĠDe vil
Ġfair y
Ġamong st
Ġexpress ions
Ġequ al
Ġre ward
Ġst ated
ĠR and
Ġle arning
ĠO ff
Ġinter act
Ġconf usion
u ght
Ġall eg
ograp her
Ġmind less
ĠCl ass
.) <
Ġign ore
ĠLind a
ĠSund ay
Ġdisag ree
Ġw ins
Ġg ro
Ġele v
Ġantic ip
n an
Ġp age
Ġact iv
ĠJ ac
Ġmy th
Ġcl own
Ġcult ural
Ġur ban
I A
f est
Ġg ain
ĠL os
Ġocc up
Ġatmosp her
ing ing
Ġp hen
st ory
ĠK irk
ment ioned
Ġbor row
Ġf et
ĠS ir
Ġnot able
ĠD ie
Ġfl ow
gg ing
Ġgra d
cept ion
ĠMar ia
Ġamaz ingly
Ġflaw ed
Ġrob ber
ĠEn ter
ĠSant a
or ation
id ers
Ġas hamed
ĠD i
Ġpl astic
Ġqu een
Ġpres ident
ĠSp ielberg
Ġjour nal
Ġm ac
Ġh ip
ri g
ĠJ ay
Ġhelp ing
Ġsle azy
ĠSat an
d en
k ick
l ot
ing u
as ion
Ġse vent
ĠM id
Ġembarrass ed
ĠDun ne
b our
Ġe lder
Ġth ro
ĠB esides
Ġv ivid
ons cious
ster y
ĠPl an
Ġinsp iration
Ch rist
ĠOl iv
M ost
se ud
Ġas p
ĠM ovies
Ġent ry
Ġch ief
ĠWatch ing
Ġade qu
b id
h i
o es
Ġl aid
Ġn ation
Ġsl o
the w
ĠCh ic
Ġcol our
Ġcas es
Rob ert
r ich
Ġli br
Ġex ists
Ġfa c
ĠSc hool
Ġwee kend
ĠCanad a
Ġbal ance
ĠLes lie
C har
E l
f its
Ġst unt
Ġr ub
Ġtechn ique
Ġstrugg les
Ġrevol ves
Ġdin osaur
ĠWW II
Ġfab ulous
w h
it chell
Ġ/> (
ĠC ind
ĠR ain
Ġun be
Ġpre view
Ġche ese
ar zan
Ġg ut
ĠI ce
se mble
ĠB ollywood
ĠM ST
Ġne ck
Ġcl ips
Ġar gu
ĠV in
Ġinst all
Ġris k
" ?
an ge
ĠT ake
ĠM ort
ĠIn c
Ġrent ing
Ġpar all
Ġang le
go ing
Ġassist ant
ĠKarl off
8 0
Ġw anna
Ġn ational
Ġwe ight
em pl
el a
ĠR a
od ing
Ġtr ilogy
Ġcast le
ĠBe ing
Ġless er
Ġescap es
Ġkidn apped
orig inal
Ġgraph ics
Ġt ro
Ġafter noon
Ġnight mare
anc ing
ĠHall oween
Ġdisappe ar
C T
j ud
w y
Ġb ow
et urn
ĠS han
Ġsc r
ĠG i
Ġag ed
Ġexc han
or c
ĠH ad
... "
Ġaw ards
Ġter rit
ĠBl ue
ĠYe ah
Ġgri pping
Ġmarvel ous
i ation
m ate
m ates
Ġd ude
Ġst iff
ĠC ry
ĠK id
Ġhalf way
ĠAr my
Ġbelong s
Ġtur key
im ents
ĠSt ud
ĠCh ild
Ġpersonal ities
Ġmer c
Ġprotagon ists
Ġast on
Ġfrequ ently
Ġtong ue
L D
f ire
Ġh iding
Ġpo et
Ġel abor
Ġpure ly
Un fortunately
ĠLuc as
ĠBog art
ce llent
ĠC are
Ġme at
ell a
Ġcont ract
Ġscript s
ĠMar g
Ġinn ov
Ġoffic ial
Ġcarry ing
Ġsurround ing
Ġweap on
Ġf irm
Ġb ik
ent ric
ĠH A
ust rated
ĠP rodu
Ġgu arant
Ġgl imp
Ġstupid ity
Ġguess ing
Ġrating s
Ġestabl ished
ar m
br a
Ġint ens
Ġr at
ound ing
Ġres ist
Ġport ra
Ġinnoc ence
con om
Ġglimp se
Ġt orn
Ġl ust
Ġwas ting
Ġal t
Ġsp y
Ġri pped
ĠAr gent
iam ond
Ġsuccess fully
Ġexec ut
ĠAb out
Ġshad ow
Ġobl ig
M aybe
Ġb on
ĠR oss
Ġgo al
Ġsm ooth
Ġret arded
Ġcred ibility
Ġstru ck
Ġatmospher ic
A m
m itted
ha ll
Ġd ign
ĠC as
Ġj umps
ĠG riff
Ġlo cked
ĠK night
Ġscreen writer
Ġcr imes
Ġperfect ion
Ġcred ible
Ġstri king
Ġt ense
ĠT arant
ad er
ĠB ette
ĠJ er
ĠE nd
ook y
ell o
Ġfl ight
Ġfin an
av or
Ġlet ting
Ġlist ening
Ġweak ness
Ġdev il
Ġspoil ed
Ġs plend
Ġe th
Ġex erc
Ġkn ife
ĠU nder
Ġidi otic
Ġf il
Ġp seud
at han
Ġcha p
Ġme chan
Ġdis like
Ġgra ve
com edy
Ġsuggest s
Ġsophistic ated
ĠMOV IE
U ST
u per
ha nded
ar ter
Ġnot ed
Ġen orm
Ġtr icks
ĠAl ice
Ġtop ic
ON E
ĠAnt on
Ġcolor ful
Ġcharis ma
Ġbe loved
ĠA ir
ĠB on
ĠW onder
Ġmin imal
ific ation
AN D
Ġult ra
af ia
b u
w hen
ĠB AD
ĠH unter
og ical
Ġro lling
Ġsho ots
Ġexcept ional
Ġdest ro
Ġbro ke
ĠB BC
ul k
ĠD a
Ġcar ing
Ġind ie
ĠNe il
Ġconne cted
TH E
Ġperform ers
im ately
ĠA ud
Ġar rog
Ġspe nding
Ġsol ve
ira cy
Ġf est
Ġhe aven
ĠB L
ĠL arry
ĠV amp
Ġsepar ate
rehen s
S h
Ġfe ed
Ġover come
Ġstun ts
? ).
Ġt empt
Ġc y
Ġd ump
Ġl azy
Ġth irty
ĠC ro
el ine
Ġun e
get table
S POILERS
Ġj ack
Ġpl ant
Ġsh ines
Ġback d
ĠBl air
Ġir ony
Ġterror ist
Ġexplos ions
er ior
Ġp iano
Ġe conom
ĠL OV
Ġsleep ing
Ġpsych iat
Ġsentiment al
T ER
U S
Ġt une
he w
is ms
Ġc ave
Ġp a
al ph
ish ment
ĠTom my
Ġsexual ity
Ġspirit ual
Ġthous ands
Ġmir ror
ĠR ep
os ing
Ġfall en
Ġref uses
ĠLu ke
Ġtrib ute
Ġf ulf
Ġb ird
Ġp ig
ĠH ome
ck er
Ġsee king
Ġsp read
vis ed
Ġdri ves
Ġgrow s
Ġimm ense
Ġess ential
Ġnet work
Ġprinc ip
Ġbatt les
Ġrestaur ant
b a
ing ers
ĠM itchell
ck et
ĠL I
Ġdra mat
Ġhand ful
Ġexp ensive
Ġmis cast
Ġadvent ures
Ġrepe at
ĠPhil ip
Ġobsc ure
u gh
re p
Ġw rest
ĠT it
Ġab ilities
Ġv ent
ĠR uth
ĠK iller
ĠTod d
ĠPac ino
7 0
H aving
Ġp ray
Ġe erie
oo se
Ġle gs
Ġmag az
Ġphys ically
Ġobsess ion
Ġthe ory
Ġc andy
Ġsu ffe
red ict
og ue
ors es
erson ally
Ġcons ists
Ġann oun
Ġir onic
Ġmet aph
Ġneighbor hood
Ġinterpret ation
b ook
am ie
ĠC ome
ul ated
Ġqu ote
Ġbored om
Ġarri ve
Ġcuri osity
h ill
Ġd omin
ĠS omething
augh ters
Ġco ck
Ġelse where
Ġrepet itive
ĠTarant ino
ic op
ct ions
Ġbe ating
ĠL ion
ĠIn tern
Ġuse less
Ġthrill ing
Ġimagin ative
ĠUnivers al
W ow
Ġt ied
Ġde ce
ĠR ee
Ġgu ilt
Ġpres um
empt ion
Ġshort s
Ġlar ger
lin ers
Ġrepl aced
ĠDu ke
ĠVir gin
G ra
t an
Ġen semble
Ġsp oken
Ġexpl ore
Ġexpl icit
umb s
AN T
Ġunf old
rif ice
Ġmill ions
Ġaut om
Ġprostit ute
ĠMass acre
ok ed
Ġattempt ed
Ġment ally
Ġcab in
i ently
id a
ri al
ĠB a
Ġj erk
Ġpro of
Ġkill ings
Ġhapp ily
iv an
Ġperson a
ord s
Ġcare fully
oint ed
ĠGod zilla
Ġconcern s
ĠRog ers
Ġinex plic
ĠThing s
Ġincreas ingly
ĠM itch
ĠM eg
Ġcha ses
ĠG host
pt ic
Ġed itor
Ġimport ance
Ġill eg
Ġabr upt
Ġa fore
at isf
Ġhe s
ĠH off
ous es
ĠN ancy
Ġinvestig ation
ĠKenn edy
Ġnewsp aper
in ist
Ġh ill
ud ge
pl ace
ress es
Ġwork ers
ĠU s
Ġchild ish
Ġdevelop s
Ġclose ly
Ġself ish
Ġhom age
ĠSec ret
Ġinevit able
C E
r ust
s l
v ia
ha i
Ġcon ven
rill er
Ġopen ed
ĠCon n
!!!! !!!!
Ġtre asure
Ġpack ed
Ġintern et
Ġvac ation
O D
Ġl ying
Ġg ee
ĠT ob
ĠW oman
ĠD ad
Ġint entions
Ġunder ground
Ġtr ite
Ġsuper fic
Ġele g
Ġinsult ing
ĠEast wood
1 3
Ġa ired
Ġth ick
ĠH ug
ul ate
Ġv icious
ple te
Ġsub plot
Ġfriend ly
ĠSe agal
ĠInd ians
Ġlif est
Ġmiser ably
Ġtroub led
ianc Ã©
ĠC age
ĠH ot
ĠH ave
Ġpl ague
ĠF in
Ġcan ce
ĠK ane
Ġenjoy ment
Ġrid ing
Ġtechn iques
writ ers
Ġrepl ace
ĠMus ic
W here
w hy
nd y
Ġm ira
Ġto ile
ĠA lf
ĠC ary
ĠC ub
Ġk ung
us hes
ne w
ors ese
Ġhor rend
Ġri ver
oc aust
Ġdra gged
Ġnow adays
Ġinf amous
ĠItal y
Ġterrit ory
Ġmo ck
Ġst umb
ĠF amily
ĠO kay
ĠSt r
ĠSo on
Ġmil es
Ġaccept ed
ĠKore an
ĠMiche lle
Dav id
Ġphen omen
J ack
T wo
ĠB ros
ĠM o
ĠR un
Ġdec l
Ġbo ot
Ġaccept able
Ġ199 0
Ġunin spired
Ġdro pped
ĠAngel es
Ġvir gin
B LE
Ġt ag
he y
Ġg al
ĠM AN
ĠF ore
ĠG en
ĠCha ract
ĠSc ar
3 0
6 0
G reat
O P
ĠW OR
Ġde pe
Ġant ics
Ġvir us
ĠREAL LY
wy ck
F ran
Ġw reck
im ag
all o
ĠA ward
Ġsh y
Ġch illing
Ġtri al
Ġco ach
Ġcar ic
ĠRe c
ĠCl aire
rif ied
Ġcompet ent
Ġvamp ires
Ġspl it
E n
Ġc ig
ĠM om
if fe
Ġcha mp
qu is
ru cted
Ġtra um
ps es
Ġthrill ers
Ġhook ed
Ġphilos oph
im um
ĠC ont
ĠD ri
ĠF le
ĠG reek
Ġpo ster
Ġrel ax
ĠCar ter
Ġstri ke
Ġamb ig
Ġvide os
Ġoverlook ed
Ġsuffe red
M r
r ink
t oo
Ġw ishes
ĠB ull
ĠP G
ĠP hant
ple asant
Ġinst antly
Ġmed ical
Ġprofess ion
Ġbroad cast
b al
he st
Ġc itiz
il ton
Ġan al
Ġhel icop
Ġallow ing
Ġcomed ian
ĠFrank enstein
Ġident ify
Ġstep s
ĠZomb ie
Ġambit ious
A K
Ġe cc
Ġint ention
ĠG un
Ġbu ried
Ġappear ances
Ġprison ers
Ġcraft ed
on se
Ġd ub
Ġhe alth
Ġlo vable
Ġper pet
Ġ2 4
Ġdark ness
ĠHard y
Ġrepeated ly
Ġhundred s
Ġhyster ical
Ġsurviv ors
Ġs ize
Ġp ush
ic ing
Ġst ood
Ġk icks
Ġv i
Ġsh out
ĠK urt
ograp hic
Ġghost s
ĠIra q
Ġintens ity
ĠHoff man
Ġe ager
ĠB art
Ġgl ob
Ġhon or
Ġcapt ain
Ġopp osed
olog ical
Ġpleas antly
Ġess ence
Ġspec ific
ĠThan ks
Ġmount ain
Ġda ily
A IN
Ġto w
ĠB all
ĠB uck
Ġj ew
Ġpre ach
Ġsex ually
Ġaf ford
Ġdubb ing
l ers
Ġ ***
at hy
ĠL ake
Ġen em
Ġhapp iness
Ġcount less
Ġste aling
Ġstrange ly
Ġproject s
Ġassoci ated
ĠSin atra
Ġoutrage ous
? ),
b ox
i ar
is ions
Ġg ather
ver ty
ĠS U
ĠS qu
Ġnot ch
el ing
ĠL isa
ĠK rist
ere k
Ġsa ves
ty pe
we red
ĠNe xt
he tt
re r
at chable
Ġu pper
Ġh ipp
ĠL ane
ertain ly
Ġpoint ed
Ġour selves
Ġcring e
E L
Ġw ra
Ġinc ons
Ġreason ably
Ġstrong er
ĠCon nery
Ġachie ved
Ġvul ner
Ġunfor gettable
Ġbe ast
ĠB us
ĠW ould
ĠW ere
ĠW itch
Ġreturn ed
Ġdest ruction
ĠII I
Ġsuspect s
Ġsed u
Ġconsequ ences
Ġd rown
Ġg uts
Ġal right
ell ar
Ġbeing s
ĠHar old
oil er
Ġimport antly
Ġstereot ype
ĠChan ey
Ġbur st
i ber
Ġw ann
Ġl ur
ĠB urt
ell er
ere lla
Ġho od
Ġra mp
Ġreason able
ograp h
ĠMc D
Ġbeat en
k et
ha ppy
st op
ast e
Ġr uth
ĠDe finitely
.... ..
Ġsad istic
Ġaccompl ished
ĠColumb o
ĠMic key
at a
em ents
Ġsu its
Ġman ager
th ink
ĠV eg
Ġrem aining
It s
oil ers
Ġbus y
Ġmot or
ĠBr id
Ġmeaning ful
Ġble ak
Ġwall s
ĠMi ike
c r
v an
Ġbe er
ĠT arzan
ri en
Ġun pleasant
ĠSc orsese
ins aw
vent ually
Ġsw itch
Ġtrans fer
ĠHop kins
er on
ĠH ud
ag n
ĠG ill
ig an
Ġshe l
pl o
Ġshow er
Ġoff ering
Ġtalk ed
ĠCl int
Ġhope fully
Ġnon etheless
Ġhop ed
Ġmedi um
Ġoccur s
Ġindividual s
Ġbreath taking
Ġmotiv ation
ĠArn old
ĠChic ago
f act
h il
y c
in ent
or der
an ing
Ġwe bs
ĠQu aid
Ġign ored
Ġmad ness
ĠStan wyck
Ġunint entionally
Ġecc entric
v a
Ġf iancÃ©
ĠS uch
ag an
Ġpo verty
Ġche st
Ġless ons
ier ce
Ġran ks
Ġtort ured
Ġcous in
P aul
ĠA k
ĠS orry
ĠC ur
Ġv enge
ĠP ot
Ġwat ches
... .<
ull ivan
Ġlim it
Ġdoll ar
ĠAustral ia
Ġassass in
Ġexerc ise
S e
n els
Ġp in
ĠS POILERS
ĠR alph
um ents
ĠJ osh
ĠN in
Ġim it
Ġres our
Ġappe aring
Ġgrand father
K e
Ġm aid
Ġin fect
Ġse nds
Ġth read
ĠH ood
Ġat tend
Ġfl u
Ġgra du
Ġcre ation
ĠWill is
Ġforg ive
Ġhy pe
Ġlog ical
Ġmelodra matic
i pe
Ġs ings
on ly
ĠL iving
Ġsp ots
Ġinc o
Ġdra mas
Ġresp onse
pent er
Ġportra it
p se
it o
it ar
Ġg ift
ĠB ay
ĠD rew
Ġcom fort
Ġter rifying
Ġcreat ors
Ġdri vel
Ġannoy ed
Ġfour th
Ġplan ning
Ġjud g
ĠMat thew
p ieces
r ity
w ife
am in
ĠL em
ep ing
Ġbl ows
Ġfar ce
Ġtrans port
Ġsubsequ ent
Q u
T om
id al
el son
ak a
Ġwhe el
Ġr ushed
ore n
pl ane
Ġcharacter ization
we ight
Ġscient ists
Ġfort un
Ġprec ise
ĠCinem a
Ġrevel ation
a ver
ed er
ĠC all
ĠW oo
if ting
ag a
op hy
Ġag ents
Ġins ist
ĠRe al
Ġeng ine
Ġ: )
Ġrequ ire
Ġfort une
Ġbre asts
Ġalco hol
ĠOb viously
n ic
Ġh ung
Ġh orses
ĠF ather
pl ots
Ġtal es
unk y
ĠInd eed
ĠGe or
Ġattract ion
Ġcard board
Ġremo ved
s uch
w ater
Ġs ons
Ġd om
ie u
Ġal beit
ĠP ort
Ġro w
Ġreal ise
ony m
Ġpat ient
Ġstri p
Ġresemb les
Ġthous and
ĠJess ica
Ġlibr ary
Ġafore mentioned
Ġsuperfic ial
F inally
v ideo
Ġw ack
Ġp ir
ot a
Ġn ut
ĠD ays
us ions
ud os
Ġmy st
act ed
Ġwond ered
P e
id el
ĠM ed
ĠBer g
Ġincomp et
b et
Ġw icked
Ġb ust
Ġre leas
Ġr hy
Ġbl ank
oub ted
ĠGra ce
Ġcomb at
Th ough
uther land
C om
c orn
f ight
r un
Ġc ere
Ġn ail
ĠT en
ĠC ould
ĠC aine
el ve
og an
Ġdis ease
Ġcame os
Ġbrill iance
Ġbrief ly
Ġencoun ters
Ġcontrovers ial
d ated
l a
p ut
is ation
Ġd ust
Ġe tern
ce nd
Ġpl anned
ort ion
Ġpre tend
Ġdialog s
ER E
Ġpop ulation
Ġinvestig ate
Ġcharis matic
Ġstret ch
ĠCurt is
Ġpseud o
Ġto ol
Ġre levant
ĠS ing
Ġal b
Ġal ike
Ġmak er
Ġsm oking
Ġstr anger
Ġrest ra
ĠMar ch
ĠRe g
Ġmen acing
Ġthrill s
Ġsurv ival
Ġreve aling
min ute
ĠAct ing
Ġfol k
Ġtor ment
A ct
e nd
in ci
Ġm ont
19 4
Ġdocument aries
Ġflaw less
St ill
ĠChe ck
Ġmer it
ĠStan ley
Ġsac rifice
Ġrac ism
Ġfif teen
Ġcann ibal
Per haps
Ġtremend ous
Ġsplend id
Ġtoile t
Ġf inger
ver ted
Ġse lling
ĠS a
Ġno se
Ġfe ars
Ġbl ast
ĠU N
Ġgener ous
Ġside kick
Ġgrou ps
Ġill ustr
Ġer rors
Ġjump ing
Ġreact ions
Ġconsp iracy
s ho
or ic
Ġhe ight
ĠC ole
ĠH BO
Ġte nder
Ġdra gs
Ġem br
holog y
Ġrepres ents
Ġoccur red
Ġhighlight s
Ġunif orm
wor ks
Ġst orm
ĠC her
ĠP oor
ĠR aj
ist ically
gg y
uri ous
Ġimm ig
Ġunbelie vably
ĠMus lim
Ġwond ers
Ġenem ies
ĠHud son
s ay
t r
Ġd aughters
ĠT erry
all ey
ri or
if ically
ell i
Ġtri umph
Ġbas ement
' .<
b urn
i as
n s
Ġf ired
at ter
pe l
Ġman iac
Ġlo ad
Ġ2 1
Ġcomp assion
gg er
Ġdiffe rences
old en
Ġobs er
Ġcompet ition
ĠRom ero
Ġcow boy
Ġmiser able
Ġlandsc ape
onest ly
Ġbackd rop
T it
er ning
ĠH as
Ġwho ever
ĠR ome
ĠR ight
Ġfa ced
ep s
iz z
ang ers
Ġsho es
Ġsat ir
19 3
Ġproduc ing
Ġmusical s
gy pt
Ġbull et
ĠPol ice
Ġredu ced
Ġf ro
Ġg if
Ġn uts
Ġst aff
ĠB ac
ĠB ush
ur istic
ĠD erek
Ġcha sing
ĠG ib
Ġrel uct
Ġbu cks
Ġcar n
Ġlet ter
Ġpat ri
sh ot
Ġmist aken
Ġadv ance
Ġrequ ires
ĠBob by
Ġdrunk en
ĠWild er
oubted ly
Ġf oo
ll i
Ġst ead
ĠG ive
ĠG RE
ip es
Ġatt ached
ĠAl ong
Ġdirector ial
ib l
Ġcons cious
ĠBe ck
ĠDra gon
Ġsurround ed
ser ies
Ġarg ument
Ġelder ly
J ames
t ain
Ġdif f
Ġhard er
Ġcare ers
Ġmess ages
Ġreturn ing
Ġnarr ator
ĠEm ma
Ġhol iday
C M
e es
r ase
Ġt ons
en es
at o
Ġl it
ĠG ro
Ġme asure
Ġsl ick
Ġsub urb
velop ed
Ġadm itted
Ġ200 6
Ġadapt ed
ĠPr inc
ĠEm ily
Ġidi ots
Ġsac rific
Ġtick et
i ors
Ġin her
Ġmo on
ĠT rue
if ying
ak i
Ġno ble
Ġri ve
ang le
Ġbelie ving
Ġsty l
Ġcoll abor
ĠSome one
Ġridiculous ly
St ar
OM E
ĠFrancis co
ĠCamp bell
Ġende aring
S ha
d s
g ain
Ġ =
le ading
ad o
Ġas se
ĠS ex
ĠC a
Ġex tended
ĠP an
ĠF OR
ab lish
be cause
Ġsha ll
Ġstr ing
Ġposs ibility
ĠUn cle
Ġlack ed
Ġcor ner
ec ess
Ġsecret s
Ġlos er
ĠFre eman
S ee
V ery
it chen
Ġh itting
Ġhor rid
Ġca using
Ġcheck ing
Ġattract ed
Ġcontinu ed
hob ic
c ont
d es
Ġm es
it ches
hat tan
Ġn erv
ce an
Ġfr ustrated
ĠK aren
ov ich
Ġgener ic
Ġpass es
Ġprov iding
Ġbuild s
Ġterror ists
Ġrap ed
ĠSpe cial
G e
ĠP am
Ġun re
ĠY u
Ġnever theless
Ġcons um
Ġabs ence
Ġmis under
Ġdeal t
Ġmeaning less
Ġoffic ers
mind ed
Ġhorrend ous
O ther
e z
ĠS ky
ĠH ind
ĠW y
ak s
Ġwor ried
Ġsp ooky
ĠAl ien
Ġscript ed
Ġste am
Ġcompl aint
t te
Ġin acc
Ġre aches
ĠS utherland
ĠW ow
ĠF ire
Ġpre cious
Ġdec isions
ĠCl ub
ĠMc K
Ġeng aged
Don ald
Ġbull ets
ĠTe chn
ffe e
ĠBarry more
redict able
j o
Ġt all
Ġm ic
le g
ra el
ri er
ĠH ack
ĠN ob
ĠK ar
Ġcl ues
ab s
iz ard
ĠMor ris
AC K
Ġphotograp hed
Ġexagger ated
Ġruth less
Ġd ire
br ick
ho s
se x
ĠS av
ĠM other
Ġare as
ĠW I
ĠR es
Ġpro ps
Ġar gue
Ġabs or
Ġstud ios
Ġpick ing
Ġble nd
Ġrap id
Ġconvers ations
Ġcaptiv ating
m aybe
Ġs am
en berg
Ġp ubl
ĠA w
Ġh un
ĠP retty
ĠF ant
ĠG al
Ġco vers
ortun ately
Ġind ul
ument ary
Ġlist ed
Ġpolit ic
Ġmark s
bs olute
Ġsymp ath
Ġwestern s
Ġing red
A ST
Ġw rap
Ġc ared
Ġto y
Ġre li
ĠH ills
ĠW ard
Ġor phan
Ġhor rors
Ġgen res
Ġworth less
ĠSci ence
Ġt ail
Ġc orn
Ġin form
Ġ/> '
le e
ĠW ater
ĠD ave
ĠR oth
ĠN ik
Ġdis plays
ere my
ans on
Ġeas ier
19 6
Ġest ate
ĠNaz is
Ġing en
Ġarrest ed
T oo
c as
r ict
Ġw ake
Ġb ott
or al
ĠW olf
em ark
ort al
ĠF R
um sy
ĠE N
Ġag ing
Ġexp osed
Ġelect ric
Ġlifest yle
Ġh unting
ĠE gypt
Ġcons erv
Ġ200 1
ĠFl or
ĠSer iously
ĠPro bably
Ġphotograp her
Ġdeliber ately
Ġgrad ually
Ġadequ ate
Ġfinan cial
on ne
ĠW r
Ġab ys
Ġ4 5
mak ers
orm al
Ġdark er
ĠWood s
Ġdynam ic
Ġcamer as
G od
b ie
g r
Ġf art
Ġf oul
Ġm al
Ġn ine
ra m
ĠC ow
ĠR eturn
Ġint ent
Ġra cial
ĠAl t
ĠAl most
Ġsm oke
Ġdialog ues
sc hool
Ġsad ness
Ġtravel ing
war f
Ġaffect ion
Ġresol ution
ĠIre ne
Ġinstall ment
l est
p o
Ġf rench
it udes
Ġdo omed
ĠN et
Ġcl ic
Ġperfor ming
oth ic
ĠSe ason
Ġhat red
Ġir on
Ġstri kes
Ġred emption
Ġrob ots
ĠCom edy
Ġur ge
Ġjeal ous
ĠBerg man
( ..
h uman
l ove
Ġg imm
ic ient
ul oid
ag ine
ĠN elson
Ġtw in
Ġafter wards
Ġent ers
ĠTh ink
Ġtyp ically
ĠHam mer
Ġcas ual
Ġunw atchable
Ġresemb lance
Ġcris is
ĠSwed ish
! .
Ġs ill
Ġs and
Ġf ed
Ġf itting
Ġb ang
Ġnot es
Ġout come
ĠF all
are r
Ġover done
Ġdis j
Ġenjoy s
ons on
Ġlik ing
ĠWhat ever
Ġpred ecess
ĠDo ctor
Ġodd ly
Ġinsp iring
Ġtravel s
Ġdig ital
Ġoffe nded
Ġcommercial s
Ġachieve ment
Ġunse tt
onsider ing
Ġinco herent
w orth
Ġb og
al i
il ted
Ġst one
ĠH ann
ĠP age
Ġtw ins
Ġset t
gra de
Ġintri gue
ĠLou ise
ĠBur ton
ĠCat holic
uls ive
Ġaston ishing
Ġdign ity
C he
w atch
al ed
qu er
for ce
Ġfun eral
iz able
Ġunf air
ĠRobin son
Ġburn ing
Ġliber al
Ġisol ated
Ġrobber y
L a
Ġt ie
Ġp leased
Ġin ject
Ġbe w
ĠS outhern
Ġnot orious
Ġtim eless
Ġtra de
oc ative
icul arly
Ġgra b
Ġswe ar
ĠFilm s
Ġscream s
Ġdiscuss ion
Ġsymbol ism
ĠCam eron
Ġbath room
Ġslo ppy
Ġelabor ate
Ġwann abe
plo itation
p aced
Ġt ires
Ġg all
ĠI d
Ġst aged
Ġhum ili
aw are
ĠBl ock
uff y
Ġdist ance
ĠAr m
ĠCar penter
Ġfra g
ĠCra ig
Ġproceed ings
H ey
m ovies
as ha
ie ve
ĠA T
ĠB aker
ab les
Ġco ffee
Ġdet ract
Ġadm ira
Ġpolit ically
AR D
Ġill ness
Ġdanc er
ĠGold en
Ġprogress es
Ġcal m
ĠLeon ard
H ING
d ri
u ity
Ġl ake
Ġbe ars
Ġde ar
ack ed
oy le
Ġrel ent
ĠBe ast
ĠDe v
cl ub
Ġlab el
ĠVictor ia
ixt ure
b orn
r il
Ġw his
Ġd are
Ġd aring
ic ol
Ġh unter
ĠB ald
ĠM od
ĠJ ake
ĠG ray
Ġsh ine
Ġfun ction
Ġconc lud
Ġconv entional
Ġsubject s
Ġslight est
Ġescap ed
Ġimpl ausible
l ines
Ġw ont
ent in
Ġnot ion
ĠC old
ess ed
ĠR ow
ĠK ay
ci a
Ġcont rib
Ġres ur
Ġapp alling
Ġins ert
Ġadd ict
Ġinter action
ĠFor ce
mak er
Ġcor pse
miss ion
T han
in ate
Ġcom fortable
Ġcl umsy
Ġro cks
Ġgot ta
Ġbo ld
ograp hed
Ġdefin ite
Ġdem ands
Ġmor ality
ĠIs rael
Ġdev ast
Ġ200 5
**** ****
ĠSh ort
Ġunf olds
Ġresp ond
Ġstink er
Ġphilos ophy
Ġstrict ly
ĠAlf red
P ro
g ot
Ã ¨
ll o
Ġd re
Ġin app
Ġst ole
ĠD utch
Ġout s
Ġkid ding
ER S
ex istent
ĠSp ain
Ġpop corn
19 5
Ġbra nd
ĠJul iet
cher s
Ġa unt
Ġs ou
Ġw ha
Ġw et
Ġn urse
Ġh ire
Ġth rew
Ġacc used
uck er
Ġsmall er
ĠChrist ie
Ġsign s
Ġaffect ed
Ġlab or
ĠHigh ly
ĠEll i
Ġsche me
Ġdivor ce
Ġa ck
Ġex hib
ĠO z
!! !!!
Ġtri o
Ġgl amor
ork y
ON G
Ġhonest y
Ġgrand mother
Ġund oubtedly
Ġbirth day
ĠRen o
Ġnerv ous
s ur
Ġc ried
ar row
ĠI an
Ġr ural
ind a
Ġam use
Ġdep ressed
Ġsent ence
bl ood
Ġpsych otic
Ġseg ments
ĠJon athan
Ġinha bit
Ġack now
B ad
h um
m it
z el
Ġp ushed
ic ations
Ġbe ats
ĠT imes
ĠD awn
Ġdo z
Ġcom ics
ĠJ enny
ĠN ational
Ġhat es
ĠWar ren
Ġgang sters
Ġtrad emark
Ġintrigu ed
Be fore
Ġdisj ointed
g reat
es cent
ĠC atherine
ĠD oll
ĠF u
ven ile
ĠN iro
Ġdis miss
Ġgr asp
Ġsad d
Ġdraw s
ĠStre ep
ĠMat rix
Ġclot hing
Ġenorm ous
rehens ible
Ġmetaph or
R ichard
Ġs outh
er ic
at ically
ĠF urther
ĠF oster
Ġun even
ĠE ventually
Ġcl ock
ĠHe aven
Ġco herent
Ġhead ed
Ġheart s
Ġhero ic
ĠCon f
Ġpull ing
Ġnear by
Ġdetail ed
Ġsil ence
ĠDam me
ĠWalk en
ĠLaw rence
Ġvul gar
ĠAra b
Ġencou ra
Ġpsychiat rist
A ng
r int
u cc
Ġ ..
Ġw ard
Ġp itch
Ġe go
al so
ĠT R
ĠM ade
ul arly
ĠE X
Ġfa cing
Ġim pe
Ġgr otes
Ġhard core
ov iet
fin ed
Ġmiss es
Ġdet ect
Ġdevelop ing
Ġmot ives
Ġdev oid
Ġdev oted
Ġrece ive
ĠBoy s
Ġcell uloid
Ġalt ogether
Ġwebs ite
S S
Y e
Ġo ught
Ġb es
ter day
ick ing
ang ed
Ġsimilar ities
head ed
Ġodd s
Ġsil ver
Ġdu o
Ġthro at
' )
g ers
Ġe gg
il arly
ĠK now
Ġend ings
ey ed
Ġsuperb ly
onic a
Ġprim arily
Ġord ers
e f
ĠS ullivan
Ġth ief
ĠC op
ĠR oll
ind ing
Ġad ol
ĠHe art
ĠRe yn
ĠAt l
ĠNe ed
ĠPr ice
Ġdisturb ed
Ġrecogn ition
Ġrecord ed
ĠJes se
Ġdistract ing
ĠBurn s
Ġblat ant
" ...
Ġt aught
Ġre ached
Ġst icks
ĠR ather
ĠF riend
Ġle ague
Ġro ot
ne ver
Ġpart ly
Ġfl ag
Ġra ge
Ġcou ples
Ġthought ful
Ġgl oss
ĠOsc ars
Ġexplo it
Ġexplain ing
amb i
Ġbene fit
Ġhelicop ter
H igh
f ast
Ġt ad
on er
ot al
Ġbe friend
ĠT ru
Ġre bel
ĠH ung
ĠR ic
Ġun original
Ġover s
Ġart ific
Ġfan cy
ĠSc ream
Ġstay ing
Ġsubtle ty
Ġlif etime
Ġprim ary
ĠDaniel s
Ġchore ography
Ġinvolve ment
ĠNE VER
ĠPrinc ess
" ;
u able
ha u
ĠM as
ĠR ub
ig e
Ġgl ory
Ġconc erning
ĠHar vey
Ġpot entially
Ġeng ross
ival ent
ĠGerman s
Ġscient ific
hop ath
Ġblock buster
ĠNever theless
ĠGriff ith
G o
L ook
N ight
b ar
g le
v all
Ġs arc
Ġin ane
at hetic
st ars
ĠC IA
ĠH ist
ĠP ay
th riller
Ġag reed
ci ence
Ġbr idge
Ġtra cks
ĠCh urch
Ġport ion
ĠAt t
Ġbra ins
Ġprom pt
ĠKu brick
Ġmagaz ine
W atch
k o
ĠT CM
Ġst abb
ĠS ub
ĠS yl
Ġh unt
Ġno ise
ĠK er
Ġag rees
Ġwhere as
Ġcreat ivity
Ġconv ol
Ġcoll ap
Ġdem ons
ik o
Ġmurder ous
Ġtechn ically
sh ine
ĠGra de
Ġarri val
ĠIre land
Ġinvent ive
Ġinnov ative
ke l
ĠC y
ĠN ol
ĠO wen
ever ly
Ġsl ave
udd ies
Ġimpro ved
On ce
Ġdeliver ing
ĠMag gie
ĠWalk er
Ġmaint ain
lot te
Ġphilosoph ical
M any
h s
l am
Ġm ixture
or ney
Ġp ants
av a
Ġchan ces
Ġfail ing
Ġtrans formation
Ġprem ie
Ġrecogn ized
Ġremark ably
Ġdefe nd
Ġhyp not
Ġ _
Ġ **
Ġs ales
Ġd uty
st ra
Ġwe b
ĠC ook
ĠW omen
ol ves
ĠR ud
ĠR oche
and al
ĠK ap
Ġend ure
Ġdis li
Ġsp are
Ġ19 2
oss ibly
Ġmove ments
Ġut il
udd en
ops is
ĠCent ury
ĠMitch um
e very
Ġ ;
Ġa x
Ġw est
Ġc ards
or se
ĠD irect
ĠJ amie
Ġsh irt
Ġshe lf
Ġinv is
Ġlead ers
row ing
ommend ed
Ġhope less
ĠHar rison
ĠPe ck
Ġcur se
ĠWh it
Ġunex pl
De ath
ĠCind erella
g al
n est
z er
Ġn ause
ĠS en
ir ley
ĠD own
Ġcha in
ĠP ersonally
ĠG ay
pl ed
Ġar rang
Ġsa f
Ġacc laim
ane ously
ĠLe igh
Ġcomment ed
Ġhilarious ly
Ġaim ed
Ġconsist ently
ĠLOV E
Ġw ave
ur ance
ĠC us
ĠP y
Ġdis played
Ġsa il
iz ations
ĠHe y
ci ating
oc r
aster n
Ġmon ot
Ġuse ful
ĠMan hattan
ura i
Ġcamp a
ĠBen j
ĠNor man
Ġpract ice
Ġkick ed
Ġthreat ening
Ġdim ensional
Ġchalleng ing
ĠWat son
g ling
j ection
ou ch
Ġg amb
ĠH y
cc a
Ġset tle
Ġhand ed
Ġdist ant
Ġtit led
Ġpsyc hopath
Ġobs erv
Ġsucceed ed
Ġexplos ion
Ġpossess ed
ĠGirl s
ĠEll en
ĠWat ers
ĠEVER Y
Ġfrustr ating
Ġunbe arable
Ġilleg al
S ec
Ġs its
it ual
Ġj e
Ġpl ausible
arr ie
Ġtrans ition
ĠBro ok
Ġthank fully
Ġbene ath
Will iam
Ġconvol uted
S POILER
Ġs en
ĠI mp
ĠA cc
ĠC ase
ĠP ur
red ator
ĠN ort
ĠN avy
Ġcont ained
ma res
Ġhome less
Ġinflu enced
Ġloose ly
Ġgold en
Ġburn ed
ĠGreg ory
Ġgrotes que
B as
D an
Ġst ro
ĠS ally
ĠS oviet
am an
Ġwh im
ĠP ink
ru ciating
Ġpre jud
Ġgu ide
Ġperfor mer
Ġpr ince
Ġread s
Ġunderstand able
ĠSc ot
ĠCar rey
Ġest ablish
at ures
pe red
Ġpart ies
Ġsl ice
dd y
Ġopin ions
Ġcurrent ly
Ġsole ly
Ġoverwhel ming
ĠHug hes
Ġunsett ling
P lease
Ã ¡
is ha
it led
Ġe ars
ot o
ĠW ong
ĠF ell
Ġcont rad
Ġsur pass
Ġcomp osed
Ġperson s
Ġmon olog
Ġtrans p
Ġsusp icious
lo ver
Ġexplo red
Ġcirc us
ĠPro fess
Ġbed room
Ġformula ic
fun ction
ĠSid ney
on i
ĠM u
Ġnot ably
el ic
qu el
ĠE p
ĠE ver
Ġinst ant
Ġshort ly
Ġass ault
Ġequ ip
Ġamount s
udd led
ĠMur ray
Ġneigh b
ĠSil ver
ĠReyn olds
Ġt ame
Ġd ent
ĠP en
Ġcl osed
... )
the n
Ġpr ide
Ġdown hill
Ġclass ical
Ġaud io
Ġinst it
ĠRe ed
ĠBr onson
Ġtrail ers
ĠBet ty
Ġju venile
Ġarrog ant
Ġmes mer
S er
k ish
he im
Ġw ig
it ched
ĠI ng
ĠT al
Ġan x
ĠC ho
Ġsc ores
Ġk itchen
Ġcon ve
Ġpart ners
ĠU lt
ĠShe p
inc ingly
ĠMy ers
che ck
Ġsuggest ed
Ġmod els
Ġbrut ally
Ġdef ense
ĠWall ace
Ġirre levant
O ST
c onscious
Ġfor ms
ke ys
Ġne p
ĠF inal
our t
our ne
for ms
Ġbl owing
ress ive
rit er
cha ract
Ġphot o
Ġtre es
Ġdim ension
ĠBer lin
ĠBern ard
ĠMarg aret
bsolute ly
h our
m et
p re
p ing
Ġb anned
Ġc ake
Ġc up
Ġp ays
Ġst ir
Ġex otic
ĠP R
ĠJ une
ĠG inger
Ġar c
Ġag gress
ap es
Ġsurv ived
Ġdam age
Ġpassion ate
Ġeight ies
s ky
en cies
al o
ĠL ive
ĠF X
Ġdis gra
Ġtra p
iv able
yp se
Ġexist ed
spect or
Ġproceed s
Ġpurcha se
Ġdoz ens
o ch
p es
Ġs outhern
ĠT em
Ġhe at
ĠA my
ĠB ow
ĠM ira
ĠC ox
Ġdo ors
ag ain
Ġv oy
Ġaw e
Ġimp erson
ang o
iss a
Ġinf erior
Ġleg al
Ġshad ows
ocal ypse
Ġf ighter
Ġg est
ra h
ĠW alt
ick en
Ġcl iff
ab el
te nds
ros awa
Ġconst ructed
Ġarri ved
Ġregard less
Ġcust om
Ġsimpl istic
Ġrub ber
P eter
m aster
w as
Ġa id
ĠT ry
Ġst ellar
Ġab du
ĠP L
ĠP oint
ĠL ow
Ġup s
Ġad orable
Ġte a
ens ions
Ġri ot
Ġel im
Ġexc ruciating
Ġimag ined
Ġbuild ings
ĠEx cept
rel ated
Ġuns atisf
Ġguest s
Ġcompan ion
ĠDian a
= =
C an
T e
b ased
c op
en ger
at ched
Ġth ugs
ĠD oc
Ġj aw
ĠJ ord
Ġr um
ĠN ice
Ġover t
ob i
Ġcountry side
ĠGra ham
Ġsatisf ied
Ġwitness ed
ĠThom pson
Ġdescrib es
Ġhint s
ĠWhe ther
b by
n on
re et
ĠT own
Ġjust ify
Ġqu it
Ġpre tending
Ġnew ly
ĠCha se
Ġdist ingu
ĠMy stery
Ġsusp ic
ĠRock y
ban ks
ĠJud y
Ġpress ure
âĢ Ļ
Ġcampa ign
A nt
p ha
ct ors
ĠA W
ĠB UT
ĠL y
Ġtr ashy
li k
ĠBl ake
ug ust
?? ??
Ġsol ution
ura cy
Ġavoid ed
Ġclaim ed
Ġunint entional
Ġignor ant
f ree
l on
r um
is y
Ġd ict
Ġn omination
est on
ĠN ed
Ġus er
Ġdes ired
Ġrel ies
Ġinter rupt
Ġcop ies
Ġintrodu ces
Ġsoul s
yr ics
ĠLat in
Ġpoet ry
Ġcitiz ens
I nt
w orthy
ĠT op
ion e
ĠD in
Ġint r
od er
Ġsp oke
ĠV ideo
Ġfact ory
ĠTh ird
Ġlack l
ĠSha w
Ġsatisf y
Ġfat al
Ġhen ce
ĠBrand o
Ġequip ment
f oot
f unny
g ia
Ġa ka
as er
ce ived
ell ers
per fect
Ġfl op
Ġcent ers
Ġresult ing
ĠGod father
ĠMag n
Ġhide ous
Ġfund ament
wh ite
Ġfoo led
Ġinapp ropriate
4 0
A G
p in
t own
Ġ [
ĠI ran
ĠB ett
Ġbut ton
ĠH oll
ĠD al
Ġex ter
Ġup l
ars on
Ġsp ort
ĠZ one
Ġpar an
ĠSha h
Ġrespons ibility
ĠRo ad
ĠEr rol
Ġhig hest
Ġunderst ated
Ġsal v
Ġearn ed
ĠAndrew s
Ġparall el
Ġrive ting
Ġtires ome
O r
g io
es is
Ġin du
at ha
ch i
ch ild
ĠA M
Ġsu p
Ġpl od
est ic
ind s
Ġover rated
Ġtra ined
Ġap olog
Ġcomp ens
Ġtri be
Ġworld s
Ġchan nels
Ġsuper hero
Ġlow est
mp ire
Ġdefe at
Ġnostalg ic
ĠAmaz on
Ġded icated
ĠVamp ire
" -
E d
Ġy a
ad get
op les
ĠJ eremy
Ġlo ads
ĠK ra
Ġatt itudes
ĠLe o
Ġtreat s
ĠNOT HING
Ġund ert
Ġspec ifically
Ġmotiv ations
Ġdesp air
ĠComm un
Ġasse mb
d is
Ġb uddies
oo ges
ĠH olly
ous ing
ĠR O
Ġsee ks
Ġrec ru
av al
Ġgl or
ĠSp ring
Ġcinemat ographer
ĠGrant ed
ĠDu vall
ĠYe ars
Ġdisappe ared
ĠBeat les
Ġvague ly
Ġexchan ge
iffe rent
c ult
v ity
Ġs ust
Ġc ens
im ated
ĠB ran
ĠP ant
ĠL ang
man n
Ġbr ide
Ġsl im
Ġhel pless
Ġposs ibilities
Ġstar ing
Ġembarrass ment
Ġporn o
Ġrece ives
rad ine
ĠVeg as
L ove
M ur
a ith
e ff
r r
or ia
Ġd ile
ĠS C
ir ts
ĠB ook
ĠM ason
Ġpl at
Ġcha os
ĠR ings
ĠF iction
Ġdirect s
Ġgr anted
Ġconsider able
Ġroom s
ĠPer ry
min ator
ĠJew s
Ġcivil ization
ĠDor othy
ĠRem ember
Bra zil
Ġbon us
W h
Ġb in
ĠI ron
ĠC ertainly
ĠH anks
ĠJ en
ĠG re
ĠG arb
iss ion
Ġco ast
Ġbu ck
ret ched
Ġvis iting
Ġpat tern
Ġequ ivalent
ĠSu pp
Ġdraw ing
Ġconfront ation
Ġaltern ative
Ġhall uc
ĠPict ure
Ġwra pped
Ġwack y
D ead
l ad
Ġp ad
Ġd irt
Ġst ark
ĠM ake
Ġcom mend
ĠP sy
ĠF ortunately
ĠG othic
Ġgood ness
od ge
ne red
Ġinst r
land s
ah l
Ġsty les
Ġconv ict
vent ure
Ġdev ices
Ġcelebr ity
ĠKu rosawa
Ġsevent ies
Ġm und
Ġb one
ĠW AS
ĠG ang
Ġr ul
ĠN ative
The se
Ġwork er
ob s
ĠSt all
Ġalong side
Ġcat ches
Ġclos est
Ġdepict s
ĠRay mond
roc od
Ġstink s
Ġsyn opsis
ĠPlan et
Ġmont age
A v
Q ueen
ou red
ĠA ge
ĠS op
oo by
Ġj azz
ĠR iver
Ġun it
ĠE xt
ĠV en
oc aly
ĠCl ay
Ġpar ad
Ġval uable
Ġfut uristic
Ġphot os
Ġdesper ation
TH ING
pro v
aust rop
Ġcand id
Ġpresum ably
Ġingred ients
ĠBald win
Ġsaf ety
A W
w an
y o
Ġw ars
ct ic
ĠA z
ĠA le
ĠA part
Ġth umbs
ĠB ry
Ġwe alth
ĠL or
ĠG il
Ġcan cer
ĠK ath
Ġunder lying
Ġclass es
Ġsense less
Ġvis ible
Ġwa ited
ĠCar radine
Ġprov oking
Ġweak est
ĠMur der
bb ed
ĠMcC art
Ġalco holic
Ġsne ak
C ha
P S
Ġw ished
Ġto s
Ġl yrics
ĠT iger
se ct
ĠH eston
Ġsu ited
ag ement
ĠL ots
Ġdis h
Ġ3 5
ery l
Ġhouse hold
Ġguess ed
Ġclim actic
Ġkick ing
ropri ately
Bl ack
Ġopt im
Ġadvert ising
ĠFair banks
ĠNY C
Ġjournal ist
Ġvenge ance
D r
H is
i our
Ġd ys
Ġpl ight
Ġal as
Ġar med
Ġnight mares
Ġru ins
Ġbackground s
Ġcatch ing
Ġcru cial
ĠHam ilton
Ġhur ts
Ġteach ing
Ġcorpor ate
Ġvulner able
Ġabys mal
ĠRoche ster
E m
S pe
n ame
o is
s how
Ġt act
Ġt ank
Ġc hat
en z
ĠM Y
ĠM TV
ĠL ight
Ġro of
Ġgu itar
Ġbas ket
Ġ200 4
Ġwind s
bb ing
ĠAngel a
ĠMatt hau
Ġprinc ess
Ġwid ow
Ġaccompan ied
Ġchap ter
ĠGRE AT
n umb
Ġs ung
Ġb ully
Ġc ities
ol k
Ġdisco very
Ġsens es
ĠTr ans
ĠNor ma
Ġrepres ented
Ġpers u
Ġbelief s
Ġcorrupt ion
Ġfrustr ation
Ġnep hew
H A
u ated
Ġb oun
ĠT alk
Ġre bell
ĠH unt
ĠL enny
ĠG ame
ĠE le
Ġcl iche
Ġpo ison
Ġsp aces
Ġsha m
Ġabs ent
Ġnight club
Ġmon key
AT CH
OR E
ĠBra zil
Ġbox ing
ĠAng els
Ġprison er
Ġleg it
Ġtem per
Ġprincip al
ĠPot ter
Ġgimm ick
U M
w oman
z ard
Ġc ats
Ġl am
ut t
Ġon line
ĠS F
ĠH olden
Ġv ig
ĠJ ol
Ġpro l
pt ion
ĠTh us
ĠUn less
Ġgener ations
Ġang st
ĠMon ster
Ġdro ps
Ġjo ins
Ġauthor ity
ĠAdam s
Ġaccompl ish
Ġeduc ation
Ġpupp et
Ġeleg ant
Ġinvis ible
M art
s ha
Ġs an
Ġp ant
il ight
ĠB al
ĠM all
ĠW orth
ig o
Ġcl austrop
Ġpo etic
Ġsa ppy
Ġsim ult
Ġpr inci
ĠShe riff
Ġir res
ĠEl vis
Ġcond itions
Ġconflict s
ĠSteven s
ĠNichol son
Ġnostalg ia
Ġswim ming
Ġimmense ly
? '
B r
I nd
a gh
Ġb ump
Ġto pless
ic eless
Ġre in
Ġst ilted
ĠS now
ĠB ud
ĠL um
ĠF our
Ġor che
au x
ound ed
ge nds
ile y
ens ical
Ġsince re
Ġblack ma
Ġpain ted
Ġfant as
ĠNe ither
ĠSh irley
Ġsecret ary
Ġtast es
Ġble w
ĠSer ies
ĠRuss ia
Ġdisappe ars
Ġobject s
Ġappl aud
Ġjew el
G u
p y
Ġe cho
ĠT all
ri ent
ĠB ugs
ĠC ut
ĠC os
ĠH ust
Ġsc ope
if ully
Ġcha sed
ĠP ry
ĠE ither
Ġbl ur
Ġaw a
ever al
!! !<
Ġcomp aring
arent s
ĠCl aud
Ġconst ruction
Ġeng age
war ming
ĠCor man
Ġmount ains
Ġchore ographed
Ġdemonstr ates
Ge orge
Ġartific ial
ĠCus ack
B ig
S ince
d og
x ic
Ġd ud
id y
ĠS POILER
ĠH ugh
ĠF at
ind er
Ġfe e
Ġaw ake
Ġres ort
aw ful
Ġass igned
Ġpopular ity
Ġfool ish
Ġbuff s
ixt ies
Ġton ight
Ġfil th
Ġmund ane
L ast
Ġn arrow
ĠA h
ĠC art
Ġrec on
!! <
Ġtra vest
Ġlast ed
Ġsk ull
Ġrep ort
On ly
Ġfault s
Ġsubst ant
ĠVal ent
Ġfrequ ent
Ġaltern ate
Ġcounter part
Ġseve re
Ġglob al
i per
es on
Ġe ase
st age
il ia
ĠM iddle
ĠL OT
Ġshow case
Ġover acting
Ġfl ies
Ġsur g
Ġview ings
ĠTra cy
ĠNight mare
Ġball s
Ġpun ishment
ĠIntern ational
ĠCharact ers
Ġincompet ent
. .<
Ġp le
Ġp ub
ic able
Ġre ly
ay ing
ĠS aw
Ġli ps
ĠC ab
Ġat roc
ĠR ad
ĠR ating
Ġint im
ĠG abr
ĠE yes
Ġgreat ness
ac ity
pect ing
Ġrem ained
Ġhum ble
Ġpr iceless
ĠSp ike
ĠLe gend
Ġsle aze
vol ution
Ġsurv iving
AL L
ĠEn joy
Ġroll er
Ġjo ined
ĠCass ave
ĠAst aire
Ġdinosaur s
ĠTit anic
ĠVirgin ia
imag in
Tit le
, ,
1 2
b idden
l ins
he ars
re ll
Ġo w
Ġf ought
le tt
ĠT ak
Ġan aly
ĠA bb
ĠS el
Ġsu s
ĠL iz
ĠJ a
Ġman kind
Ġdes ires
Ġri g
Ġsub stit
ĠAs ide
Ġcons istent
Ġmen ace
Ġbusiness man
OU S
Ġclever ly
Ġrandom ly
Ġpsych ic
Ġder iv
Ġens ues
ĠSE E
ĠClass ic
Ġresour ces
onym ous
B est
H ollywood
c a
f u
p an
Ġm ast
Ġp ale
Ġst ress
ter y
ul ations
un ior
ĠP owers
qu est
Ġmy t
Ġche ating
AS E
Ġsuit able
Be ing
Ġcompos er
Ġbott le
Ġa pt
Ġm afia
Ġc e
Ġc ran
ent h
ĠS oph
ag ues
ge on
ell ig
Ġte nds
Ġhor rifying
ions hip
ĠSt ra
Ġche ated
ash i
Ġcho oses
ĠKe ith
Ġquestion able
Ġsecret ly
Ġoccas ions
ĠAust in
Ġhost age
ĠAlex ander
Ġcorrect ly
Ġdrag on
ĠON E
hett i
Ġconserv ative
b uck
g ian
Ġthe rap
Ġm ile
Ġc ure
en i
Ġp unk
Ġl un
ĠA ff
ĠS P
Ġth ru
ĠB ak
ĠB rend
un ts
Ġex quis
and ering
ĠCha mp
Ġgl orious
ix on
Ġph rase
Ġpat ience
Ġmaster ful
ĠSome how
Ġprom ises
Ġant agon
Ġbeha ve
Ġroll ed
ĠHo pper
Ġunp redictable
Ġexpos ition
Ġtro ops
J ul
p ol
Ġt ies
Ġs ess
Ġp ages
ĠS ix
ĠB oll
ĠC re
Ġal ter
Ġv om
od es
Ġreal izing
Ġsp ring
ĠU nt
Ġsha ke
Ġsecond ary
ĠPl ot
ES S
Ġpuzz le
__ __
Ġreun ion
ĠBeaut iful
ĠFlor ida
ĠHist ory
ĠBenj amin
" !
T er
w ind
z ing
in ating
Ġd iamond
Ġre ck
ĠA ugust
ĠB oo
ast ard
Ġun happy
Ġsh if
Ġshow down
Ġqu otes
irst y
ĠV ar
Ġmess ed
Ġheart breaking
Ġ199 9
Ġrecord ing
Ġexception ally
yl um
ĠDian e
Ġmethod s
Ġseve rely
d ies
j i
w yn
Ġt v
in ers
in ations
ha ust
Ġc ode
Ġp ushing
Ġst ream
ĠB ible
ĠL uck
Ġint ric
Ġr ude
per or
Ġra ises
Ġtri pe
row s
Ġsw all
Ġage nda
Ġill ogical
Ġland s
Ġmod est
ID S
Ġtroub les
Ġpolic eman
Ġincor por
ĠJord an
Ġtravest y
t alk
Ġa est
Ġd ating
Ġg arden
ĠB ark
ĠB ambi
ĠB everly
ĠD ON
Ġdo d
pp ers
Ġr itual
ĠN ov
iz er
Ġra cing
ĠSt ock
az ing
pris ingly
ys is
Ġ200 3
Ġfoc using
olog ist
Ġadapt ations
ĠLau rel
Ġhen ch
ĠThrough out
ĠKap oor
b one
b ig
Ġm ouse
Ġg or
ro b
Ġh ouses
ĠM un
ĠR ead
ab out
ian a
Ġsl aughter
Ġbu gs
Ġexpl oration
Ġmat ches
Ġgl im
Ġvis its
Ġph ony
Ġmention ing
vol ta
Ġappreci ation
Ġcond em
ĠPro ject
ĠHol ocaust
Ġmarket ing
Ġwarm th
dra ma
Ġgif ted
A P
S am
b ound
p hant
u eless
Ġw ore
Ġf ingers
Ġm use
ar ity
Ġfor ty
ĠS et
ĠD aw
ol n
ag hetti
Ġpe oples
Ġatt orney
Ġac id
Ġconf ident
Ġexper iments
ĠMar x
Ġprom ised
ĠHer o
AR N
Ġprot est
Ġoper ation
ĠBet ter
Ġemphas is
Ġhes it
Ġw is
ld om
ĠG rey
Ġsh ips
Ġcare ful
ĠAn nie
ĠSe a
Ġconv incingly
Ġref uge
Ġpur s
ĠChar lotte
AT E
Ġve in
ĠBur ke
Ġcontr ary
Ġic on
---- ----
Ġwound ed
ĠCru ise
ĠCry stal
n or
u art
Ġ âĢ
Ġw olf
Ġo cean
Ġd arn
Ġhe ist
Ġst ale
ĠThe ater
ak o
ĠL oy
ast ically
ĠF ields
Ġun aware
ĠK a
Ġmin imum
Ġinterest s
Ġob st
ĠSe ven
ott a
ik er
head s
ĠEx cellent
ĠSee ing
ĠGib son
f le
Ġha bit
ro be
ĠS ellers
ĠB attle
ĠD irty
op ard
fe rence
Ġr ang
Ġun imagin
ac ious
ĠSt ars
Ġrel atives
Ġgr ate
Ġrom p
Ġexp ed
ĠON LY
plic ity
Ġflo ating
Ġwand ering
Ġguarant ee
Sec ond
ĠSop ran
, <
1 5
H H
m otion
Ġm ate
al a
ĠT ha
ĠA BC
ĠS N
ĠS ong
ĠW als
Ġab usive
Ġde af
ĠL ance
ĠF ay
Ġen light
ac le
ob b
Ġins anity
Ġlet ters
Ġconf idence
Ġpass able
ug ene
oil ed
uc ing
Ġsens ational
Ġproper ty
ĠTim othy
Ġfashion ed
Ġlength y
Ġadop ted
Ġexcess ive
S ure
Ġw ishing
Ġb aff
Ġb umbling
ĠB ert
ĠC D
Ġne ur
ĠR ich
Ġout fit
ĠF ra
ĠF ul
Ġper man
ne ath
ff ic
ens en
ĠIn spector
Ġcont empl
sp ir
Ġsha red
anc he
Ġref lection
Ġcapt uring
Ġrespect ed
ĠCol in
ĠQu ite
Ġhy per
Ġwild ly
Ġinvestig ating
Ġsqu are
ĠEr nest
ĠWor st
ĠNob ody
ĠWI TH
) ...
C ar
b i
e vil
f aced
Ġb ite
ic idal
Ġbe hold
Ġab used
ol t
ĠF el
Ġwor n
th rough
ip id
Ġsha res
ĠBe ach
Ġed it
Ġang el
Ġwrit es
Ġmer its
ĠBel a
ĠJeff rey
ĠUnivers ity
upp et
ĠSher lock
Ġpurcha sed
ĠCast le
Ġsket ch
Ġdestro ying
Ġvi br
icol or
ĠProfess or
ĠGarb o
Ġdys function
/ /
N ever
b oth
d id
Ġw retched
Ġm ax
Ġhe ars
ra vel
ĠS ummer
ĠB ach
ĠM E
ĠL ill
Ġr ush
ĠSt range
Ġres on
de veloped
Ġinst inct
ident ally
Ġcomed ians
Ġadv ise
Ġyes terday
Ġlaugha bly
str ong
ĠNat urally
Ġobl iv
Ġnin ja
ĠDet ective
ĠBrook lyn
D id
b ury
h le
Ġc ul
Ġl onel
Ġbe ll
ie ves
Ġre ha
ĠC row
ĠW id
em ic
Ġso ci
Ġun st
ĠV ill
urn ed
Ġrec over
Ġcr ashes
Ġname ly
Ġ9 9
Ġmis ery
Ġcontin ually
sh i
uri es
ĠRichard s
go ers
Ġrese ar
ĠCra ven
Ġfascin ated
Ġdi vers
Ġquiet ly
Ġcourt room
ĠSy d
Ġrot ten
Ġambig uous
ĠAlt man
rocod ile
Ġderiv ative
he ll
Ġto ys
Ġg reed
ad or
ri z
Ġgu ards
Ġacc uracy
Ġstraight forward
Ġcheck ed
Ġhistor ically
Ġdepict ing
Ġbehav iour
Ġhyp oc
Ġdre ary
Ġdisgra ce
in ity
Ġd ances
ar se
br ow
fe ld
Ġrec yc
Ġdifferent ly
Ġmyster ies
lo ad
Ġlift ed
Ġactiv ities
ĠLem mon
Av oid
F E
r ine
he ld
re ens
Ġf og
Ġre el
ir s
ri p
ĠB R
ĠH ank
ĠW AY
Ġint ro
Ġro ots
Ġro yal
Ġdis m
Ġfl air
Ġaw hile
ĠCha insaw
Ġwait ress
Ġfra med
Ġdiscover ing
Ġprim itive
Ġtransl ation
Ġsill iness
W ar
c il
p ower
w ord
Ġl ately
ĠC ivil
Ġwho lly
au er
ĠE mpire
ĠK ent
Ġam id
Ġte aches
Ġcomp rom
act s
Ġmusic ians
ĠSc ooby
Ġvis ions
Ġexp and
rom a
Ġval id
Ġband s
har t
ĠNat han
ĠCent ral
Ġglass es
Ġunivers al
Ġexecut ive
D ra
F UL
n amed
r ome
Ġf aster
Ġin ability
Ġin herent
ho le
Ġbut cher
Ġwe ather
Ġsu cc
ĠF arre
Ġint imate
ĠG all
ĠE st
ĠO per
ĠJo ey
Ġgr ief
Ġsy nt
ĠOr son
Ġspir its
ĠGl enn
Ġbi ased
Ġchalleng es
Ġtun es
Ġmanipul ative
Ġpursu it
ĠWals h
H er
P at
f ront
s a
Ġl ens
om y
ĠA ction
ĠM ount
Ġsc hed
Ġex haust
ĠP ick
ĠG OOD
Ġcr ush
Ġins ipid
Ġpol ished
inc oln
not e
Ġconv iction
Ġmis leading
Ġmil k
Ġsens ual
Ġ**** *
Ġder anged
Ġcomplain ts
ĠStall one
Ġsimult aneously
Ġlonel iness
S im
f elt
u elle
y re
Ġd rill
le ans
Ġse nding
Ġth r
Ġsc at
Ġj er
ĠL enn
and o
ĠJ ed
ĠK yle
Ġcl ip
ip ed
ĠSt ooges
Ġsub plots
Ġtri angle
Ġhead ing
ĠMar io
omb ard
play ing
Ġadv anced
ĠQu inn
Ġdanc ers
Ġassum ed
Ġemp athy
ĠPal ma
ĠIm agine
Ġhomosexual ity
Ġalb um
! '
. (
f ashion
l en
w ill
or ms
ou st
an ning
Ġse am
ĠB is
Ġli p
ĠH onestly
ĠW ag
ĠG able
Ġqu e
ass y
ĠV on
li ed
Ġsm iling
Ġrel ation
Ġco ff
ĠSo ld
att on
ier re
Ġfem in
EN D
Ġcontro lled
Ġconcept s
Ġpurp oses
Ġwitness es
Ġsignific ance
Ġtack y
itiz en
Ġsch lock
Ġbetray al
ĠArgent o
Ġupl ifting
L u
o qu
ri pp
ĠM au
ĠC ron
Ġscen ar
ĠV o
Ġser ving
Ġinv ited
Ġinv ented
Ġind ic
Ġprom inent
Ġexplo res
Ġrock et
ĠOther s
Ġnons ensical
Ġrepresent ation
ĠHope fully
u ary
in ter
it i
Ġd azz
ĠB and
ĠC AN
ĠF ut
Ġpre ced
ens on
ĠShe ll
Ġnight s
Ġret ired
gu y
Ġmor onic
Ġcomb ine
Ġtre nd
Ġbomb s
Ġcompe lled
Ġfreak s
Ġreach ing
Ġwide ly
Ġincomp rehensible
Ġrevolution ary
ĠInt erest
ĠCost ello
Ġadop t
ĠPhill ips
ĠOliv ier
Ġunexpl ained
Ġneighb ors
Ġsham eless
Ġsus pend
L ittle
b ust
r ings
Ġf ren
Ġto m
Ġmo de
ad ly
Ġan s
ri o
ur g
ĠM ey
ĠW ol
ess a
Ġ- --
Ġch icks
Ġche es
Ġpop s
Ġmaster pieces
ĠTra volta
Ġremark s
Ġopportun ities
Ġrout e
Ġban al
Ġstrang ers
ĠHot el
ĠHann ah
Ġamuse ment
H E
S uper
c reen
l an
p a
Ġa pe
is and
it able
ĠB in
ĠD om
ĠD ante
ĠD oyle
ĠF un
ĠO rigin
ne ck
Ġperfor ms
Ġsupport ed
rench ing
OU LD
ĠGold berg
ĠYe ar
ift ies
Ġast ron
ĠAp ril
ĠHay es
ruct ive
Ġreleas es
m ain
v als
Ġm all
or ity
le ton
ĠS oder
ĠH ale
ĠD olph
ist an
Ġun su
Ġun ravel
ĠE ye
Ġpe cul
ily n
act ors
Ġrecommend ation
Ġlive ly
Ġdem ented
ĠEd gar
Ġ200 7
Ġpri ze
Ġlaw s
Ġjump ed
Ġeat en
Ġcompan ies
Ġrefer red
Ġchuck le
ĠChild ren
ocaly ptic
A li
d aughter
r ating
v ate
Ġw ow
Ġl ord
al ie
ĠS or
pp ola
Ġv ain
ĠG ot
Ġpe ak
ple x
Ġam used
ap ers
cc er
Ġra mb
be cca
Ġmay hem
Ġliter ary
Ġbrut ality
iser ies
Ġjudg ment
udden ly
A V
K E
P r
and ra
ight y
Ġshe ll
th m
ps y
Ġbo om
vent ures
off s
Ġmurder ing
Ġcompl aining
erv ice
Ġment ions
Ġpack age
Ġdiscuss ing
part icularly
Ġarch ite
Ġinexplic ably
lik able
f ly
i pper
n i
Ġs ab
Ġs aga
Ġw ives
Ġc ream
ic ism
Ġ/> ***
ce nds
ĠS ound
Ġsc reens
ĠL ine
ĠF unny
Ġint entionally
Ġpro spect
Ġmind ed
ĠBl oom
ĠUn ion
AT H
Ġdoub ts
Ġintrodu ce
Ġrese mble
Ġliter ature
ĠSl ater
ano ia
col m
ĠSk ip
Ġimprove ment
ĠRee ves
Ġprecise ly
- )
b ow
d a
l ength
Ġw oe
Ġl ap
ĠA ctor
ĠH ag
Ġcl ueless
ĠV is
Ġho key
ĠSt ate
Ġsim ilarly
ffect s
Ġmusic ian
gg ie
not ch
Ġed ition
Ġmar gin
ĠCon an
Ġpost ed
Ġthreat ens
Ġopt ion
Ġfif ty
umph rey
Ġenthusi asm
ĠOliv ia
R ating
v i
Ġ x
Ġmo ody
ĠT ele
oo s
am era
ĠC ec
ĠL incoln
ĠL ombard
ĠO p
ap id
Ġunder neath
Ġdec or
ft en
Ġcreat or
land er
Ġbar rel
Ġauthor ities
Ġdeb ate
ugg ing
Ġfle e
Ġalleg ed
Ġargu ably
ĠRep ublic
ĠPry or
ĠCassave tes
, (
9 0
c ar
d ig
m ill
u a
Ġ {
Ġ ~
Ġw akes
Ġm uddled
Ġg ap
Ġy elling
am ount
ĠB reak
ust in
ĠP leas
ist ics
ĠJ ill
ĠG os
ĠV iol
Ġent itled
ĠThere fore
ĠAl i
Ġown ed
ĠBe yond
ĠCl ose
ird s
Ġass ign
orm ally
ĠMan n
Ġprof anity
ield ing
Ġsubject ed
Ġlos ers
Ġmach ines
Ġsto res
ĠTer ror
Ġsurf ing
prov oking
Ġneur otic
T ra
t wo
Ġm ort
Ġm ap
Ġd ow
Ġg am
ĠB uster
ĠC ross
em et
Ġde le
ĠR at
ĠJ od
ĠN a
ĠE arl
ber gh
Ġsm ell
Ġdem ise
Ġmor bid
Ġenth ra
ĠNichol as
Ġgre edy
Ġinteg rity
orc ist
e ous
Ġw ides
Ġl iners
ĠT roma
Ġst a
ke eper
ur ation
est ed
ĠE ugene
pl ing
ĠK ung
Ġag ency
ric ia
Ġref use
Ġcult ures
bo at
Ġlim its
bl um
Ġrecogn izable
Ġtrack ing
Ġserv ant
Ġconce ived
ĠTur kish
Ġmotor cy
Ġexped ition
F red
H ara
U E
h or
o ad
Ġ ....
Ġf ist
Ġp oo
om n
Ġh ij
ĠD omin
Ġsc rap
ĠP ut
ĠF ro
Ġr ising
os ition
ĠO t
man uelle
Ġmin iseries
umb o
Ġvis ited
Ġmar ries
Ġdefin ed
ĠOr leans
ĠQu entin
ĠMad onna
Ġregard ed
Ġspec ies
Ġoblig atory
Ġhipp ie
Ġadmitted ly
ĠFell ini
charact er
Ġlackl uster
c les
d in
f an
h ot
m us
v or
ve ll
ĠB enn
ĠB erry
ĠC L
art s
ag s
Ġout law
Ġr ings
Ġr ises
ind ul
ĠO R
ĠK in
Ġim itation
Ġdis ast
ans as
Ġback wards
ĠSt iller
igh ters
Ġche w
Ġinv ites
Ġapp ropriately
ks ha
its ch
ĠCl aude
Ġmis gu
Ġcatch y
OO OO
Ġble ed
Not hing
Ġeduc ational
ĠDE AD
Ġmac ho
Ġcontrad ict
I RE
M AN
r ants
Ġ +
Ġf iring
ĠS everal
Ġdo ctors
ĠL as
ĠL ist
ĠF ive
ĠF ors
ge y
Ġtw elve
Ġsomet ime
Ġch ronic
Ġstart ling
Ġke en
Ġsha ky
Ġvers us
Ġdefin ition
cha ir
Ġbar gain
OU R
tt es
Ġdesign s
Ġfasc ination
Ġaband on
het to
spe cial
ĠMars hall
Ġsurviv or
ĠHal f
Ġadmira ble
Ġengross ing
Bas ically
ĠTem ple
A B
F l
m ake
v ial
in ated
Ġs ixties
Ġf urn
Ġf ox
Ġin sec
Ġl av
ĠT un
Ġfor cing
ĠD ud
ĠD uck
ĠP redator
ĠL on
ard o
Ġbit ch
ord ers
Ġcons cience
ont o
Ġcra zed
Ġref used
Ġclose t
cl aim
Ġwild er
ĠStre isand
Ġexperiment al
Ġreflect s
mod ern
ĠPhill ip
Ġwis dom
B rien
M en
d ate
g ate
l ay
ic iously
ĠT an
ĠT ok
ĠB IG
ĠC ong
ust y
Ġv on
ĠL anc
ĠF ast
ĠV alley
Ġsho ddy
Ġgra bs
ins ki
Ġtop ics
Ġswe at
rest on
AR S
Ġfill er
Ġteam s
Ġcompl iment
Ġdifficult ies
Ġpublic ity
Ġrepe ating
Ġimm ature
ĠCo ppola
AM E
Ġpredecess or
ĠBlock buster
Ġcens ors
g ency
Ġd warf
le en
Ġhe althy
Ġse ldom
ĠS ave
am iliar
ĠB ourne
Ġli bert
ĠM ind
un ks
ĠD ee
ĠG lover
ack s
Ġshe d
Ġaw fully
Ġrem ade
Ġbr at
ĠSt uart
ĠFor get
Ġcred ited
Ġprov ocative
Ġfem ales
Ġ200 2
Ġhom es
Ġcirc le
Ġhistor ic
Ġstret ched
Ġscrew ed
Ġped est
ĠStud ios
Ġsympath ize
Ye ah
Ġfundament al
: //
re he
ing o
ĠT W
Ġst atic
ro ck
ĠB os
ĠM im
Ġsu ms
Ġpl ag
ĠL oren
ĠG iven
Ġr ates
Ġcl oud
Ġar ist
Ġpre quel
Ġ19 20
Ġsim plicity
Ġsha ring
ĠTh or
Ġheart ed
Ġexp ressed
Ġmor als
ik a
Ġopp on
Ġair port
tt p
ĠScott ish
Ġgem s
pro bably
Ġfright ened
Ġobject ive
Ġbal anced
Ġpit iful
Ar thur
Ġunse en
Ġdistribut ion
ĠJu an
Ġincor rect
Ġdece ased
ĠFul ci
I m
M ovie
N ew
W atching
Y et
b able
e ur
z es
Ġto mb
ut en
Ġwas hed
Ġor dered
Ġr ats
Ġme as
Ġlo aded
ĠK ids
our ney
ep burn
Ġmin us
ney ed
ĠBl ond
ĠNew man
Ġthrill ed
ĠFran ces
by e
eng ers
Ġattack ing
ett es
Ġteacher s
Ġemer ges
Ġreject ed
C ol
d oc
f illed
Ġre hears
ĠB ased
ur u
ĠM ant
ĠM ajor
ĠM eryl
ĠD er
Ġsc ra
ĠL E
ist ol
ĠF alk
pt ember
Ġpre v
Ġpre y
Ġinc est
ĠJo el
Ġview point
act or
Ġtri vial
Ġart ic
Ġmem or
Ġexc l
Ġloc als
Ġcount s
Ġdep ression
iam i
ĠQ ue
Ġrespect ive
ĠJul ian
Ġmid night
Ġimmedi ate
Ġcompet e
ĠGold blum
Ġdrink s
Ġprep are
Ġdisgust ed
Ġscrew ball
Ġinj ured
ĠUs ually
Ġreluct ant
ĠScot land
Ġpecul iar
9 9
J im
e em
g iving
p ion
r uns
w ick
Ġs que
Ġc os
Ġre nder
Ġst ages
ĠB ates
ĠC ON
ĠC ode
ĠC ourt
ĠW ish
ĠW right
ĠD ur
em esis
ĠP ost
ĠO s
ĠK N
ĠK i
Ġqu arter
Ġhor ny
ber ry
ma id
ER T
Ġgra iny
ĠTh ur
ĠSha ron
Ġstun ned
ĠLind say
Ġner ve
ĠEv a
ĠBor is
ĠJer sey
ĠBran agh
Ġans wered
B ec
I V
c al
d ed
v as
Ġ .<
Ġb rown
ĠA unt
Ġse lect
if etime
out hed
ĠP in
ĠR ex
um es
ĠG and
Ġle ather
Ġup st
Ġen ig
Ġdirect ions
Ġra il
Ġrec re
Ġshould ers
co vered
Ġgl owing
ĠCl ive
ier ney
Ġgener ated
Ġret ire
Ġmother s
Ġpresent ing
ĠPe arl
mm m
ĠRichard son
ĠAm ong
Ġmass es
Ġaddition al
Ġpet ty
Ġrend ition
Ġtax i
Ġcoinc idence
Ġeth nic
Pe ople
Ġsatir ical
ĠTechn icolor
Ġadol escent
D VD
f et
o cc
w ling
Ġt ang
Ġp onder
ic y
ĠA IDS
ĠM ach
ĠM UST
ĠC onsidering
ĠW E
ĠD iv
ĠD ID
Ġde pend
Ġpo em
ĠV ol
icul ty
Ġ3 000
Ġhope lessly
Ã© e
Ġreg ards
Ġmor ally
Ġdeal er
Ġsign ed
Ġthreat ened
Ġlif eless
Ġinsight ful
ĠDor is
Ġevol ution
Ġinteract ions
Ġfirm ly
Ġpreach y
Ġbasket ball
ĠDaw son
Ġcoff in
1 7
B ack
d ays
g les
an other
Ġl ic
ve re
ce l
ĠC omb
ĠJ aws
ĠE ar
ĠO uter
ĠK o
ĠK ey
ost erous
urn ing
Ġra ces
ub by
ew orthy
Ġadd ress
ĠWell s
Ġtown s
Ġchar ged
Ġcol on
ĠEd wards
Ġpositive ly
Ġdro pping
ĠNic ole
Ġaccur ately
Ġdesert ed
ĠColl ins
ĠBeat ty
Ġdisgu ise
Ġdiff iculty
Ġdysfunction al
c ers
w er
at ics
Ġn ails
ut ers
Ġst er
ro ad
Ġan ts
ĠS eth
ur ate
ers ed
Ġdo pe
est y
Ġun likable
ĠE li
Ġshe ep
ĠHe nd
Ġsound ing
not hing
com p
com ings
Ġexcept ions
ĠFl ash
Ġindust rial
Any one
ĠPart y
Ġsumm ar
Ġaccount s
Ġner d
Ġchalleng ed
aret te
ĠPhant om
Ġshout ing
Ġinhabit ants
ĠFel ix
emet ery
ĠFors y
Bec ause
Ġf ur
Ġb reed
it el
Ġl ush
br id
le m
Ġe g
il ess
ro e
ĠS ab
ĠH arr
ĠH urt
Ġv ice
Ġv ital
ĠP ie
ĠL in
ĠL ily
ĠL oc
ast ing
Ġout ing
ĠF isher
ĠK um
ab h
th ought
Ġra ising
Ġunder cover
ĠSp ir
Ġstrong est
ĠSam uel
tt a
Ġjud ging
ĠIndian a
yl an
Ġge nder
ĠWH Y
Ġauthentic ity
ĠPict ures
ĠRand olph
mitted ly
ĠBros nan
Ġclaustrop hobic
fashion ed
ĠWag ner
ĠCron enberg
Ġmisgu ided
S orry
l ined
w right
Ġp ill
ĠS oc
ĠB ost
ĠH ur
Ġaw ak
Ġexpect s
Ġrep orted
Ġexp ense
Ġstru ct
Ġroom mate
ph one
Ġair plane
Ġcomplex ity
ĠDou g
Ġchick en
ĠUp on
Ġloyal ty
ĠCub a
Ġstumb led
ĠSoder bergh
C ont
H en
j ay
m ma
p res
y et
Ġt ip
Ġf uel
st rated
ĠT roy
gh ter
ow ulf
ĠB ol
ĠH U
ink s
Ġsl aves
act ive
Ġscreen writers
most ly
ĠSp ider
Ġexp ose
Ġref ers
Ġpar anoia
Ġcent ered
Ġdem ean
ĠPet e
Ġhuge ly
Ġstick ing
Ġsqu ad
Ġabsurd ity
ĠFe ar
Ġprefer red
Ġdress es
ĠRoy al
Ġassass ination
Ġvent ure
Ġstumb les
ĠFurther more
ĠAtl ant
G et
d am
v oc
z zy
Ġs or
Ġc attle
Ġl ux
Ġn omin
il and
Ġbe lly
ĠS ay
ĠS weet
ĠC ris
ĠH umphrey
ag le
ĠL ange
ĠF IL
Ġfa br
od der
Ġsa le
Ġrem akes
Ġlast s
ov sky
umb led
sy mp
ĠZ ero
Ġpat ients
Ġinf ant
Ġsubt ly
!" <
ĠSand ra
Ġamb ition
Ġknock ed
Ġham my
ĠSn oop
Ġsket ches
Ġasp iring
Ġdisli ked
) !
M e
Ġw ing
it abh
or ient
ll en
Ġ/> ****
ĠS ide
Ġle gends
Ġsh orter
Ġsp ider
get ic
Ġset up
act ory
de ad
ĠSc ary
Ġcoll ective
Ġz oom
AN G
Ġwin ter
Ġdest ined
ĠSh ould
Ġland ing
Ġ198 4
Ġdesign er
Ġhack neyed
Ġclic hes
ĠNeed less
Ġsurg ery
ĠLanc aster
p erson
r ot
Ġc ripp
es se
Ġd reck
Ġg ained
ic o
ĠI F
ĠT ib
ĠT ierney
ĠA D
Ġh itch
ĠH app
Ġde gra
ĠO dd
ĠK n
ĠK az
Ġres idents
ĠZ e
ĠChar l
Ġconsider ably
Ġplan es
ĠEl m
Ġ199 7
ĠIMD B
ĠPol ish
Ġspectac le
Ġbi ography
Ġla unch
Ġvehic les
ĠComp any
ĠBeaut y
Ġyell ow
Ġwrest ling
ĠBrid get
ĠHack man
F ilm
R ec
t ies
Ġf ishing
ar o
ar ious
ly mp
am y
ĠM ir
ĠM inn
ĠC ard
ĠH ogan
ĠH epburn
Ġwhat s
per haps
Ġche ek
Ġnew com
Ġinv asion
Ġhand ling
Ġgl oom
ĠAll an
Ġshort comings
Ġpass engers
Ġcor pses
ĠSha d
Ġmix ing
Ġclaim ing
ĠAust en
ĠTr ust
Ġpun ches
Ġprep osterous
Ġner ves
Ġsed uct
Ġimagin able
ĠCost ner
Ġignor ance
ĠAnton io
ĠWonder ful
ĠRec ommended
Ġinfect ed
ĠHust on
ĠLuck ily
uten ant
D ark
I ST
y our
Ã Ń
ut ton
ĠB unny
ĠC OM
ain ted
Ġab und
ĠL und
Ġno ises
ard less
ick y
ĠAl one
Ġown s
Ġsupp ly
Ġmat ched
Ġcho ppy
unk er
Ġstra nded
Ġmot ive
ĠEvery body
ĠPer fect
Ġmark ed
Ġtast eless
Ġident ical
alt row
IT Y
Ġunexpected ly
Ġpriv ile
Ġkiss ing
Ġabrupt ly
Ġphenomen al
Ġanal ysis
ĠAw ful
Ġingen ious
Ġglamor ous
Ġbefriend s
c ool
d irect
d irected
g ren
h ou
Ġb arb
et ing
ĠC ushing
ĠH an
ĠH ooper
Ġwh iny
ĠJ et
ick er
Ġho ot
ans ki
ĠIn ter
Ġrem ove
ĠCh ief
de al
rill iant
Ġwar rior
Ġins ists
ĠSc or
ount y
Ġtrans form
Ġaccept s
Ġenc han
imp y
ĠGold ie
ĠBel ieve
Ġmut ant
Ġresol ved
ĠWes ley
Ġdisgu ised
Ġtempt ed
ĠNin ja
Ġacknow led
Ġgamb ling
H ouse
J oe
O S
u y
u ation
Ġt rop
Ġc her
Ġc aut
ed ge
Ġg ym
ĠM ain
ĠC ou
ĠC ons
ĠH appy
ol er
ak ota
ĠP reston
ist y
Ġor g
Ġshould er
Ġsl ip
Ġimp rison
ps ons
Ġsm ugg
Ġexpl oring
Ġheart felt
AR T
Ġrespect able
Ġsurv ives
Ġcommun icate
af oe
Ġge ar
Ġprostit ution
Ġearn est
Ġisol ation
Ġinha b
Ġscr atch
Ġcaric ature
Ġrhy thm
Ġdile mma
R ed
w ide
Ġp ie
ĠI V
ie val
ho ly
ĠC R
ĠW ATCH
ĠD ill
Ġdo om
Ġv oted
ĠL ie
ĠR ush
ĠR andy
ge ant
Ġreal m
Ġfl uff
Ġcont empt
Ġunder water
Ġdec ap
Ġsub l
Ġsha king
Ġep it
Ġfather s
fortun e
ĠAng us
ĠHa wn
Ġdro ve
Ġintern al
Ġcal iber
Ġprostit utes
Ġinevit ably
Ġwand ers
Ġencou rage
ĠCare y
Ġdestro ys
Fran k
ĠMcCart hy
Ġgrate ful
Ġastron aut
Ġdisast rous
I P
S m
d oor
m un
o vers
re ally
ha ha
Ġp ink
Ġp ump
Ġd ressing
ra in
ĠA bsolutely
ĠB orn
int age
Ġreal ised
Ġfl am
Ġent ering
Ġcont aining
Ġunder m
Ġhand les
ĠCha mber
Ġconv entions
com es
ĠMc Queen
Ġsn ake
Ġpsycholog y
AC E
Bl ood
Ġsymbol ic
bur gh
Ġblat antly
Ġborrow ed
Ġstead y
Ġscenar ios
Ġwilder ness
C ra
J ason
K ing
g i
m el
w all
Ġs hat
Ġb ars
Ġc ue
Ġre n
id o
Ġy awn
ĠS ame
ĠB ox
ĠC ore
ĠD iet
us p
ak u
Ġv ocal
ĠE astern
pl aced
Ġcomp uters
li x
Ġlast ing
.... ...
reak s
ĠMar ilyn
Ġportray als
Ġcop ied
ĠChrist ians
reme ly
Ġvict ory
Ġair craft
Ġmist ress
Ġcomb ines
ĠCol bert
Ġpost ers
Ġunlike able
Ġimm ortal
writ ing
ĠTr uth
Ġspl atter
Ġkidn apping
ĠMa e
Ġdemand ing
Ġincons istent
ĠFant asy
Ġcontrib ute
ĠTru ly
Ġmonolog ue
Ġdele ted
! ,
A b
b les
m ons
o ge
o ard
in ous
Ġf ade
Ġl unch
Ġst umble
ĠS lo
ri ors
ĠB ou
Ġdo se
ĠP altrow
ort ant
ĠG arden
Ġwor ship
Ġcast s
Ġsub text
Ġexce ed
ĠWe nd
Ġed gy
Ġind ication
ĠMy r
ĠChrist ine
ĠSm all
Ġappro aches
Ġ193 9
bl own
AS S
Th ree
ĠDick ens
Ġtransl ated
Ġredu nd
ĠKore a
Ġharm less
ĠWOR ST
ĠHind i
Ġfantas ies
Ġsubl ime
i hil
n ormal
Ġm im
Ġm ales
Ġto oth
Ġp omp
Ġp istol
as es
ut ions
ĠT IM
ra ble
ay ed
ĠM olly
Ġv ary
ĠP op
ĠP ierce
Ġr ides
Ġun sc
han g
Ġend lessly
Ġro pe
Ġad just
Ġ' '
Ġplot ting
Ġown ers
Ġsm ug
Ġaud ition
ĠWe ndy
ĠCl o
amp oon
ĠBra dy
ĠAm anda
ĠMore over
Ġdesp icable
Ġemer ge
ĠOff ice
Ġdetect ives
Ġacclaim ed
Ġunsatisf ying
Ġparan oid
Ġmast urb
B en
U D
o pp
at able
Ġg hetto
Ġn iece
Ġhe ap
ĠB ab
ĠB rig
Ġbut ler
ĠH os
Ġj arring
Ġout fits
reat ed
Ġper cent
th on
Ġdis ab
Ġad ore
Ġfl ood
Ġra b
Ġinc on
Ġhelp ful
Ġstand out
ĠSha me
Ġhilar ity
AL LY
ĠEx p
Ġcond uct
Ġuns us
Ġcruel ty
Ġrefer ring
Ġexpos ure
Ġinexplic able
ĠPhant asm
Ġpir ate
ĠAcc ording
Ġinstr ument
ĠWid mark
1 6
M uch
c at
l ord
es ar
Ġp enn
le ck
st ood
Ġst airs
ĠM iles
ul se
Ġab st
ĠP ho
and on
Ġr ational
Ġle ap
Ġsh ift
Ġmin s
ub ble
ĠShe arer
ok er
Ġadd iction
isod e
Ġrep ulsive
Ġmess y
Ġsuggest ion
ĠSim pson
ĠTer minator
Ġconfront ed
Ġcow ard
ĠKenn eth
ĠPo ir
hob ia
Ġsuburb an
Ġbes ide
Ġpremie re
Ġconve ys
ĠThur man
L au
N A
O ut
Ġo min
om ic
Ġg oo
Ġn it
Ġha pless
im mer
ul ating
ĠD ig
ort ions
ast ed
for man
ris e
ĠU r
Ġins urance
IN E
Ġnat ives
yp ical
Ġsle e
ĠAd rian
ĠFred die
Ġrad ical
Ġsqu ee
ĠGo vern
Ġdescrib ing
IC K
ĠGar land
Ġcomparis ons
gen re
omed ay
Ġpupp ets
Ġsav age
Ġautom atically
Ġhung ry
Ġdevast ating
Ġward robe
Ġunimagin ative
D ER
M on
O Y
f ig
er man
Ġm ute
it ated
Ġd well
im ation
ĠB eth
ĠM os
ĠH on
un o
Ġsc andal
ĠG ore
pt on
Ġun imp
Ġno d
Ġfl es
Ġpoint ing
Ġcou pled
ĠJo han
Ġche ss
Ġcomple ted
Ġbo asts
Ġwar ming
ĠNot e
Ġtrans formed
Ġste el
Ġexplo its
Ġpil ots
ĠMel issa
Ġimpl ied
Ġoffe nd
Ġdeb t
Ġsepar ated
Ġpreview s
Ġfulf ill
ĠLion el
Ġphenomen on
ucc i
ĠâĢ ĵ
ĠFIL M
) ?
h ilar
re ction
Ġb ald
Ġp ushes
ic ian
Ġas ylum
Ġh oney
ĠB ava
Ġwho re
ĠG OD
Ġr ant
res pect
Ġsh red
are st
ish ly
Ġspe cially
Ġgr ass
sc ape
Ġrest ored
Ġgl ued
ĠRe becca
ĠSp ock
ĠNew s
Ġprom ote
Ġswe aring
Ġrespect ively
Ġdam aged
Ġmid get
Ġrepl ies
Ġprogra ms
ĠSad ako
Ġrout ines
ĠVictor ian
Ġla un
ĠJud ge
ĠZomb ies
ĠCandy man
Ġmira cle
Ġflu id
ĠGeor gia
Ġrapid ly
Ġmotorcy cle
1 8
J ean
P ol
S l
b in
Ġ !!
en ch
il er
et a
ĠS ister
ĠS OME
ĠS uddenly
Ġat hle
ĠD ylan
Ġact ive
Ġv ign
ĠF ans
ĠG or
ĠG ard
res a
ack ing
Ġman if
ac les
Ġdis reg
Ġri pping
Ġconf ir
ĠBl anc
Ġreg ion
Ġunc ut
Ġaccept ance
Ġdelight fully
Ġener getic
Ġemploy ed
ĠSil ent
ĠWH AT
Ġrend ered
ĠRick y
Ġfro zen
ĠBost on
C r
L ost
W hich
c ross
j as
Ġt ab
Ġa kin
Ġw ire
Ġb illed
Ġe ats
ĠT am
ĠT urt
ĠH ulk
ĠD ow
ĠD ance
ĠD anger
ĠD afoe
Ġall ey
ĠF il
ard om
ath on
Ġprodu ces
Ġbu g
ĠDe M
Ġac ademy
Ġunderstand s
ĠTh under
iter ally
Ġdeser ving
Ġmed ic
cl im
Ġ197 2
Ġrecord s
Ġmel anc
Ġbrain less
Ġmanner isms
Ġapproach ing
Ġyouth ful
Ġsour ces
ĠDen zel
Ġmechan ical
Ġcig arette
Ġrelent less
ĠPant her
Ġvig il
Ġexquis ite
symp athetic
F F
J ane
m uch
t it
u fact
in ction
er ve
Ġm ail
ar on
al ong
Ġst im
Ġst ray
ĠS leep
Ġth ieves
ĠB ul
ĠC orn
Ġab oard
ĠL ib
ĠR ent
ĠF al
ĠF ish
ĠN BC
ĠN IGHT
Ġad vers
Ġreal ities
Ġpart ially
ap able
Ġmay or
Ġlong ing
Ġhand ic
Ġass ured
Ġpat hos
ĠHer c
Ġconst it
Ġfilmmak ing
Ġcontinu ing
Ġdim in
Ġsurround ings
Ġkidn ap
Ġban ter
Every thing
produ ction
Ġcommit ment
Ġbab ies
Ġenhan ce
Ġeconom ic
Ġdub ious
Ġspaces hip
Ġcul min
ĠDiet rich
! ".
F inal
N iro
Ġt a
Ġw ander
Ġc oc
al most
ow ered
ĠM ust
ĠW ing
un n
Ġv otes
ĠL ana
ĠG wyn
ĠE is
ĠK it
Ġad ul
Ġfl ashes
Ġafter ward
ild red
Ġ2 2
rap h
Ġter rified
ros pect
ĠBe a
ĠCl aus
Ġsy nd
ĠDon na
Ġpat ron
Ġbro oding
Ġwind ows
Ġground s
Ġtest ament
Ġobsess ive
win ning
achel or
ĠSun shine
ĠTor onto
ĠFore st
ĠMcD owell
Ġwheel chair
Ġdom estic
Ġexter ior
Ġwides creen
Hen ry
" <
1 00
D S
E P
nd o
Ġd ates
ĠM urd
ĠC hop
ĠC arrie
ĠW T
el ope
qu ette
ĠG le
Ġlo ck
Ġro oting
ĠHe ather
Ġ2 8
Ġsho e
Ġgl aring
Ġreg ularly
Ġsusp ension
che ek
Ġball et
Ġdi verse
ĠNat alie
Ġden y
ĠAsh ley
Ġtap ed
Ġdivor ced
Ġvast ly
Ġetern al
ĠFR OM
ĠCow boy
ĠSoph ie
ĠSopran os
fet ched
' '
C R
a very
u ate
Ġp ic
ĠT ucker
se xual
Ġse edy
ĠB ess
ĠB elle
ĠM ol
Ġab ortion
ood oo
Ġv intage
Ġun em
od d
Ġbl ess
Ġold est
ĠAs ia
arn ation
Ġheart warming
Ġstud ying
Ġschool s
Ġ7 5
Ġbreak down
ĠKe itel
ball s
ĠMart y
pend ence
Ġ196 8
Ġ196 9
Ġhook er
Ġcal cul
ĠSn ipes
Ġconnect ions
Ġelev ator
Ġanticip ation
Ġweakness es
Ġconven iently
Ġrestra ined
Than k
O ur
r ates
s orry
or us
or ters
Ġp ulp
ar ters
st ock
il ation
ĠA y
ĠA RE
Ġse lection
ĠH um
ĠH ick
ĠH av
Ġv ile
qu in
ĠF ight
ĠY an
ĠIn n
Ġcomple t
ĠSe ptember
ĠMc L
ĠIs lam
Ġinsp ire
Ġer ror
Ġid ol
ĠSim psons
Ġdepth s
Ġrece iving
ĠRuss ians
Ġhang s
Ġnotice able
Ġshar ks
ĠVer ho
Ġmas ks
ĠFull er
Ġenhan ced
uper t
Ġincons ist
Ġpubl ished
Ġsarc astic
ĠJol ie
D is
G H
M ary
a e
m und
u ke
w est
Ġt ent
Ġt urt
Ġw ounds
Ġo k
Ġm ummy
Ġc rown
en cer
om ber
id an
Ġwas h
Ġan c
am i
ĠM ing
ĠH OR
un te
ĠD all
Ġso ccer
ant ha
ĠP ic
ĠP oe
ĠL im
ĠL ifetime
Ġher s
ĠN iel
Ġad vis
we ar
Ġcou ch
Ġpr on
Ġyoung est
Ġgr in
ĠDe ep
Ġmon ks
ĠRe volution
Ġconc l
Ġexam ination
Ġforg iven
Ġ197 8
ĠDra ke
ĠMad sen
Ġleg acy
Ġescap ing
Ġdefe ated
Ġaffair s
ĠGar ner
ĠWestern s
uk h
Ġconvin ces
Pl an
ĠEve rett
fall s
ĠAmaz ing
Ġdepe nds
ograph ical
Ġuniform ly
ibl ings
Ġdent ist
ĠFarre ll
Ġunsus pecting
L ife
c row
d est
g ang
k ill
t ick
v ira
Ġw re
Ġto ken
Ġg ray
Ġh ides
ĠM alt
Ġ( '
Ġpl ate
ĠP C
ĠR ita
qu ire
ĠF E
red ited
Ġpro sec
ĠO rd
ĠO lymp
Ġover long
Ġpre tends
ac ha
Ġoff beat
Ġseem ing
Ġsp ree
ĠHe ad
iv a
Ġinst ances
Ġ200 8
ĠCon st
ĠJust in
Ġ198 5
Ġ199 8
Ġmass acre
Ġsuit ably
Ġsto pping
Ġexplos ive
het ically
Ġsafe ly
ĠBern ie
Ġlandsc apes
Ġinher it
Ġtact ics
bust ers
B oy
H O
M ad
S at
T S
g ence
k l
p rom
Ġb read
Ġb abe
Ġto ps
at ement
as i
Ġst are
Ġsu gar
ist ed
um n
ĠG O
ĠE bert
ĠE yre
Ġgood s
Ġsh ining
ab ol
Ġfl im
Ġho c
Ġent ered
ild a
Ġtra ffic
Ġcome back
ĠDVD s
ĠMar ion
Ġsing ers
Ġrep orts
Ġdefin itive
Ġav id
ik i
Ġfem inist
aught y
Ġ198 9
kn ow
LE ASE
ĠSar andon
Ġlay ers
Ġcaric atures
Ġlimit ations
Ġaggress ive
ĠUnt il
Ġshif ts
Ġrecyc led
ĠShell ey
Ġomin ous
M ore
P ER
n ell
s is
in feld
Ġf aint
Ġg lee
st y
ĠThe at
ĠB ottom
ĠM iami
Ġnot eworthy
ĠW el
ĠD oo
ĠD iamond
Ġj ock
ol ved
Ġcon g
ĠK l
Ġdis mal
Ġcharacter izations
ian ist
Ġfl ashy
ĠV iew
Ġsl am
Ġgi allo
Ġche e
ĠAs s
Ġbu zz
Ġmyster iously
ĠBen ny
ĠGu est
Ġ199 5
ĠNor ris
Ġresc ued
Ġpra ised
ĠMal one
ĠMal colm
Re ally
Ġunivers ity
ĠShar pe
Ġdepe nding
ĠfiancÃ© e
ĠUlt imately
ĠAbb ott
E r
H ar
M ark
c hant
m ath
v ation
Ġb ulk
ha ve
es que
ll ie
ic ia
Ġn ick
Ġn arc
ut ive
Ġre vers
Ġan gu
ĠS ara
ĠC how
Ġj aded
Ġv en
ĠP oll
Ġun att
reat ure
ĠO UT
ab re
Ġar cha
gin s
Ġbl unt
Ġch ills
ĠBe owulf
Ġgl ance
Ġhead ache
ĠSe ym
do es
ĠWin ter
Ġveter ans
ww w
Ġjeal ousy
Ġguarant eed
dri ven
ĠPay ne
Ġinstit ution
ĠPsy cho
M at
Ã ±
Ġb ike
Ġin mates
Ġn un
ĠM U
ĠH at
ĠR itter
ĠF ly
Ġint entional
ĠO ct
Ġcl erk
int s
Ġdon t
Ġsp ont
ĠHe ck
ace y
ang el
Ġres ume
Ġpr ote
Ġorigin s
Ġapp ly
Ġhand y
Ġcr ashing
Ġcra m
Ġret rie
Ġchar ms
ik es
Ġdest iny
irt ies
Ġaut obi
ĠBill ie
ĠMon roe
Ġast ounding
ĠSure ly
ĠStep han
Ġham mer
ĠLes ter
ĠCle arly
ĠTod ay
ĠSund ance
ĠCass idy
Ġbre ast
Ġconcent rate
ĠMet al
Ġcontribut ion
Ġaccess ible
Ġcy cle
Ġchamp ion
Ġbew ild
Ġgor illa
! ).<
F T
L ou
S aw
d espite
f are
m n
it an
Ġd uel
ut ter
ie lle
Ġre ign
ad vert
Ġse lected
ur ous
Ġout right
Ġcon j
Ġpro ving
Ġfl avor
ĠU P
ĠU we
Ġco pe
ane ous
ĠCl ock
Ġtit ular
Ġmis fortune
ump y
Ġdesc ent
ili pp
Ġunc ertain
Ġremind er
Ġland mark
Ġinsp ir
Ġemb ark
Ġ199 4
ĠTw ilight
Ġextra v
ĠPat ricia
Ġassum ing
Ġinsult s
Ġserv ices
ĠMcC l
ĠGar field
Ġexperien cing
girl s
Ste ve
ĠGi allo
Ġbird s
Ġcance led
Ġinacc urate
ĠDal ton
Ġlegit imate
Ġsubstant ial
Ġow es
ĠSN L
I VE
U p
V IL
c or
d em
l ies
Ġw art
Ġw ider
Ġin just
Ġre lev
ce nding
Ġh uh
ĠB rent
Ġj et
Ġk ar
ĠJ ar
ĠK ings
Ġpo cket
Ġdis in
be ing
iv als
Ġexpect ation
Ġclass y
Ġcinem as
Ġext ensive
ĠDe f
Ġstr ings
sc ene
ĠCha nd
Ġblack s
com ed
ĠWill ie
ĠÂ Ĺ
Ġdri ft
ĠGer ald
Ġfill ing
ĠFrank ie
Ġneg lect
Ġcelebr ation
ĠCann on
ĠEnter tain
Ġconclud e
ĠSeym our
! ?
B ill
O ver
f iction
Ġ >
Ġthe ories
Ġs iblings
Ġo l
Ġf er
Ġb ent
Ġp ione
Ġd rew
at ile
le vel
ĠT een
ĠA S
ĠM ick
el ie
ĠG iant
Ġup coming
Ġ1 000
ĠK or
so red
Ġshow cas
Ġtra ce
Ġtri als
Ġfar mer
Ġhusband s
ĠPl ace
Ġpleas ing
OU N
Ġ199 3
ĠSim ply
bl ack
Ġmid st
ĠSpe aking
ĠTer rible
Ġeduc ated
Ġtun nel
ĠDa isy
Ġfortun ate
ĠElli ott
Ġtos sed
Ġmuse um
Ġvibr ant
Ġpedest rian
d ad
i ate
l und
l iest
l ucky
re ne
Ġf ifties
Ġd ut
Ġbe g
ĠA x
ĠA ven
Ġat tended
ĠP S
ĠP ig
ĠR el
ĠF ield
ract ive
Ġun related
Ġpo se
Ġsm iles
sp iring
ib be
Ġins pect
Ġdel icious
Ġconv ention
Ġbudget s
ĠÂ £
ec hes
gu ard
Ġinf lict
ĠHer bert
Ġevent ual
light s
ĠBra vo
ĠMart ha
Ġexplo ited
ĠGood man
Ġest rang
ĠVan essa
ĠAct ress
ĠChristian ity
Ġdistract ed
Ġadvert ised
ĠPar ad
ĠYOU R
Ġparall els
Ġdramat ically
Ġramp age
R ock
f amily
Ġb um
ha ired
Ġc urt
Ġd il
Ġre vis
ĠA R
Ġli qu
ĠW ee
ĠF ort
ĠF ace
ĠN iven
ment ed
ob er
ĠDe Niro
Ġremember ing
ĠBr ide
Ġcolle agues
Ġaccept ing
Ġhar ass
Ġ199 2
Ġstat ements
ĠTra in
no ir
ĠCo hen
Ġdistract ion
Ġsword s
Ġorgan ized
Ġassoci ate
Ġadvert is
Ġstalk ing
Ġtoler able
Char les
Ġjack et
Ġintric ate
riz ona
ĠVerho even
L es
T hose
b ill
r idden
Ġt att
Ġs omeday
al in
Ġbe lt
Ġth rust
ĠH ans
ul ent
Ġact ivity
ĠL ex
ĠL iam
Ġout er
ĠJ agger
ind ucing
Ġun leas
ig ious
ĠO range
ĠK eller
Ġsp ray
Ġra ve
Ġra iny
Ġsl avery
Ġfact ors
Ġcomp rehe
Ġbu ys
xt on
ĠBl ade
Ġcomm its
Ġsk its
Ġentire ty
Ġstud ied
ĠDav ies
Ġadm its
uss ie
ĠKe ep
Ġunc onscious
ĠSh ot
ĠCol onel
Ġfra mes
ĠHen ri
Ġimpro bable
ĠAg ent
ĠAg atha
aff y
Ġpursu ed
ĠThank fully
ĠKid man
bu ild
ĠEgypt ian
ARN ING
A pp
H all
b est
f lu
m pt
r ary
t al
v iol
re cted
Ġf oil
ou ge
Ġp ha
ĠB un
ur ring
Ġso rely
Ġv oc
Ġout dated
ĠN ap
ab elle
Ġus ers
Ġsl ack
Ġtra its
Ġexpl ode
Ġinter rog
ĠBl ues
Ġremem bers
Ġpass age
Ġwa ves
cha r
Ġprof it
Ġ197 3
Ġran ch
su per
ĠEx orcist
Ġneg lected
ĠSer gio
ĠRo oney
Un like
ĠPal ance
Ġtend ency
Ġdepart ure
ĠRod ri
ĠPar amount
ĠJac ques
ĠHA VE
ĠDri ve
Ġmisunder stood
Too le
Ġovers had
Ġcustom ers
Ġdazz ling
O ld
T ake
t ale
u z
Ġw ine
Ġb ones
it ure
on ing
Ġp iv
ed uc
Ġin formed
ra cy
ro oge
ĠC BS
ĠP ass
ĠG ee
ĠN on
ĠN ero
Ġun sympathetic
ry n
ard e
ip her
ign ific
Ġsho cks
Ġsk illed
ĠSp oilers
IN D
ĠLe g
Ġmor ons
Ġcomment ing
Ġcrit ique
ĠDan ish
Ġcheap ly
Ġ197 4
Ġ198 8
Ġrob bed
Ġcritic ize
Ġprogram me
ĠColumb ia
Ġpeace ful
ĠPac ific
Ġtap es
ĠInc red
Gra de
ĠNet work
ĠFriend s
ĠTok yo
Ġanc est
B ased
I ES
in ch
er ity
Ġb illing
it ivity
Ġd uck
at ography
Ġmo ld
Ġre ar
ĠA F
ĠS inger
Ġj oint
Ġab omination
ĠP u
ĠL ar
ĠN as
Ġle nd
ru p
Ġreal ization
Ġco hes
ollow ing
ĠSc reen
Ġcra cking
Ġass ert
Ġopen ly
Ġhope ful
OT H
Ġquestion ing
St ory
Ġcommun ication
?! ?!
Ġinsight s
Ġdeterm ination
mo ving
RI BLE
Ġreward ing
Ġsam urai
Ġimpe cc
Ġprompt ly
Ġstabb ed
Ġlav ish
Ġrelev ance
M el
P retty
T W
U RE
k ers
v ability
re c
Ġw are
es ter
Ġp als
om ing
ĠM afia
ĠH ou
Ġde ft
Ġcon co
Ġpro ced
Ġun ion
Ġle nds
Ġman ga
our se
Ġpo ll
Ġsp an
Ġri fle
ĠAl as
Ġco at
Ġcam ps
ition ally
Ġloc ated
ax i
Ġpar ade
Ġinf o
Ġcol ours
Ġ197 9
Ġintrodu cing
Ġund ead
Ġappro ached
Ġment ality
Ġinterview ed
Ġaffect ing
Ġcell s
ĠRon ald
Ġtick ets
Ġic onic
Ġneat ly
Ġbetray ed
Ġdump ed
ibl ical
Ġreli able
Ġaest hetic
ĠSyd ney
doc umentary
Ġredund ant
? ".
A dd
H ell
S ur
d ro
e or
u ki
v ous
Ã ¼
Ġs anity
Ġf odder
Ġm asc
ou p
Ġd uration
le ad
ĠA CT
ĠA ksha
ĠM ath
ĠD ist
ain ts
ĠF ool
ĠG one
ĠG ret
os al
ert o
ass ic
Ġsp awn
ĠV oy
Ġafter math
Ġunder world
augh n
Ġmight y
Ġins omn
sc enes
Ġcho osing
Ġph ones
Ġstud ies
Ġdem onic
Ġmed ieval
Ġfill s
ĠFrank lin
with out
Ġstunning ly
Ġdiscuss ed
Ġdad dy
With out
Ġunw illing
mar ine
ĠRam bo
Ġpainting s
Ġsubsequ ently
ĠPri vate
Ġdeliber ate
Ġgro an
Ġtorment ed
ĠBac on
Ġhun ters
ĠSupp orting
ĠTha iland
Ali en
A re
A GE
M c
T AIN
b ins
h igh
p op
s ub
Ġc emetery
Ġp our
Ġp atch
Ġp anic
Ġin sect
Ġl y
om a
ĠI Q
Ġbe ard
ra ged
im a
ch or
ĠA wards
ĠA rizona
Ġh ires
ur rent
ĠH uman
ĠW ha
ĠD akota
if i
Ġwho les
ak y
ĠF ree
ĠF aw
ĠF itz
ĠJ oy
Ġjust ified
ud ed
Ġup side
ore tta
Ġinc idents
av ia
Ġshot gun
Ġart if
Ġart work
Ġdel icate
ĠCl iff
ik ing
Ġshoot out
Ġcolle ague
Ġunf amiliar
Ġspir ited
Ġrequ est
Ġdoll s
bb ie
Ġpract ical
ĠSch ne
Ġmut ual
ĠLyn n
Ġvol unte
ĠSecond ly
Ġgentle man
Ġarg uments
ĠTy ler
ĠMid ler
Ġstyl ized
Ġmesmer izing
Ġplod ding
Ġassemb led
Ġunsu ccess
ĠKum ar
N Y
N at
S et
f us
n ames
y ard
Ã ³
Ġt urd
Ġs orrow
er g
Ġb astard
it ors
Ġc ries
Ġp imp
Ġit ems
Ġbe gun
Ġbe gging
ra iser
Ġst ake
et ed
Ġh ott
am our
ĠC ube
em en
Ġal ert
Ġal tered
op er
op ers
ĠJ af
Ġun ans
ĠU ma
Ġexcellent ly
Ġdep ra
Ġsoon er
ĠSh ields
Ġcamp us
Ġ197 6
Ġdecided ly
Ġrob bers
ĠSer b
ĠBoy le
ĠLau ren
ĠPol anski
Ġfreak y
Ġdeg ener
Rob in
ĠDog s
Ġconvey ed
Ġdemonstr ate
Ġinj ury
Ġreward ed
ĠBrid ges
ĠHy de
ĠBin oche
Ġhoc key
1 4
F O
T r
b ast
f irst
Ġs unk
Ġf ires
ha w
Ġc unning
or ous
st eps
Ġit em
Ġbe gs
ho les
ce mi
ĠM ul
Ġnot ices
ĠL ess
fe ll
ĠG ames
ig el
Ġar ray
Ġreal istically
ty p
Ġche m
Ġsince rely
osed ly
Ġadm ired
Ġcent re
dy s
Ġconsider ation
ĠDan a
ĠDan es
Ġrespect s
Ġ198 6
Ġgrow th
Ġhar rowing
Ġcartoon ish
Ġachie ves
ĠAct ors
Ġsuspect ed
Ġaffect s
Ġmouth s
Ġgri p
Ġboo st
Ġlesb ians
Ġsuck er
ĠWH O
ĠFer r
Ġvide ot
Ġcro oked
Act ually
Ġiron ically
ocr atic
Ġslim y
Ġvom it
Ġpurs ue
ĠLenn on
Ġmanif est
. ).
J eff
S il
g t
m oon
u v
ha st
ou ement
Ġd un
Ġl aser
Ġe c
et c
ĠB rett
ĠM ildred
ĠC and
un less
Ġsc ored
if ty
ĠL ad
Ġpro g
Ġgo als
ĠO llie
ĠK udos
ĠK ansas
ru ce
Ġpo pping
Ġho llow
Ġsl ut
Ġ2 3
oc racy
Ġadd icted
ĠFor rest
Ġrep ressed
ĠLe ague
Ġadm ission
lo ving
ĠWho ever
Ġappro x
ask et
Ġterror ism
Ġine ffect
Ġminor ity
oph ren
Ġmob ster
Ġskin ny
Ġtight ly
Ġorgan ization
ĠHaw ai
ĠDar ren
Ġgig antic
ĠAndre a
Ġprejud ice
spir ited
Ġabst ract
Ġwart ime
ĠEntertain ment
* <
B ob
F e
T w
V EN
Ġn om
ĠM ack
ĠW a
Ġex empl
el er
Ġv oid
ĠP orky
ĠL ock
ast rop
Ġlike wise
Ġme al
Ġman ic
Ġman ufact
ure au
ĠK irst
Ġper verse
ru ck
ere n
iz ophren
Ġsm ash
Ġread ers
Ġel ite
Ġsk it
ĠCl ar
ount ered
Ġind icate
Ġhat s
ĠLe vy
anc a
Ġpsy ched
Ġste er
ĠSam antha
ĠAm itabh
Ġenc ountered
boy s
Jo an
ĠHam let
AC T
rem lins
ĠLo han
Ġcelebr ities
Ġbi op
ĠBar on
ĠHay den
Ġhyster ically
ĠMi y
Ġcontrovers y
ĠAud rey
Ġstro ke
ĠAle c
ĠGil bert
Ġfee ble
ĠPoir ot
Ġunans wered
R ay
Ġm elt
Ġb ounty
at man
il ot
ĠT hai
Ġse ats
ĠM ess
ĠD est
Ġj am
us ch
ĠR ol
ĠF O
Ġbad dies
Ġtw ent
for ming
Ġcharacter istics
Ġback s
Ġres ident
act ually
Ġart sy
sc ar
sc ript
ĠCha d
Ġstar ters
Ġviol in
ters weet
Ġsw ing
Ġsuff icient
work ing
ĠCra zy
Ġcommun ist
Ġpack s
Ġbene fits
Ġemploy ee
Ġver bal
Ġresist ance
Ġgee k
Ġsen ior
B ottom
f ers
y mp
Ġf ierce
Ġb iol
ou ching
an u
Ġin advert
at hered
Ġ/> --
ĠH ers
pe ople
ĠD um
Ġsc hol
if fer
Ġfr uit
Ġab ound
ĠL iv
Ġint act
Ġle an
pl an
Ġcl an
ru g
Ġar che
ass es
ĠSt orm
be c
vers ion
Ġres ent
ĠShe en
Ġfem me
Ġnovel ist
Ġmoment um
Ġsn ap
Ġclim b
Ġavoid ing
Ġfra ud
Ġcover ing
Ġment or
IT E
Ġens ure
ĠSho re
Ġcontest ants
ĠDep ression
Ġvivid ly
Ġcarn age
Ġpolitic ians
ĠNol an
Ġmyt hology
Ġantagon ist
Ġinspir ational
" :
" --
P oor
m outhed
Ġb ree
Ġy ard
ad venture
Ġh ttp
Ġli ghter
ĠM am
ĠH K
ĠJ os
Ġun cover
ĠK iss
ĠK nox
Ġcl ad
ĠV e
me aning
Ġspe eches
ĠSt ri
rit z
Ġnew er
aut iful
ash buck
Ġread ily
ative ly
ĠBe ar
Ġinter tw
Ġreview ing
Ġlight ning
Ġpain ts
rop ol
Ġmaster s
OR Y
ows ki
OU SE
bor g
OO K
Ġdelight ed
Ġhost ile
gue z
Ġfreak ing
Ġsell s
ĠLook ing
Ġfac ility
ĠCro we
AK E
Ġhipp ies
ĠBus cemi
idel ity
ĠPam ela
Ġabsor bing
ĠMas sey
Ġnomin ations
ĠLund gren
Ġconcl usions
Ġestrang ed
G host
M ay
e ge
h u
u ing
w itted
he rence
Ġs ane
Ġb itten
Ġl ol
ĠA ut
ĠB ody
ĠM P
ĠC reek
ĠW edding
ĠW ait
ol o
Ġv apid
ĠP au
ĠR id
ĠR ider
ĠR upert
ĠF ried
Ġor deal
Ġr ic
Ġper il
Ġqu int
Ġsp ies
ĠV aughn
be aring
Ġri ps
Ġsm arter
Ġneed less
Ġread er
ĠThat s
inc erity
Ġfan atic
ĠSc rooge
Ġmon ument
Ġass ure
Ġpain ter
ĠCar roll
Ġz one
ĠNe eson
aught on
Ġland ed
Ġgirlfriend s
Ġsick ening
Ġhy brid
Ġcru ise
Ġprep aring
Ġden ouement
Ġcelebr ated
Ġacqu ired
Ġpolic y
Ġshel ter
Ġembr ace
Ġsacrific es
Ġinform ative
ĠBett ie
Ġsess ion
Ġswall ow
Ġglim pses
ĠMount ain
ĠOrigin al
ĠHU GE
ĠDeM ille
Ġprote ction
L ew
b on
g as
p ons
Ġb row
Ġp ause
ot ally
ot ional
Ġn ur
ie g
Ġst ardom
Ġfor med
ch t
ĠS ue
Ġh ust
Ġth ug
ĠB ron
ĠC ool
ĠW R
ĠW riter
ĠD y
Ġsc ant
Ġcha otic
ĠG ree
Ġun ner
Ġany ways
Ġper ception
Ġcl one
Ġro se
iz za
Ġatt ach
Ġinc lusion
ĠAl on
Ġob tain
iss ance
Ġgener ate
Ġ9 5
Ġsw itched
Ġweak er
ĠPet ers
Ġpos ing
Ġ198 3
Ġ198 7
Ġsens ible
Ġlim p
ĠMac L
Ġjud ged
ĠMon ty
Ġsatisf action
Ġcross ing
pro fess
Ġrip off
ĠLo is
Ġround ed
itz er
umm ies
Ġbatt ling
ĠCount ry
Ġcook ie
ĠLam bert
Ġenthusi astic
Ġgar age
Christ opher
Ġimmig rant
Ġtherap y
ĠBak shi
Ġflim sy
D uring
c ano
d ict
f ty
h in
o ir
t ake
w a
st in
ri a
ĠB udd
ĠM orm
ĠC irc
ĠW ang
Ġat tending
Ġde em
ĠP LEASE
pt ical
ich i
Ġlo d
nt h
Ġsh rink
itt e
pl us
ink y
ĠV ic
Ġdes cend
Ġsl apped
Ġdec ad
Ġcomp arable
Ġbit ing
Ġins uff
Ġmat es
Ġmean while
inc her
ĠRob bins
Ġcra z
ĠSp encer
ĠZ eal
Ġref lected
Ġprof ile
Ġdisc ern
?" <
RE E
Ġer upt
ĠST ILL
Ġsentiment ality
Ġexpert ly
Ġmask ed
produ ced
Ġcris p
Ġbik er
ĠWr ong
Dan iel
Ġtom orrow
Ġdow nt
ĠMinn elli
Ġpomp ous
ĠTIM E
ĠNas chy
T im
c re
er otic
Ġp ianist
Ġl ing
ut ing
st ill
Ġha voc
ĠC ob
un a
ĠD ern
Ġsu ave
ĠL t
ĠL ot
ĠR ath
ĠF ry
Ġpro claim
Ġcl ash
Ġqu ot
ng er
ose y
Ġext re
ĠBe ery
Ġinter ior
Ġconf use
ĠRob ot
ĠAr kin
Ġhouse wife
Ġfore most
Ġswe pt
Ġsimilar ity
Ġinn ue
ĠBro dy
roy d
ĠPh ilipp
Ġbreat hing
Ġinflu ential
Ġresemb ling
Ġstrength s
Ġmarry ing
Ġfund ing
ĠKat hy
Ġcontribut ed
ĠEnter prise
Char lie
ĠVin nie
Ġmerc iless
ĠElli ot
ĠConf eder
ĠHung arian
Ġgest ures
aith ful
Ġprinci ple
eni ably
ĠAff leck
Ġreha sh
ĠPho en
ĠMU CH
M eanwhile
W H
c ons
g om
s ized
Ġs incerity
Ġw ax
Ġm our
Ġb urd
Ġc ents
Ġ/> **
al ike
ie ving
ĠT ro
Ġhe els
ĠB ee
ĠM ull
ĠH and
ĠW izard
ĠD rey
ĠD irected
Ġk udos
Ġne o
ĠR u
Ġen list
ĠK ind
ĠK ell
Ġqu asi
Ġim per
ert y
Ġmus cle
act ica
co pe
Ġmon k
Ġmon keys
ĠSe ems
ĠChrist ina
ĠÂ ħ
ĠÂ ĳ
ĠHar low
Ġpop ulated
ĠEng lund
Ġmor on
Ġsent ences
Ġcontro lling
Ġphys ics
IS S
Ġphotograp hs
Ġpossess es
ĠOl sen
ĠDO ES
Ġlink ed
Ġconcent ration
Ġunif orms
Ġchuck les
Ġmyst ical
Ġpolitic ian
ĠOper a
Ġdisab led
Ġpron oun
Ġpiv otal
R em
g ener
w he
w are
Ġt ub
Ġs ought
Ġo o
Ġf urious
on ies
ho o
ĠS aint
ĠB ir
ĠM em
ĠM ia
Ġso ber
ĠR aw
and ers
Ġcon fined
Ġcl ut
ile en
Ġbl amed
Ġdec line
Ġke ys
Ġappe als
xt ap
pris ing
Ġreview ed
Ġind ifferent
Ġsw amp
Ġmot el
Ġunc lear
Ġsuggest ing
Ġgrand son
Some one
ipp i
Ġclean ing
mark et
ĠHor se
ĠHor rible
ĠHaw ke
Ġbound aries
Ġmac abre
ĠRome o
Ġsett led
ĠJuliet te
Ġsuspic ion
ĠTak ashi
ĠHarr iet
Ġrab bit
) '
E M
H ard
P P
c oll
f lix
m ary
Ã ¶
it arian
Ġd awn
Ġg aps
le ader
ĠT ER
ĠS hat
Ġh unted
ill usion
ĠH omer
out ing
ood le
Ġcha nt
Ġwh ining
ĠL en
ĠR aim
ĠG R
our ge
Ġag ony
oll o
Ġyour s
ĠIn s
ĠSt rang
Ġdec iding
ĠAl iens
Ġob t
ath om
Ġdra ft
Ġinv ention
Ġhard ship
Ġexpl odes
Ġsho pping
Ġcam c
ail ing
ĠLe one
ĠLe ft
Ġpar odies
Ġmaster fully
Ġeffort lessly
Ġsol ved
back s
OU T
Ġavoid s
ye ah
Ġ195 9
Ġneigh bour
ĠIr ving
abl anca
Ġwise ly
Ġround s
Ġpossess ion
Ġver b
Ġpark ing
Ġju xtap
Ġmaint ains
Ġnin et
Ġhol ocaust
ĠJu ly
ĠProdu ction
Ġfortun ately
Ġpatri otic
Ġax e
Ġsynt hes
Ġfurn iture
Ġcomprehe nd
! ",
" (
B esides
F our
F riday
S n
S adly
m ony
Ġb ud
it ious
Ġp ressed
Ġd ual
Ġn aughty
ĠT a
ent on
Ġst amp
ĠA ussie
Ġh i
ĠB ed
her d
ĠM ask
ĠH ook
Ġcha u
ĠP BS
ĠL OL
Ġlike able
Ġun natural
Ġup dated
ĠK line
per ing
Ġsp ine
Ġent ries
ci pe
Ġatt rib
Ġbit tersweet
Ġexce ll
Ġcho ps
Ġblood s
Ġcent uries
Ġnovel ty
ĠJust ice
Ġve get
Ġadv ances
ĠBro oke
Ġsoc iet
Ġund eniably
Ġwit ches
Ġliter al
ĠSim mons
Ġcirc les
Ġign ores
ĠNor a
mat o
ĠGar cia
Ġboo bs
........ ........
ĠJan et
aa aa
Ġspin ning
Ġparticip ate
Ġsink ing
hist oric
Ġune asy
ĠStr ong
ĠCharact er
Ġsedu ce
ĠPy thon
ĠCommun ist
Mur ray
Ġobliv ious
ĠBenn ett
ĠBun uel
Ġprog ressed
B oth
C ity
C ap
K O
d ream
f ighter
Ġf ighters
Ġb im
Ġbe ef
Ġre inc
Ġhe ights
im o
Ġst ab
ĠA way
ĠS W
ĠB an
ĠW ILL
ĠD ustin
ble m
ĠP ak
ĠP rison
ĠL ans
ĠR angers
ĠG ent
Ġme andering
ĠN ove
ate ll
Ġsh rew
od a
ves ter
ne ar
Ġplay ful
ĠV ince
we gian
alk er
iss y
av in
sp oken
ib als
ĠSc enes
Ġimag inary
Ġ4 8
Ġconv icted
ĠChrist y
Ġstuff ed
Ġprom oted
ĠRobert son
Ġpay off
Ġill usion
Ġremind ing
ĠSh ining
Ġbox er
Ġsens ation
Ġred neck
Ġinvest ed
ĠEm peror
Ġcross ed
OW N
Ġroll s
ĠRo om
ĠSand ers
Ġdemon strated
ĠSci Fi
Ġconfront s
Ġresol ve
dra wn
Ne xt
heim er
ĠFut ure
indul gent
B ro
K ate
N OT
P art
l ain
l os
w ed
w hose
Ġt ire
Ġa er
in ian
er ner
Ġc rocodile
Ġd ashing
at i
as ing
Ġg ate
Ġg ris
ot er
al beit
Ġre verse
Ġ( *
ĠR ig
ĠR ukh
ĠF ew
ĠF ern
Ġcl ient
Ġqu ant
Ġover blown
ap ore
Ġbl ink
ob e
Ġfl ows
Ġfl owers
ĠV ien
cept ive
cept ions
Ġcra cks
Ġline ar
Ġcount ing
Ġsol o
ĠBr uno
ĠDo or
Ġant hology
Ġru ining
Ġcat astrop
Ġvillain ous
Ġmer cy
Ġdin er
ID E
Ġwitness ing
bur g
Ġtransl ate
Ġpal ace
Ġbill ion
ĠCind y
ĠConn or
ĠSyl via
cult ure
Ġsust ain
Ġfilth y
Ġcounterpart s
Ġenig matic
gom ery
f man
g han
p ost
s im
v d
z ene
es quire
ic er
Ġn uns
se en
Ġst ating
Ġu pt
ĠA bra
Ġth umb
ĠB arn
ĠH em
ĠW ork
ul ars
ess ential
Ġcom a
ĠP ir
ĠL ola
ĠG ran
ĠG und
ig ning
ĠE ri
ĠK inski
Ġpre st
Ġdis ci
ob ile
Ġfl ame
Ġwhere ver
Ġunder developed
Ġri vals
Ġgr ind
Ġexpl oding
Ġday light
ott o
ĠLe ather
Ġpsy che
Ġconst ruct
ered ith
Ġang els
ĠEl vira
ĠPaul a
Ġstri pper
ĠCol or
Ġsens ibilities
Ġclim bing
ĠGu ess
Ġ199 6
Ġdam ned
Ġign oring
Ġembarrass ingly
Ġpun ct
ĠGreen e
Ġfool s
ĠWin ters
Ġfif th
Ġscar iest
Ġcompos ition
bour ne
Ġdisappear ance
ĠRee ve
ĠArm strong
Ġinterrupt ed
Ġoptim istic
Ġintim id
ĠKN OW
. ),
W r
b il
g us
j e
p at
s k
Ġa ided
in arily
Ġs au
Ġg rey
Ġn ations
Ġn orth
Ġre e
ro it
ke e
ĠB rilliant
ĠH ob
ome i
el ia
us ively
est one
ĠP ap
ĠF i
ĠG ig
ĠG ere
Ġam ple
be fore
Ġserious ness
ĠAr quette
ĠSte in
Ġsw ashbuck
Ġinf ilt
ĠWith in
Ġmot if
Ġcool est
ĠGer ard
ĠEd ie
ĠSim ple
oman iac
ĠEm manuelle
Ġpu ppy
Ġdef ine
Ġuns ure
ĠLau rence
ĠNic ol
Ġunderst atement
Ġtour ist
Ġtun ed
Ġsche ming
produ cer
Ġbab es
Ġanticip ated
Ġfeed ing
Ke vin
ĠEN D
ĠBis hop
ĠCore y
ĠClo oney
Ġangu ish
ĠRodri guez
B ruce
T ony
f ound
f ights
m ust
ha lf
Ġd ominated
ar ound
Ġg olf
ic iently
ve lling
Ġha unt
ver ts
Ġhe ter
id ences
Ġwas tes
ĠB ird
ill and
ĠD ol
Ġne ut
ĠG adget
Ġpro s
Ġfe ast
Ġfl ower
own ed
Ġsur geon
Ġbelie vability
Ġdra gging
Ġsub du
Ġpol ar
ĠDe c
arn ed
oid s
ĠMc Donald
Ġadm inist
Ġpay check
Ġ197 1
arch y
Ġmeant ime
room s
Ġcross es
ĠAngel ina
ĠGl oria
ĠDun can
ĠPal est
Ġbi as
ĠKill ers
ĠWor se
Ġoccup ied
Ġfrag ile
Ġrelent lessly
Ġsales man
Ġanx ious
enz ie
ĠLum et
ĠValent ine
ĠGabr iel
ĠTib et
Ġvign ettes
Ġmedic ine
ĠPhoen ix
B et
D irected
P hant
l ings
p arents
v iv
Ġs ly
Ġf aded
Ġm ish
Ġb orders
it ous
Ġc age
as ide
Ġg y
ĠI ll
st ens
Ġre cipe
ĠA ld
ĠM oney
us sy
Ġout line
Ġper verted
Ġend uring
we e
be ck
Ġch ron
Ġtra ps
Ġev oke
att i
ĠRe ggie
ĠAr k
tern al
ax y
Ġdead pan
ug itive
Ġsw itches
Ġresult ed
Ġsn ob
AR E
head le
Ġforget ting
Ġnarr ated
Ġ199 1
Ġcap acity
Ġsleep s
ĠLu is
ĠTra vis
Ġloo p
Ġstereotyp ed
ĠSw anson
ĠGo es
Ġinsult ed
ĠRo h
ĠSch war
Ġmedioc rity
Ġvirt ual
ĠMcC oy
Ġqual ify
ĠLi u
Ġvol ume
Ġking dom
Ġenvironment al
ĠTor o
Ġtoler ance
Ġcaptiv ated
ĠCann ibal
avor ite
ĠWere wolf
Ġtransport ed
Ġimpe nding
ĠDirect ion
ĠPur ple
Ġrebell ious
Ġawa iting
Ġrecon c
ĠBark er
ĠMey er
stin ov
Ġgris ly
A h
B E
D ennis
j ack
m oil
x y
Ġ !!!
Ġt ant
it ness
an ie
Ġl ion
br al
Ġbe aring
Ġst ubb
Ġy arn
ad el
ĠS ense
ĠS andy
ĠM ond
ĠC itizen
Ġal ot
ĠR hys
ĠN aked
Ġup beat
Ġad s
Ġplay boy
ĠHe f
Ġhor rified
ach ron
ĠU t
Ġpr ank
ĠAl ways
Ġdown s
Ġfin ishing
Ġright ly
app er
Ġ3 00
Ġinst ruct
lud e
Ġexc uses
Ġdet erior
ĠTh row
Ġpred ic
ĠSha wn
off ice
Ġvar ied
Ġdisc onne
ĠAd ventures
ĠCol man
Ġexist ential
ĠFrank ly
Ġdumb est
Ġstat ue
aur ice
Ġdef ies
Ġinflu ences
Ġintense ly
wr ite
ĠWW E
Ġcraft s
ĠDam on
Ġtur moil
Ġsch izophren
Ġdynam ics
ĠMont gomery
ĠHE LL
Ġargu ing
Ġfest ivals
Ġcarn ival
ĠNol te
Ġsubstit ute
Ġperman ent
Ġassign ment
Ġlic ense
Ġarcha e
Ġware house
ĠSchne ider
ĠClar ke
k h
l oud
m ad
w renching
Ġs oooo
Ġc ulp
Ġp ans
Ġl ays
Ġn ast
ĠT oy
ĠC ros
ĠC urse
ĠW ife
ĠD ixon
Ġj unior
ĠR ace
os is
Ġwat ers
Ġpe e
Ġpo ke
int on
Ġoff ense
Ġent rance
Ġch ill
Ġyoung sters
Ġapp lied
ov a
Ġlet down
Ġdel iciously
Ġac ad
ĠMar ple
Ġdist rict
Ġcho pped
Ġsw inging
Ġconst ra
Ġvar iation
Ġca per
Ġve t
ura cies
Ġmix es
Ġtruth s
su pp
Ġ193 2
ras er
Ġemp ire
ploy ed
Ch ris
Ġmanip ulation
ĠMont ana
Ġevident ly
Ġofficial s
Ġprincip als
ĠScar lett
Ġtraum a
Ġreleas ing
Ġetern ity
Ġtool s
Ġmonot on
Ġatroc ity
Ġsched ule
ĠVo ight
Ġunatt ractive
A ir
B illy
H ave
M iss
b ot
i ard
s n
t rue
u ber
Ġ Ã
Ġw ed
Ġb ul
ĠT ag
ĠT omei
Ġfor bidden
ĠA V
ĠS ax
ĠB att
ĠB right
ĠM ut
ant on
ous ed
ĠL add
ĠF ury
ĠF ront
ĠE t
itt ingly
Ġcl in
Ġdis illusion
Ġho ly
Ġsl ide
Ġmin ister
Ġres erv
Ġdown fall
Ġter min
az i
az aki
Ġwar rant
Ġdist ress
ĠZ o
vis ible
Ġvo iced
Ġsle pt
ĠGe off
Ġshock ingly
Ġspoil ing
Ġtheat res
Ġsens itivity
rid ge
Ġprop ortions
ĠTr ouble
appe aling
Ġground breaking
ĠBur g
Ġserv ants
ĠSpe ed
Bl ue
ĠHay ward
Ġfield s
Ġcamer aman
ĠSon ny
ĠShan g
ĠShan non
ĠJosh ua
Ġconscious ness
Ġgloss y
ĠIng rid
ĠKath leen
Ġunst able
ĠSold ier
ĠTele vision
ĠOt to
Ab out
Ġfles hed
Ġchem ical
ĠRath bone
A U
B rian
S ometimes
c ett
k iller
Ġt in
Ġm um
Ġm ud
Ġb ible
an za
ot hel
el f
Ġcha insaw
Ġde eds
ĠP O
ĠP fe
ĠP ublic
ĠR ab
ĠF UN
Ġor ange
ĠN OW
ĠK au
ĠK atherine
Ġdis order
Ġreal ises
Ġsp rink
Ġsp aghetti
ĠY am
Ġte ch
ĠU stinov
Ġch orus
ale m
Ġdra b
ub itsch
ok o
." )
ĠDe bbie
lud ed
Ġnight mar
ĠRe agan
Ġhero in
ĠSte ele
Ġadm iration
mb lance
Ġlist ened
ĠBr itt
Ġdr um
Ġmet eor
che red
ush i
Ġer r
ĠMost ly
Ġporn ography
ĠAf ghan
Ġproduct s
Ġjo ining
Ġirrit ated
ĠBas il
Ġestabl ishing
Every one
ĠWhe never
AA AA
ĠSwed en
ĠTur key
ĠIntern et
Ġimmig rants
Ġclic hed
Ġexcruciating ly
Wh ite
ĠNov ak
ĠSnoop y
ĠShad ow
ĠExp ress
Ġhandic apped
Ġinjust ice
Lew is
zene gger
L ee
M A
g ow
l ater
u ana
Ġa ura
Ġf aux
ing e
Ġd ia
ar ming
ent ertain
ĠA aron
ĠS ervice
ĠM aj
Ġj ury
Ġso cially
ĠG ould
Ġme ga
ĠN C
ĠN ak
ĠN ame
ĠE than
Ġle cture
Ġlo at
Ġpe ers
Ġover d
Ġunder wear
Ġexce ls
Ġcons iders
ĠBe ars
ĠMar is
omb ie
ĠNo ah
ton es
Ġocc ult
use y
Ġca f
Ġgang s
ĠAd rien
Ġ197 7
Ġsum med
Ġinvestig ator
ĠHol iday
ras es
Americ ans
ĠCr us
ĠDid n
Ġshad es
Ġpen is
Ġner dy
Ġdisplay ing
Ġhur ry
Ġcommand ing
ĠSal man
Ġmir rors
Ġdistinct ive
Ġmas quer
Ġfu zzy
ĠAL ERT
Ġconven ient
Ġreplace ment
Ġvi be
ĠCur ly
Than ks
ĠIsrael i
Ġsalv age
ĠBach chan
HE AD
Ġarchite ct
Ġdisreg ard
Ġinadvert ently
A w
G ary
O b
h usband
p acked
w ich
Ġo rient
is ite
Ġf o
or ical
Ġto ss
Ġg oss
ĠI van
le ine
Ġre runs
Ġse mblance
Ġh unk
oo o
ĠB oss
ĠM ans
ĠM andy
ĠC ain
Ġfr antic
ant i
ant ically
ag ging
qu ality
Ġr oughly
Ġun rem
Ġfe ud
our ke
og en
are ttes
Ġover bearing
Ġbl oss
Ġbl ues
Ġfl ip
ĠV CR
Ġtra ins
ĠAl ive
iss ippi
wood s
ĠBe hind
Ġvis cer
ĠNew ton
Ġtrans pl
ĠPl enty
Ġcompl ained
ĠWho op
Ġcur sed
Ġ193 6
con ceived
Ġauth ors
IC E
Ġaim ing
Ġaware ness
Ġbur nt
Ġsal oon
Ġtack ed
Ġinex per
Ġcann ibals
ĠEv ans
tw ist
Ġtremend ously
Ġsmooth ly
Ġeconom y
ĠCub an
Ġdrown ed
Ġlur king
Ġthread s
Ġpir ates
ĠBac all
Ġcontrib utes
eric an
Ġsail or
Ser iously
Ġobst acles
Ġmax imum
ĠEar p
Ġathle tic
ĠStephan ie
Ġsubdu ed
? ,
A Z
G r
H ome
s ince
Ġp ound
ar ingly
Ġe ast
ĠT ogether
ent ing
im ps
se tt
Ġst or
ĠA qu
ĠS L
ĠB S
ĠB ank
ĠM eredith
ĠC S
Ġv oodoo
ĠP as
ĠP ierre
ĠL oretta
ĠF ont
ĠF oot
Ġun av
are ly
ĠHe at
ĠU nd
Ġfact ual
oc ious
Ġlong est
rit ical
Ġmust ache
Ġsex ist
ĠAn a
ĠRe venge
Ġreg ime
Ġbus h
Ġmot ions
ĠMay or
Ġdev otion
Ġcompl ications
Ġhate ful
ĠGr im
You ng
Ġhom op
Ġaut o
ĠMac y
ĠNight s
Ġdiv ided
Ġknock ing
Ġemploy ees
Ġpair ing
add in
Ġnecess ity
ĠSun set
col ate
Ġcook ing
Ste p
Ġcro oks
Ġfix ed
Ġambit ions
Ex cellent
ĠSqu are
ĠCa esar
Ġinsert ed
ĠEp isode
ĠShep ard
ĠHoll and
Ġcandid ate
ĠAtlant is
Ġcripp led
Ġgloom y
ĠChamber lain
Ġmelanc holy
Ġcoc aine
ĠOrd er
B arb
H arry
b its
f olk
g one
i ator
l ene
r ish
t akes
Ġt ables
in son
re ality
st ep
Ġre per
ĠS ty
ĠB le
ĠM AD
ĠM ummy
ĠL aughton
Ġint oler
um ing
ĠG a
Ġun appealing
ĠE arly
Ġen force
man ship
Ġover weight
ĠV era
), "
ens es
ĠSt ay
ĠSt and
", '
Ġins ignific
ĠSe infeld
Ġvill agers
ĠIs n
ĠEd ge
ĠPet erson
Ġdru gged
Ġ198 1
angu age
ĠChe vy
Ġmillion aire
ĠLo oney
AY S
Ġboard ing
ĠTre vor
Ġdesp ise
class ic
than k
Ġacqu aint
ĠMill and
ĠMarc us
ĠRun ner
ĠDri ver
ĠAk bar
ĠMuslim s
ĠDud ley
ĠMyr na
Ġvigil ante
ĠHerc ules
Ġpsyched elic
ĠShat ner
Ġcamc order
ĠCros by
O H
O ID
R on
j u
o ven
x istent
Ġb ay
Ġb ubble
Ġp ounds
Ġst air
Ġan th
Ġan achron
ĠB ere
ĠM alk
Ġwe ary
ter ling
ĠC arson
ĠW ed
Ġso ph
art ing
ĠP ix
ract ion
ĠN ash
Ġman s
ĠK ILL
Ġpo ker
Ġover tones
Ġdis respect
Ġbl essed
ĠIn st
ĠSt upid
ĠU l
Ġres erved
oc rat
av our
Ġsupp lies
Ġgr ating
Ġsec ure
ins ale
Ġmur ky
Ġlight hearted
itch ie
Ġchar ges
Ġsn akes
AT ING
ĠEn id
Ġmad man
ope z
Ġassum es
Ġspot light
Ġartist ry
ĠFar row
Ġprogress ion
Ġdeg rees
ĠCarl os
ĠVer onica
Ġske ptical
Ġscr atching
Ġambig uity
Ġramp ant
Pro bably
Ġcompens ate
ĠEst her
Ġfemin ine
ĠInterest ing
Ġramb ling
Ġseduct ive
Ġnarc iss
ĠFaw cett
Ġunner ving
Ġnightmar ish
A X
D ie
O CK
T Y
V an
f em
f ull
u i
u ction
Ġs ang
Ġm aj
Ġn emesis
Ġn ifty
am al
ĠB ang
ĠB OR
ĠM is
ĠM ead
ĠH ig
ers h
ul sion
Ġex it
ĠF F
ĠG ates
ĠN ess
ate red
Ġkn ight
Ġpo pped
Ġsp ice
ĠV iv
Ġra pt
Ġrec ount
les h
Ġsl ips
ia h
Ġtri via
Ġhard est
app ro
Ġep ics
Ġcomm ander
uff alo
ĠZ en
ĠCar ole
Ġsn appy
ĠCon nie
iment al
lly wood
ĠJul es
Ġexpress ive
Ġ193 4
ĠDra g
holog ical
Ġrad iation
Ġrap ist
ĠGl ad
Ġburn s
rend el
Ġknock s
Ġpen et
Ġtarget s
ij uana
ĠMid night
ĠReg ardless
Act ing
Ġinacc uracies
ĠSen ator
ĠPen elope
Ġhench men
Ġartic le
Ġenchan ting
bast ian
ĠZeal and
Ġexcell ence
atell ite
$ $
A lex
F ar
I BLE
T hing
W as
b ber
c ount
Ġt ones
Ġt empor
Ġb ureau
es ci
Ġin forms
Ġg athered
ĠT OO
se a
Ġst ations
ĠS oul
Ġth ri
ĠB usey
Ġbut chered
ĠL up
ĠL opez
Ġout door
ĠF incher
fe el
ĠG y
ĠN an
ig ans
ĠV ader
ĠBut ter
Ġdes ol
Ġsl ower
ĠAl icia
Ġcomp on
Ġbit es
app reci
Ġcr us
Ġlet hal
Ġpol ish
Ġdist inction
Ġele ven
Ġret rospect
ĠZ or
Ġfail ures
ĠTHE Y
cess arily
ĠIs a
Ġesc al
Ġsuff ice
Ġlangu ages
ĠFar rah
Ġver ge
Ġincre ase
Ġdeterm ine
Ġremain der
Ġrepresent ative
200 1
Ġobsc urity
ĠRing u
Ġbab ys
Ġdistribut ed
ĠPri est
Ġnu anced
Ġmerc en
ĠDad dy
Ġcere bral
Ġegg s
Ġnause ating
Ġobserv ation
Ġamid st
Ġsab ot
ĠSoc iety
Ġnewcom er
ĠDow ney
ĠTheat re
ĠHou ston
dys sey
ĠAbra ham
ĠPfe iffer
E E
W ood
c us
c ript
j okes
p ah
Ã §
Ġs alt
Ġf ores
it ical
Ġp ier
Ġin finitely
ĠT ale
ur assic
ĠC headle
ĠD ia
ĠD ouble
ĠD affy
el ed
ĠL ucky
ĠR ice
ĠF anning
ĠG us
ĠG ina
Ġany time
itt o
so ka
Ġcl ums
th irsty
Ġsp it
omet own
Ġbr othel
ĠU FO
Ġold s
Ġche ering
ash ions
stand ard
Ġcr ass
Ġhappen ings
Ġtalk y
Ġsit es
Ġcomm itting
Ġele phant
Ġloc ate
Ġmag ically
AR K
ĠGu ard
Ġ193 3
Ġident ified
Ġinte nd
reg or
Ġdi abol
Ġvirt ue
wr ought
ĠCarl a
ĠOld man
Pl ot
Ġappl ies
Ġmas oc
Ġwarn s
Ġcand le
ĠDep art
Ġnu ances
ĠVamp ires
Ġsta ple
Ġcaut ion
Ġinconsist encies
Ġkar ate
ĠLeather face
c are
f ra
v ention
re te
Ġf ier
Ġm a
it us
it ives
on ce
ed a
ed ies
at um
ve z
Ġfilm ography
Ġse vered
Ġse ctions
ĠB ug
ĠH OW
ĠW ally
ul u
Ġal arm
ol i
ak ers
ĠL ubitsch
ĠF ritz
ry ing
od ied
ard on
ff er
Ġcharacter isation
Ġsp orting
Ġaw ry
ark able
Ġinc apable
ang s
Ġcomp ris
Ġhigh way
app arently
ĠMar lon
Ġtit ill
Ġpar as
AT ION
Ġste pped
Ġunc anny
**** *
Ġ198 2
Ġund e
Ġfra ming
Ġsqu ir
Ġprogram ming
Ġhyp ed
ĠSher idan
Ġincreas ing
ĠTob y
ĠGal actica
Ġwhim s
== ==
Ġirres ist
pion age
Ġimprison ed
ĠGovern ment
ibbe an
Ġstubb orn
Ġsoph om
T E
Ġt iger
Ġw oo
Ġto days
as per
ot ch
ad ium
ĠS ounds
Ġth irties
ĠC amb
ĠD w
ĠD ialog
how ever
ĠP ope
ĠJ ob
Ġr ousing
os se
Ġthere by
oy ing
ĠV ig
ens ed
Ġinv ite
Ġbas hing
ĠRe gin
Ġdist orted
Ġrep rodu
ĠAr cher
Ġste aming
Ġpos es
ĠCon ne
ĠCon rad
ĠAd mittedly
vol ent
Ġear liest
Ġseason ed
Ġexist ing
ĠGu in
Ġcry stal
ham es
ĠEm my
Ġpsycholog ist
Ġimpl ies
Ġqual ifies
ĠLew ton
Ġpen al
ĠAp ocalypse
ĠBar ney
ser ious
sec ond
Sp oiler
Ġens ue
Ġpath s
Ġpuzz les
Ġcheer ful
Ġunfold ing
Ġgather ing
Ġshel ves
Ġcere mony
Ġobser ve
Ġacknow ledge
ĠRub y
ĠBrend a
oust ache
gey man
orient ed
Ġcong rat
Ġbiop ic
nth ia
ĠRaim i
Ġmonoton ous
2 5
C ann
U nder
W ild
d an
e xt
l ost
m id
w ow
w estern
ing ton
Ġp add
om as
Ġg adget
ot ism
ho v
ion a
ĠA B
ĠB uddy
ĠM ast
ĠD ale
ĠD uc
ag u
ĠL augh
ĠJ UST
Ġpro long
Ġback ed
Ġrec urring
Ġche wing
ĠAl ison
Ġgoing s
Ġapp et
ĠMar low
Ġsk i
Ġlight ly
ming er
Ġinf uri
ĠInd e
IL D
Ġswe eping
ĠEd mund
ĠPer kins
Ġnone xistent
Ġperiod s
ĠSm art
Ġrepe ats
Ġcond u
cent ered
Ġsystem s
Ġmotiv ated
bur st
Ġnin ety
ĠKat ie
Ne ill
Ġconfess ion
Ġprofound ly
Ġsitcom s
ĠMill ion
ĠHart ley
ĠCann es
ĠMort on
ĠBon nie
ĠPort ug
fight ing
High ly
Ġrul ed
ĠBry an
Ġdod gy
ĠMau reen
ĠTW O
Ġupst airs
ĠClock work
Ġpha se
educ ated
ĠMath ieu
stens ibly
" ).<
? ",
E ric
H el
R Y
T ime
U P
e ffects
p r
in ently
Ġf ashions
or i
le man
Ġre ass
Ġre ception
ĠB U
ĠM ouse
ĠC arn
ĠH ands
ĠP ress
ĠP OW
ĠP ulp
ĠR KO
ĠR itchie
ĠF r
ĠF em
ĠG ail
ĠN ormally
Ġun just
Ġover used
ish i
Ġfl irt
Ġfl owing
Ġhel m
Ġcr ashed
ĠMar vin
iter ate
Ġcount ed
Ġhat ing
Ġstra w
Ġdeal ers
Ġpredict ably
Ġtele phone
aught ered
Ġspir al
Ġsleep walk
vey ard
ĠTe am
Ġhint ed
Ġboo b
Ġlay ing
ĠSpace y
RA P
Ġmurdere rs
Ġpursu ing
Ad am
ĠNet flix
ĠSpir it
Ġslee ve
Ġbloods hed
Ġviscer al
i ations
j erk
m ash
n ity
Ġw izard
Ġd ial
Ġg own
il k
Ġre b
Ġu gl
ĠB auer
ĠB enson
ĠM onica
ĠD NA
art e
ant h
ag raph
ĠP ra
ĠR an
ĠF L
ĠN am
ĠN ina
Ġup date
ĠO mar
Ġper plex
ick ering
te ch
Ġdis rupt
ue v
Ġfl ashing
ĠV ern
Ġrem orse
Ġsl aughtered
oc ation
Ġrel ates
Ġscreen ed
Ġsha dy
Ġadd ressed
Ġstr ung
Ġfollow ers
Ġz any
Ġsn oo
Ġsn uff
Ġforget s
real istic
ĠMad ison
con f
ĠMon k
ĠMon key
Ġghost ly
Ġthreat s
Ġcritic ized
ĠHigh lander
Ġboss es
IT T
aus ibility
ĠMus ical
Ġsight s
ĠCr ime
De finitely
Ġcourt esy
Ġinterpret ations
Ġtrib es
ĠDE ATH
Ġmaint aining
Ġcollect or
Ġcust ody
Ġtoler ate
ĠTri er
Ġreject s
Ġexecut ives
Ġpa ired
Ġrelax ed
Ġtow er
Ġgradu ate
Ġcompassion ate
lest ar
Ġbew are
Te chn
Ġcommend able
Ġlun atic
ĠPick ford
Ġlibert ies
ĠBlond ell
Ġastronaut s
profess ional
2 4
> >
C ome
F ull
L o
N ic
h t
i i
t ail
re k
Ġw iped
or is
Ġp izza
Ġl uc
ĠT enn
Ġst ag
Ġst aging
Ġst oned
ĠB oring
Ġnot or
ĠP rom
ĠP osey
Ġout land
Ġwor m
og yn
Ġend ured
Ġpre par
Ġhor iz
ĠSt alin
Ġ2 6
ning s
Ġkind ly
Ġcr ushed
Ġmat urity
Ġgra bbed
Ġcre ations
Ġexper ts
Ġmon str
ott i
In stead
ĠAr ch
Ġexam ine
enn ium
ĠWell er
Ġtrans itions
Ġpred ator
Ġsn ipp
sh ots
ĠAny ways
Ġcomb ining
Ġ197 5
su it
Ġmagic ian
Ġfat ale
Ġconflict ed
ĠIr ons
Ġcivil ians
Ġprotect ing
Ġassist ance
Ġunconv entional
ĠHo ly
ĠKhan na
yr one
Ġconsequ ence
Ġreun ited
Ġdistinct ly
Ġannoun ce
Ġresour ce
ĠNik ita
ĠMade leine
Ġobserv ations
ĠNort hern
ĠMira nda
Ġprol ogue
Ġatroc ities
ellig ent
ĠGand hi
ĠNiel sen
Ġtatt oo
Ġwholes ome
ourge ois
S on
g ic
g il
g rap
l it
n ick
w olves
Ġa pl
Ġw oven
Ġc ad
at ers
as se
his m
br ol
Ġg ays
Ġe h
ĠT ow
Ġha irc
ĠS hy
Ġth wart
ĠH ER
ĠH ollow
em o
Ġpl ants
ĠP orter
ĠL ives
ĠL ampoon
qu ite
Ġr idd
ĠN ine
ĠN igel
ĠE ight
Ġgreat s
ade qu
Ġover st
Ġam nes
Ġsp arse
ĠV ers
Ġdes k
ĠSt rat
Ġche f
oc y
Ġev al
Ġev okes
Ġgr ant
Ġoriginal s
Ġsha ped
Ġbo ards
Ġgra vity
arn ers
ĠCl ara
Ġdist aste
ĠWar rior
ĠGod d
Ġill um
ĠSh in
ĠPaul ie
ĠIM O
!) <
Ġfront al
ĠKing dom
Ġcond es
Ġmel ting
ĠEurope ans
Ġbreat he
Ġ194 1
Ġdepict ions
Ġunus ually
II I
ĠRom ance
Ġris ks
upp ets
Ġnin jas
ĠDoes n
Ġmock ery
Ġtraum at
ĠBeck insale
Ġelectric ity
Ġpredecess ors
Ġresur rect
ĠMu lder
Ġthr one
Ġbleed ing
ĠMach ine
Ġvary ing
hast ly
Ġling ering
A part
C omp
I EN
N ote
c ogn
e ating
l ake
o ft
r ion
s son
Ã ¯
Ġw ipe
Ġn ihil
Ġst able
Ġst ern
Ġst agger
ad der
ĠA ce
ĠS ig
am ir
ĠB anks
ĠB uffy
Ġsc am
ust s
Ġsu spe
us ingly
ĠP esci
ĠL ead
ĠJ udd
ĠG am
ĠG ET
ig ator
Ġman aging
Ġman ners
Ġfe ver
ge red
ĠK aj
Ġper ceived
Ġbl iss
Ġunder used
Ġtra mp
Ġcou p
Ġmus h
ran e
Ġfound ation
umb les
Ġrest rict
Ġdet ached
ĠRe id
ĠCl ouse
Ġcra wl
ien ced
ĠNo pe
ĠWill y
ĠCar men
ĠCar ibbean
Ġmis ogyn
Ġpredict ability
che t
gra ve
Ġpleas ures
Ġund es
Ġtre as
Ġhom o
Ġhom icidal
ĠCom plete
Ġneg ot
ĠMad ame
Ġsatisf actory
Ġluck ily
ĠWh ilst
Ġbother s
Ġtest ing
Ġbomb ing
Th rough
Ġunne cessarily
ĠCr umb
ĠCle ef
Ġbear able
Ġscar ier
Ġcourage ous
Ġparticip ants
Christ ian
Ġarrog ance
Ġprofession als
Ġdrown ing
Ġlur id
Ġillustr ate
Ġrespond s
ĠDoll s
Ġabdu cted
ĠLow e
Ġparad ise
Ġhesit ate
Ġwoe fully
Ġinsec ure
Ġexcl usively
Ġflam boy
ĠSchwar zenegger
Ġculp rit
H ugh
M ike
S han
e er
g irlfriend
i ated
l iterally
n ament
p ond
z or
Ġt ho
in stein
Ġs ins
er able
Ġf i
Ġf ence
en sored
Ġin ch
ĠT ales
Ġh ills
ĠB re
ill ion
ĠD ame
if une
ol ini
Ġwh ip
ĠP atton
Ġout look
ĠK al
ple ase
Ġch imp
Ġche at
Ġbefore hand
Ġtri gger
sp ot
Ġreason ing
Ġsho ved
Ġide als
ĠAn imal
Ġmar vell
Ġrid icul
Ġbreak fast
As ide
ĠChar ley
AN K
su le
ĠLu ci
Ġcontrol s
AS H
Ġdiscuss ions
Ġserial s
ĠDun n
terest ed
ĠLi otta
ĠComm ander
ĠCount y
Ġscar ce
Ġpregn ancy
IR L
Ġadequ ately
ĠFle ming
bet ter
Ġnuts hell
Ġpubl isher
Ġorphan age
blood ed
Ġexploit ative
ĠSyl vester
Ġcollap se
Ġstir ring
Ġpad ding
ĠFil ip
Ġturt le
Ġretrie ve
ĠMiy azaki
pons ible
ĠHef lin
A p
B atman
C apt
E ye
I OUS
N E
a verage
f ant
f ive
n ice
s ometimes
v ill
Ġt aut
Ġb ury
le in
le ts
ut or
st reet
ĠT ell
ĠS irk
Ġh ometown
ĠM aking
ĠC av
ĠC ena
Ġv ault
ĠF ab
Ġup ro
ru ly
ert on
Ġag on
Ġam oral
pect ives
ĠV ice
Ġ2 7
sp oiler
Ġcons ult
Ġreg ister
ĠLe ave
ump ing
unch y
Ġmaster mind
Ġbreak through
any on
Ġunc ont
Ġrob bing
ĠEx per
ĠEn emy
Ġble nds
ĠEm il
Ġcompet ing
Ġ194 4
Ġ194 7
Ġcontinu ously
Ġweek ly
Ġdi pl
ĠBel ushi
ĠPal mer
Ġphotograp h
Ġspoof s
ĠComm and
ĠPre minger
ĠPa xton
Ġborder line
ĠStud io
Ant hony
ĠSpring er
HA HA
ĠLans bury
Ġneut ral
ĠKau fman
Thing s
H orror
P al
R ose
W he
W onder
a han
d ark
e arly
f ting
g ive
h ire
m em
r ational
z i
is p
is cher
Ġf oster
ou g
Ġd umber
Ġl ure
Ġha ird
Ġon going
ĠS om
ĠB ing
ĠC ale
ĠR ani
and ro
ĠV ent
ens itive
ĠHe ctor
Ġra id
be y
Ġap es
Ġsub way
de ath
Ġscript ing
Ġscript writer
Ġes pionage
Ġed ges
ĠSe gal
Ġret ain
Ġrom ances
Ġ8 5
Ġtrans cends
ph ia
ĠCon way
Ġsign ature
work er
Ġtruth ful
ĠAnt o
ĠPat ty
ĠMac Donald
Ġimpro vised
Ġthreat en
ĠRed ford
Ġpers pectives
ĠMiss issippi
Ġdig ging
ĠGl ass
ĠCo en
Ġelect ronic
Ar t
ĠCinem atography
Ġstalk er
ĠGi ov
Ġunre cogn
Ġwha le
Ġstabb ing
Ġretire ment
Ġstruct ured
Ġdemean or
App arently
Ġimpecc able
ĠWR ONG
ĠVien na
ĠGund am
ĠMalk ovich
Ġfier y
J on
R eturn
S us
c ap
h om
Ġf uss
Ġb ills
Ġb achelor
Ġp ond
Ġd angers
Ġl inger
Ġg ust
Ġn ymp
ra de
Ġst al
ke es
ĠS S
ĠS uff
ri ot
ĠM aurice
Ġnot ions
ĠW ither
ul ed
em on
el come
Ġwh ites
Ġde er
ĠP ed
ĠP enny
ĠP ossibly
Ġout cast
ĠJ ody
ĠJ ourney
ĠG rendel
ig s
Ġsh iny
Ġover wrought
Ġpre historic
Ġdis par
Ġfl ames
Ġra m
ĠSt ones
Ġap ocalyptic
Ġfam ed
der ick
Ġsub marine
co aster
Ġcho p
Ġpass ive
Ġpass enger
ĠNo on
rop h
Ġsupport ive
ĠWar hol
Ġpot ent
ĠPe pper
Ġdest ination
Ġforg iveness
ĠSam urai
ĠBra in
ĠAng ie
Ġsweet heart
Ġclos ure
Ġ194 2
Ġdisappe aring
Ġamb iance
ĠCr im
ĠSil ence
ĠApp le
Ġsignific antly
Ġvol cano
Ġnet works
ĠCent er
cul ously
ĠBu y
ĠComp ared
Ġsink s
ĠRand all
Ġpa uses
Ang el
ĠVill age
ĠKin near
ĠLoren zo
ĠKaz an
ĠCharl ton
ĠChand ler
Ġdut ies
Ġquint essential
ĠShang hai
Step hen
Ġinsignific ant
E ng
H am
J ennifer
S omething
e v
t im
Ġs unny
Ġw arden
ha pp
ha us
en cing
Ġp apers
ver b
et ch
Ġwas t
ce mber
Ġth under
ĠM ills
ĠC ort
Ġj an
Ġsu icidal
ain es
el and
Ġcha mber
ak able
Ġv oting
ĠL og
ĠR ourke
ink le
int o
ĠY or
ris k
less ness
Ġtr ou
Ġsub s
Ġworld wide
ord id
ĠSe attle
ĠLe v
Ġmor gue
ĠHer man
Ġshock er
Ġunc redited
ĠWilliam son
ĠMor ning
Ġshame ful
Ġcirc a
Ġtrad itions
Ġrevol ving
Ġcontinu ous
Ġdro ol
Ġdig est
Ġdefe nding
AM P
ĠEs s
Ġboo ze
Ġstret ches
Sp oilers
fl ick
ĠSher man
Ġemphas ize
Ġalleg ory
ĠGriff in
Ġannoun ced
Ġcig arettes
Ġeager ly
Ġrestra int
ĠGro din
Ġcollabor ation
ĠFall on
Ã¨ re
ĠBrazil ian
Ġblackma il
ĠRad io
talk ing
Ġcensors hip
Ġrender ing
Ġdope y
ĠOct ober
Ġdeem ed
Ġgoss ip
A gain
G irl
H appy
P D
R O
W or
k ar
l ation
l ma
p en
re nder
is k
Ġb io
Ġc ooper
es sel
Ġto xic
an im
Ġl um
ar ably
st ore
al ian
Ġbe e
ĠT omb
ver ting
Ġhe al
ion i
Ġst ance
Ġst ares
ay er
ĠB ET
ĠH ed
ĠH ours
ĠD C
Ġj ar
Ġex hilar
ak in
Ġde fect
ĠP E
ĠL aur
Ġne arest
op ath
ĠG wen
ĠG uev
au nd
Ġun he
reat ing
Ġper t
Ġcharacter istic
Ġfl our
ĠCh icken
Ġacc ord
Ġmiss ions
Ġret ro
Ġhouse keeper
IN K
ĠHar per
Ġawful ness
Ġtrans cend
Ġinf at
Ġprom otion
ĠKe ane
ĠEl aine
Ġlad der
form ers
Ġstri pped
Ġund ers
ĠDra ma
Ġjud ges
ĠAust rian
Ġground ed
Ġbomb ed
ĠJoan na
ĠHard ly
ĠST ORY
Ġlength s
Ġfright en
Ġcas ually
wr ote
Ġcelebr ate
Ġmut ants
Ġblock busters
Ġrepresent ing
Ġmanipul ated
vo iced
Ġrival ry
Ġoutrage ously
Ġcorpor ation
ĠPa ige
Ġmagaz ines
Ġcitiz en
ĠSing apore
Ġreluct antly
Ġadmira bly
ĠRow lands
Ġencoura ged
Ġarrang ed
Ġparad ox
Mart in
Ġce iling
ĠBrend an
Ġinhab ited
Ġsquee ze
Ġmonstr ous
K ill
U lt
V is
b irds
c iting
d i
d el
p ool
s ort
Ġa ven
Ġw ings
Ġo we
Ġb od
Ġb ourgeois
it age
Ġin adequ
ar ro
as ily
ĠT oni
ad dy
ĠA HEAD
ĠS i
ĠS le
ĠS tern
ĠS isters
Ġbut ter
Ġnot ing
ĠW u
ĠW ant
ĠD umb
ĠD ix
art y
Ġde formed
ĠF ever
um ably
ĠE du
Ġgo dd
Ġper ce
ine e
Ġar ise
Ġsp oon
cc i
Ġplay wright
Ġho oks
ute ur
ĠCh ong
Ġinteresting ly
icul ate
Ġcar pet
Ġadd resses
Ġdevelop ments
Ġmis placed
ĠBrit s
ĠDo om
unt il
Ġtrag ically
Ġtre acher
Ġobs erved
ĠDead ly
Ġbrain w
ĠNor way
Ġden ied
Ġcrowd ed
Ġinsane ly
Sc ream
ĠFer rell
ĠRoman ia
Ġspark s
Ġstalk ed
Ġsophistic ation
Ġspell s
ĠBull ock
Ġswitch ing
Ġgall ery
Ġlabel ed
Ġelim inated
Ġdict ator
Ġsup reme
ĠIron ically
Ġinstinct s
Ġplag ued
ĠForsy the
Ġshowcas es
ĠHenri ks
Ġmasc ul
Ġinsomn ia
ĠGree ce
ĠAlon zo
ĠWhoop i
2 000
A cc
D Y
F iles
N O
P et
S un
W ARNING
e nding
j ango
r ice
y ll
Ġt oned
Ġt ube
Ġs ordid
Ġo ri
is z
Ġf old
ar my
Ġg hastly
ic ating
ie th
Ġas set
ĠA ly
ĠA very
ill es
ĠH our
ĠH ost
un like
ĠD arth
Ġv ic
ĠL ena
ĠR unning
ĠF o
Ġpro w
han y
ĠK ir
ĠK enny
Ġkn ack
Ġpre acher
Ġfun ky
Ġsp ared
ĠBut ler
Ġbr ush
ĠSt op
Ġinc ess
Ġdec ency
Ġche aper
ons ense
sp ring
Ġel oqu
ĠMar lene
Ġanim ators
ger ald
Ġcor rid
ec utive
Ġtrans forms
Ġannoy ingly
Ġeff icient
Ġwin ners
sh ould
ĠCol omb
Ġweird ness
Ġoper ating
Ġ193 1
Ġarri ving
Ġslasher s
Ġfavour ites
Ġspect rum
ĠWhere as
Ġthank ful
Ġkidn aps
Ġexplan ations
ĠDark ness
Ġtarget ed
ĠBlood y
Ġcateg or
ugos l
Ġsch m
Ġmanipul ate
Ġexagger ation
Ġideal istic
Ġrev ival
Con nor
Mar ie
Ġoccup ation
ĠScar let
Ġtraum atic
Ġvulner ability
bet ween
Ġsarc asm
ĠCase y
ĠShep herd
pha zard
Ġrebell ion
Ġprol ific
ĠLiz a
Dra cula
Ġlux ury
Ġinspect or
ĠSax on
appreci ated
C o
N or
R ead
d un
p anic
r ats
Ġw ry
Ġm ice
Ġb out
Ġb ark
Ġd ive
Ġd ared
ar ms
Ġe er
al ter
ĠT ol
Ġha phazard
im ming
Ġst reak
ĠS abr
ĠC arr
ĠH are
ĠH idden
un ce
ĠD ario
ĠP it
ĠP arents
ĠL ing
ĠL az
ist on
ĠG ersh
Ġjust ification
han ger
ĠK as
ĠK ris
ĠK rue
Ġcl o
Ġad ren
ict im
ep ers
Ġaw arded
ach ing
ĠSt ro
ĠSt ella
!! )
Ġev ocative
Ġfin ishes
Ġhard ened
Ġbu cket
ĠBe et
Ġ10 1
lud es
Ġsuper l
ĠMar ian
Ġcho ck
Ġcol ored
ĠPl ummer
ĠTom orrow
ĠPe ggy
ĠMor ric
Ġcirc uit
Ġhair y
IS H
ĠMon te
OM B
ĠLove craft
ĠRed grave
Ġemp ath
you ng
what ever
ander as
Ġcorrect ness
Ġwise cra
iac s
Ġtour ists
Ġjunk ie
Ġcyn icism
Ġvan ished
Ġsche mes
unning ham
Ġoverwhel med
Ġchap ters
ĠBL OOD
Ġcock y
ĠTob e
En ter
Ġhood l
ĠCy nthia
Ġdistingu ished
ĠKath ryn
Ġscat tered
aku za
Ġlaun ched
Ġtab oo
names e
Ġupt ight
D el
G ene
J ud
M E
T O
f ish
g ud
h iker
i ates
p ath
s ided
he e
Ġb ubb
Ġl ists
Ġl oner
as ks
ĠI D
ot ten
il ian
ĠT ower
ĠT ina
ĠT su
Ġre lying
Ġre appe
et ically
ĠC ly
ĠD warf
Ġsu cking
Ġde ed
ĠP uppet
ĠL om
ĠL one
ĠR est
ist a
ĠF a
ĠF lying
um ming
res pond
Ġqu aint
me ga
Ġunder c
Ġinc om
Ġgen etic
Ġbit chy
ĠCh in
Ġrel ating
ster ious
ition al
Ġday time
ĠSc ully
ĠMar ine
ĠRe view
Ġhist rion
Ġfoot steps
Ġeng agement
Ġmil it
An ne
aby rint
ĠMor an
ĠPr ime
ĠQu est
Ġinvest ment
Ġcap sule
Ġexpress ing
ĠTw in
Ġ193 7
bor ing
ze ch
Ġoffic ially
ĠMad h
ĠTr uman
Ġpract ices
mon ster
Ġdiv ine
?! ?
Ġgri ps
Ġdu plic
ĠBrown ing
Ġloving ly
Ġsubtit led
200 2
ĠRod ney
Ġcollect ing
Ġpuzz ling
Ġcoinc idences
ĠGill ian
ĠSa if
Ġlabor atory
Ġrebel s
ĠPeck in
Ġtransp arent
Ġvoy age
Ġepit ome
Ġpenn ed
ĠFitz gerald
Ġextre mes
ĠConfeder ate
ĠMond ay
ĠGuev ara
C at
D irty
M id
O k
b es
g age
l ar
l ittle
l ov
Ġa venge
in spired
Ġthe sp
Ġw agon
Ġm and
or gan
ed ited
Ġha l
ĠA ck
ĠC ult
ĠC anyon
Ġsc ru
ĠF ind
ĠG ate
Ġpro jection
Ġle aps
ĠK are
Ġbad ness
Ġover board
Ġpre val
ep y
Ġbl ames
ĠV lad
Ġho llywood
Ġbr ick
Ġ2 50
the ir
Ġap ocalypse
Ġhel met
Ġcons umm
Ġinter play
Ġgra veyard
sc ale
ĠCha brol
ĠSe bastian
Ġret elling
ĠAr nie
AR Y
Ġlim bs
Ġcat al
Ġ195 4
udd le
ĠNor wegian
Ġunin spiring
Ġmut il
Ġaim s
OL D
Ġlink s
ĠEve lyn
ĠAsh ton
ĠBrand on
sm ith
Ġasp ir
Ġcolour ful
ĠVin ny
ĠBL ACK
ĠLI KE
rep res
Ġstyl istic
ĠMod esty
Ġrig id
ĠJaf ar
Rem ember
Ob viously
Ġenforce ment
ĠGuin ness
Ġjan itor
) "
D ick
E vil
H onestly
M us
M oon
S ex
S even
c ert
d ale
g ame
i ya
j or
t ro
t ub
Ġa irl
in qu
is se
Ġc ott
Ġp ap
Ġd ime
ar ia
ĠT yrone
ir teen
ĠB ax
ĠM akes
ĠH orn
ĠH IS
ĠH OUSE
ĠW inc
ĠW arners
ĠD J
Ġv essel
ĠR ut
ĠF reak
Ġr ans
od ore
Ġper sec
Ġcl ar
Ġbl oke
Ġra zor
Ġrec apt
ĠU sing
Ġter rif
fin ished
ĠAn ime
ĠZ hang
com plete
Ġdoc uments
Ġcapt ive
Ġsent enced
Ġfree ly
!!!! !!
Ġaccident al
Ġroad s
ĠGl en
Ġcuri ously
ĠMel vin
ĠBer k
John ny
Ġachieve ments
Ġaccompl ishment
Ġmob ile
ĠSus p
ĠDen ise
ĠRod dy
Ġrefreshing ly
Ġtack le
ĠBE ST
Ġbot ched
Ġproud ly
ĠAdd itionally
Ġreun ite
Ġincident al
walk er
ĠProdu cer
ĠLOV ED
Ġfulf illing
ĠLI FE
ĠVeg a
Ġtransfer red
Ġvenge ful
Ġsou p
Ġdismiss ed
Ġhalluc inations
numb ers
ĠStra ight
Ġhench man
Ġhypoc ris
ĠJed i
mus ic
Ġoppon ents
Ġabund ance
ĠHos kins
ĠChop ra
Ġvideot ape
ĠRol and
ĠMorm on
ĠPix ar
ĠCamb od
Ġtrou pe
ĠKrue ger
ĠMorric one
abyrint h
H ope
S H
b ett
m ir
v ard
w atching
Ġt urb
Ġs atellite
Ġf isher
Ġc ater
on z
Ġp od
Ġp ris
Ġd iving
ed ed
as ive
ot ers
se ts
ĠA ub
Ġnot icing
Ġ( !)
ĠC unningham
ĠD ue
Ġout burst
ĠN AS
ud der
ĠO ak
ell ow
Ġcl arity
for mer
ap ocalyptic
ĠHe w
Ġri ff
Ġtr ump
act resses
ĠCh i
Ġapp alled
Ġneed ing
Ġwar riors
Ġstand point
Ġgl ow
Ġsk ipped
Ġheart less
ĠAr iel
ĠWill em
Ġdep ri
Ġsupport s
Ġtou g
Ġannoy ance
Ġdr astically
Ġinde pendence
Ġ200 9
Ġlar gest
ĠNe al
ĠGr inch
ĠAny thing
An n
Ġrich ly
Ġ193 8
Ġ: -)
Ġidi ocy
Ġ194 5
Ġrepl acing
ĠMiss ion
Ġgod s
ĠHard ing
ĠST AR
ĠSad ie
Ġfort ies
ivers ary
Ġmarket ed
Ġmob sters
hod ox
Ġuncom prom
Ġearn s
ĠDet roit
aude ville
Ġbik ers
Ġenorm ously
Ġgif ts
Ġsurpass es
Ġindu cing
Ġcondem ned
Ġfabr ic
ĠAksha y
adel phia
Ġoutland ish
Ġstal wart
- "
C ast
E ddie
R ight
S D
d b
i ress
l k
w ould
Ġs aint
re ement
er ks
Ġm oustache
Ġb ash
Ġb risk
Ġd y
Ġg ard
Ġg ains
ĠI zo
ut o
st ruct
Ġbe f
ĠT on
Ġhe ir
ro id
Ġan onymous
ĠB ale
Ġ( ?)
ĠH im
Ġj oking
Ġv anity
Ġwh irl
ĠP ere
ĠL ass
ĠR io
ĠR ipper
ĠF anny
ĠG IRL
Ġgo ers
ĠO men
man y
Ġover p
Ġpre fers
Ġad vised
ff iti
ces e
ĠV id
Ġspe lled
ĠSt ories
Ġinc lined
sp ace
sp ersed
ma il
Ġext ract
Ġvers atile
ax ploitation
ĠNo ir
Ġsw ift
Ġstra in
oke mon
Ġdream y
Ġdream ing
ĠAd venture
Ġdest ructive
ĠGra dy
Al an
ĠWood stock
ye ars
Ġexpress es
ĠGood ing
ĠMac Murray
Ġ196 7
Ġball oon
Ġcontri v
ĠStre ets
Ġpun ished
Ġprogra mm
Ġden ial
Ġden ying
Ġsymbol s
Ġtrust ed
ugg ish
Ġder ived
ĠDel py
ĠWin ner
ĠMer c
Ġkiss es
ĠBrad ley
ĠDem on
Ġunfor g
Ġinteg ral
ĠANY THING
Ġbow l
Ġannoun ces
Ġsedu ced
Ġabsor bed
Ġhumili ation
Ġadol esc
Ġpremie red
child ren
ĠSix th
ĠTun es
Ġoppon ent
Ġrecre ate
ĠComb s
ĠLoc ke
ĠNon etheless
Ġcohes ive
ĠHawai i
Cap rio
Ġdisci pl
Barb ara
Ġanth rop
Ġfores had
ĠClouse au
Ġgust o
' ).
A H
B L
D en
D own
G iven
J an
L ady
N ick
P ersonally
R OR
W W
b ay
m ot
p ot
s pl
Ġ 00
Ġthe ft
Ġb ench
it als
Ġd ang
ar med
om i
ĠS way
ĠS gt
ĠC oy
ĠH om
ĠW ANT
un ette
ag len
ĠL ed
ĠF let
Ġcon quer
ĠJ unior
Ġr ation
ĠO ften
ell ed
ĠK itty
so le
Ġcl unky
Ġag gra
vel ope
ĠSt iles
ia o
Ġsub conscious
ail able
Ġmean ings
Ġsuper star
Ġfan atics
ĠUn i
Ġcra wling
Ġdep uty
ĠKe anu
Ġdream ed
AL K
ĠBro derick
An na
ĠFilm ed
Ġadvent urous
Don nell
Ġ196 4
Ġdi ary
Ġamateur s
Ġhost ages
Ġartist ically
Ġlif el
Un less
ĠDun away
ĠIr win
Ġemploy er
Ġcann on
Ġappl ause
Ġabr oad
Ġconcent rated
ĠRoman ian
Ġevol ved
ĠBell amy
Ġded ication
Ġyell s
ĠArgent ina
Ġmira culously
Ġpreach ing
Ġimit ate
Ġmisunder stand
got ten
Ġouts ider
Ġconve ying
Ġundert ones
Ġconvict s
quest ion
____ ____
Ġdivers ity
Ġenthra lled
ĠTan ner
forman ces
ĠUr ban
Ġhoney moon
Ġadul tery
Ġautobi ography
ĠGerald ine
ĠParad ise
Ġovershad owed
ĠKirst en
ĠDw ight
ĠLaur ie
Ġori ented
C C
H a
J ose
N eal
S ar
T A
Y our
b oiled
c ould
c inem
c amera
d ain
m ur
r ons
s usp
v asion
y an
Ġo unce
it ially
Ġl awn
br ows
le an
ĠT E
ĠT ara
ĠT ucci
ĠA soka
ĠS ac
Ġh iring
Ġmovie goers
ĠB ren
ĠD im
ĠD odge
Ġfr at
us ually
ĠP ack
ĠP ars
ĠL ogan
Ġout set
ĠF iona
ind ler
ĠN ad
ong e
Ġfe isty
ĠK ol
ab by
ary l
ep id
Ġgu er
ĠV all
Ġyour selves
ĠSt acy
Ġatt ic
Ġkind ness
ex per
Ġmind set
sc ary
Ġgl amour
Ġpar agraph
Ġsuccess ion
Ġstra ined
off erson
Ġir rational
Ġmet iculous
ON D
ura ble
lin ing
Ġsens ibility
Ġrob otic
Ġgrand ma
ĠCom ing
Ġtest im
ĠGo ing
First ly
ĠCr ash
aly st
ĠFar m
ĠJud ith
Ġassoci ates
ĠViet namese
Ġarm or
ĠColl ette
Ġaccomp any
ĠSk ull
ĠLand au
Ġenter prise
rehen sion
Ġwid owed
Ġmyth ical
Ġborrow s
Ġfet ched
Ġbik ini
Ġdomin ate
Ġdomin ates
ĠConn elly
Ġmic ro
ĠGray son
ĠAtt ack
Ġgest ure
Ġdistingu ish
Ġintim acy
ĠStock well
Ġrang ing
Ġsoci opath
Ġsucc umb
Ġshameless ly
Ġinnue ndo
Ġconstra ints
ĠFont aine
arte nder
ĠBax ter
, ...
D am
G ive
S al
T rue
c ular
e enth
Ġ ilk
Ġt its
re el
Ġw ielding
Ġo stensibly
Ġf iend
Ġf ias
Ġm ars
Ġp y
Ġd ata
an ch
at oes
Ġg ull
Ġe ld
st ros
ĠT axi
Ġhe aling
Ġst ew
ĠS em
ĠS terling
ĠM ean
ĠP ure
Ġout put
ĠF ine
Ġcon n
ĠJ ude
Ġher itage
Ġpro verb
Ġthere of
ard ieu
Ġcl oth
te nder
Ġar ty
Ġwill ingly
Ġra ving
ĠSt at
ĠU gly
ĠAl addin
Ġcomple ment
Ġco aster
Ġsha kes
ok ay
Ġbo ots
ail ed
aster y
Ġvers a
Ġepisod ic
Ġconf ines
Ġsuper flu
Ġmiss ile
Ġsk ipping
Ġmar ijuana
rom antic
Ġdem ol
Ġfair ness
What ever
ĠPe ace
Ġmoder ately
Al ong
Ġcamp ing
work ers
Ġclim ate
Ġadapt ion
ett a
Ġbeha lf
ĠMad eline
Ġsweet ness
imp ortant
ĠFirst ly
Ġrad ar
ĠGreat est
Ġimpro vis
Ġtort uring
Ġinte nds
Ġrap es
ai ro
ĠMat te
Ġdig ress
ĠGl ory
Ġpsycholog ically
ĠDun st
ĠCat hy
Ġcoun sel
ĠLuc ille
Ġrecall s
ĠVer ne
Ġfund s
Ġskill fully
Ġbag s
Ġda ft
ĠMiche al
Ġexpos ing
Ġbond ing
Ġwitch craft
Ġrev ive
wh om
Ġmechan ic
Gra nd
Ġglob e
Ġillustr ates
abs or
Ġmonot one
Ġmonolog ues
Ġoptim ism
Ġprinci ples
ĠCec il
uy asha
Lau ra
ĠGwyn eth
Ġschol ars
Ġheter osexual
ĠAV OID
ĠDrag ons
Ġdesol ate
Ġcondes cending
Ġpreval ent
Ġfias co
C ut
L ong
M al
R eg
S w
b re
d ance
l ady
n et
t urned
w it
Ã ¤
Ġt roll
Ġt asks
Ġw its
Ġm ortal
Ġb arn
Ġp ac
Ġg ently
ic ial
al ented
Ġmo cking
Ġmo lest
ĠT ap
se at
ĠB omb
ĠM ig
ĠM ifune
ul pt
Ġk in
Ġpl acing
art en
Ġal a
ĠP ers
ĠP iper
ast ered
ĠF ur
um i
Ġun rel
Ġlo an
ĠO m
Ġtheir s
ru ctor
ru kh
Ġar bit
Ġover se
Ġim ple
Ġdis ple
Ġfl ipping
Ġhapp ier
Ġbelie ver
Ġke eper
Ġco ke
Ġcour ts
Ġwar fare
ros pective
co at
ĠBe nd
ex pl
ĠAll ison
ĠMar cel
Ġmon stros
ah on
Ġstupid est
Ġ5 00
ĠHar lem
Ġcor respond
hol m
Ġimpress ions
Ġform id
ĠHer oes
Ġpos itions
aug hey
ĠPe nd
Ġfree ze
ĠPr ot
ĠChan g
?) <
Ġtravel ed
Ġrap ing
ĠAb u
ĠMag ic
Ġdrag ons
Ġunknown s
Ġbank rupt
ĠAp ollo
Ġsurreal ism
Ġobsc ene
ĠRam pling
Do es
Ġextraord inarily
Ġlift s
ĠLat ino
Ġadmire r
Ġexchan ges
handed ly
En joy
Ġchamp ionship
cr ime
ĠCole man
Ġsteam y
ĠSav ini
ĠFant astic
Ġreli ed
ĠWr itten
ĠKnow ing
every thing
Ġexpand ed
ĠFro st
Im agine
ĠGard ner
ĠWT F
ĠKings ley
Ġpredic ament
A bsolutely
I B
R a
T en
c ow
f uss
f amous
h orn
o j
p orn
Ã ´
Ġ ...<
Ġw atered
nd ar
Ġm ism
Ġb ickering
Ġc rop
ĠT ai
ce ll
ĠW ave
Ġpl anted
ĠL ith
ĠL ars
ĠF avorite
ĠF osse
Ġcon form
Ġcon vert
ĠG iel
Ġr ushes
Ġun res
ĠE mer
ĠK il
ab ilities
ac ular
for cer
ary a
gin ning
Ġrec oll
Ġdown side
li ved
Ġsm ack
Ġscreen plays
Ġentertain s
Ġcr ummy
dd ing
Ġgra in
Ġport ions
ix ed
Ġanim ations
Ġconc rete
Ġreg ain
Ġdark ly
Ġdark est
Ġdem ographic
ĠGod ard
Ġtreat ing
Ġprem ises
!" )
go er
lo e
Ġru gged
RE D
Ġgrand parents
acher s
Ġident ities
Ġrecogn ise
ĠMon sters
ĠBru ck
Ġ194 3
Ġoccur ring
Ġoppos ing
Ġted ium
ĠRos al
ĠDen is
ĠSn ake
Ġbuff oon
Ġvol umes
ĠSan jay
Ġterm inal
ĠNichol s
ĠCarol ine
Ġcous ins
ĠDie go
Ġpray ing
ĠSU CK
ĠWould n
Qu ite
Ġengine er
Ġsacrific ed
ĠSav age
Ġsail ors
Ġprejud ices
Ġestablish ment
Ġanx iety
Ġsalv ation
Ġirres ponsible
Ġperman ently
ĠCob urn
Ġbim bo
Ġdia lect
Ġcaf Ã©
Capt ain
Ġdipl om
Ġprow ess
ĠCly de
B ey
M ovies
M agn
g od
m art
t hose
u an
z man
in ette
re lease
er ick
Ġb iblical
at tering
br ain
Ġg room
Ġbe es
ĠT ouch
Ġre has
Ġst umbling
ĠA G
ĠA mb
ĠS ed
Ġh unky
ĠM ong
ĠM az
ĠH IGH
ĠH ilton
ĠD R
ĠD ane
Ġpl ung
Ġde ception
ĠL il
Ġout do
ĠF aith
Ġr idden
Ġpro dig
pt uous
Ġun lucky
Ġlo cks
Ġgo at
ĠO ber
Ġfe ared
Ġpo le
th ora
Ġsp ouse
Ġunder go
av ier
Ġsub mit
ew are
ĠDe cember
ĠCha p
.... .<
land o
ĠTh ief
ĠLe ung
Ġpat rol
Ġbra v
ĠBr idge
ĠEd ith
Ġdisc l
!!! )
Ġlocal es
Ġbox es
St an
sw orth
Ġtre k
friend ly
Ġhistor ians
bor ah
ham mer
ĠWorld s
Ġrequ isite
Th ink
ĠMel anie
Ġimpl ications
ĠBas inger
Ġgoof s
ĠDen mark
ĠJan uary
Ġemer gency
Ġmaint ained
ĠAst ro
ĠHaw k
Ste ven
Ġcring ing
Ġsyn ch
Ġaccompan ying
Ad ams
Ġelev ate
Ġfet ish
El iz
Ġrat io
Ġinher ited
ĠWy man
ĠWy att
ĠId a
ĠAtl antic
Ġhypnot ic
ĠEVERY THING
ĠAW FUL
Ġdish onest
Ġple thora
Ġenthra lling
ĠDomin ic
ĠHend erson
Ġspont aneous
Ġextrav ag
Ġspawn ed
Ġree ks
Ġunrem arkable
Ġwhims ical
Techn ically
ĠSway ze
Ġsuperflu ous
' -
6 6
C ab
R og
S ean
b omb
c red
h oul
m ut
p oor
r Ã©
w arya
Ġt ensions
Ġw ires
er ia
nd le
Ġd ares
st ruction
ĠT est
ĠT one
ĠT akes
ke red
ĠA rd
ri ers
ow der
am ple
ĠB ick
ĠB anderas
ĠM ob
ĠM aine
ĠM ORE
ĠH els
ĠD ahl
Ġcon tend
ĠG em
pt ions
os yn
han k
Ġwat cher
Ġthere after
ard ing
itt ered
ab ella
ond o
Ġkn ives
Ġpe ek
Ġbad die
Ġro gue
th in
ĠV ac
Ġback woods
Ġra unchy
Ġcast ed
aw d
ib i
Ġco herence
Ġinter iors
Ġunderstand ably
ĠMar isa
Ġed its
ĠTh in
ĠRe ve
ien nes
uth or
ĠMc N
Ġinf idelity
ĠIs abelle
Ġsol ving
vol ving
Ġodd ball
oor man
Ġ195 1
ĠTra vel
Ġporn ographic
Ġinvestig ates
ĠCor por
Ġuns pe
ĠTim on
Ġelement ary
ĠMcC on
Ġoppos ition
ĠBo one
Ġemploy ment
Ġtour nament
ĠPhil adelphia
hero es
Ġcateg ories
Ġic ons
ĠCast ro
Ġcust oms
Ġpolic emen
ĠLand is
ĠNE W
sm art
Ġprevent ed
ĠRep ort
Ġspread ing
bal anced
ĠBart on
Ġburst s
Ġimit ating
Ġinsist ed
ĠYu en
Ġhun ger
ĠNik ki
Ġplat form
ĠCos mo
Ġbaff ling
Ġcomprom ise
ĠViol ence
ĠHon or
ĠJohan sson
tit les
ĠBess on
ĠJoy ce
Ġmonument al
ĠPhilipp ines
ĠAfghan istan
Ġdiabol ical
Ġmarvell ous
ĠHenriks en
ĠPeckin pah
Ġhypocris y
ĠGiel gud
4 5
E nd
F rench
I ron
L AND
P G
S a
S ho
b red
b oding
f ern
o ly
v ice
Ġ ).
in ates
Ġf ades
Ġb ol
Ġb artender
an ne
Ġl az
Ġg oose
st orm
al ia
ve heart
ĠT otal
Ġre leg
ch ief
ĠS kin
ĠB ag
ĠM abel
pe lled
Ġsc ulpt
Ġpl ug
Ġall uring
us k
Ġv it
ĠP ast
ĠL ink
ort ment
ĠR ound
ĠR af
ĠN orm
Ġle opard
ĠO rient
Ġfa ble
Ġsh rill
Ġsh outs
Ġdis dain
Ġsl ot
Ġtra velling
Ġcomp ares
Ġtri ump
Ġmat ching
uck s
Ġpres ume
ĠWe ird
inc l
Ġsuper market
Ġconv ent
com pass
Ġ9 3
ron ting
Ġclim atic
zz zz
ask a
ĠLike wise
ĠMad rid
Ġidi osyn
let te
Ġdef y
Ġ18 00
Ġthank less
Ġaim lessly
ĠFar ley
Ġver dict
ĠVal erie
Ġinterpret ed
Ġtrick ed
iver ance
Ġcompan ions
ĠFer rer
Ġpal p
Cl aude
Ġbond s
Ġade pt
ĠDream s
asion ally
Ġcance lled
Ġdecl ared
ĠRud y
ĠSF X
Ġsess ions
Ġbaff led
Ġexhaust ed
ĠCec ilia
Ġcloud s
ĠScor cese
Ġmasturb ation
ĠMcL aglen
fell as
Ġdisconne cted
Ġinexper ienced
ĠZor ro
Ġirresist ible
Ġamnes ia
Wor st
+ +
D i
M ac
N G
S how
V ictor
f old
k as
w ic
Ġt read
Ġt emporary
Ġw ink
Ġf rig
ing le
ou rage
Ġp up
Ġp ains
Ġp enny
Ġl ull
ar ians
as ia
Ġg roc
ie re
Ġwas hing
ĠM aid
ĠC ul
ĠC zech
ĠH r
ĠH mm
ĠW yn
Ġat e
ant a
ĠL ate
ĠF AR
ĠG uru
Ġr ust
ĠN ixon
Ġcan on
ĠO k
ĠO cc
nt on
ĠK erry
Ġar row
Ġim perfect
Ġdis appro
Ġpart ial
ian ni
Ġwhere in
Ġent ran
Ġra y
ach t
Ġsl ipped
ĠU rs
Ġch ip
the llo
ĠJo ker
Ġdown beat
Ġsha ck
Ġide ology
Ġentertain er
Ġrest ore
Ġac rob
Ġmar ital
uff s
ien cy
Ġph rases
Ġhero ism
elt a
ĠHar rel
Ġprom oting
Ġtele grap
Ġdisc rim
Ġrespect ful
lo at
Ġsuggest ive
Ġeye brows
Ġexist ent
ĠGu ys
Ġoper ate
ĠMac Arthur
ĠSer ling
Ġrevol ting
Ġbother ing
stit ute
Ġgri pe
ĠWW I
Ġpen chant
Ġclub s
ĠBet ween
Ġopt ions
ĠMax well
Ġtrick y
Ġintellect ually
Ġgross ly
199 9
Ġrevel ations
ĠFre ud
Ġincident ally
Ġevol ve
Ġnu ance
Ġvirgin ity
ĠKrist offerson
ĠGill iam
Ġconsum ed
Ġindul ge
Ġindul gent
ĠFall s
Ġencoura ges
Ġsurpass ed
Ġvoy eur
Ġovert ly
ĠRead ing
Pat rick
icy cle
Ġcolon ial
Ġconfir med
ĠDall as
Ġacad emic
Ġincom plete
Ġgroc ery
# #
A mato
C as
D og
L ord
M iche
P E
R om
U CK
W ay
b og
c s
g ore
h r
m ighty
Ġt epid
Ġs igh
is oned
Ġm ig
Ġto pped
Ġp ipe
Ġd ense
Ġd iction
Ġe got
ĠT otally
ho e
ĠS G
ĠS um
ĠS issy
Ġh ousing
ri ad
ri gan
ĠB oorman
ĠM and
Ġ" ...
ĠW ise
ĠW ald
ĠP ER
ĠL ila
ĠR ide
qu et
ĠF ollowing
Ġr anc
Ġwor ries
Ġen su
Ġkn ees
per ate
Ġover l
ac cept
Ġdis fig
ian e
Ġra ging
we igh
ĠSt ack
iss ue
Ġinv ari
Ġright eous
Ġco verage
ĠBe an
Ġgl o
ĠWe ir
ĠCl are
Ġcho ir
Ġcho colate
Ġstupid ly
ize k
19 2
Ġpredict ed
Ġair ing
Ġprot ective
work ed
Ġcreep s
Ġappro val
Ġ193 5
Ġclos es
ĠSw inton
Ġdraw ings
Ġsix ty
Ġsto ic
rad es
Ġdread fully
ĠHell raiser
dra matic
ĠColl ege
Ġfle eting
ĠMic hel
Ġpuzz led
ĠDar cy
Ne il
Ġworry ing
Ġclown s
ĠRain es
Ġtempt ation
Ġdece it
Ġjudg ement
Ġutil ized
ĠImp ossible
ĠVen us
Ġsummar ize
Ġsor ce
Rec ommended
ĠGle ason
Hall oween
ĠNap ole
Ġunsuccess ful
Ġbiol ogical
Ġtempor arily
Ġsnipp ets
B el
E ver
G ener
M et
g ay
o i
r unning
z og
Ġ ),
Ġa ce
Ġs ack
Ġs ib
Ġs way
Ġs omber
re leased
ha ving
en iable
Ġd ug
an imated
Ġg au
al ine
ĠT aking
ho ll
Ġst abs
ke ley
ĠS M
ĠS up
ĠB unch
ĠB abe
ĠM ist
Ġwe ed
ĠC ed
ĠH i
ĠH od
Ġsc ree
Ġsu e
us ional
ak ingly
ĠL enz
ort on
au cas
ĠN y
Ġman agement
od ed
od ger
Ġen velope
ĠK y
ond z
Ġro d
other s
Ġam erican
Ġsp iders
ĠY ep
Ġfl ed
ĠV s
urn s
Ġback ing
ather s
Ġbr ink
Ġbr unette
Ġdes cends
be en
ise xual
Ġem peror
Ġtri ps
Ġsm ashed
Ġsm army
Ġmust er
ov ar
Ġpol ite
Ġconf irm
ĠRe illy
Ġunt ou
ĠSp y
Ġass ortment
Ġdefin ing
Ġviol ently
Ġloc ale
ĠWill ard
Ġdri vers
ĠHar bor
Ġslow s
rom well
Ġfore boding
Ġpos itives
Ġdeep est
Ġones elf
Ġsent iments
Ġintellig ently
oun ge
Ġgrand daughter
Ġ195 2
Ġstereotyp ing
Ġspot ted
Ġjo hn
Ġbull ies
ĠCo ast
ĠTe resa
IC T
ĠSl ow
ĠAp es
Ġlay er
Ġfriendship s
spe aking
Ġpriest s
Ġtem ple
ĠSH OW
Ġguard ian
ĠCurt iz
Ġinteg rated
hh hh
ĠDep ardieu
Ġshadow y
ĠKnight ley
ĠScar face
iffe rence
Ġattend ant
Ġmic roph
Ġrecru it
ĠValent ino
Ġapt ly
ĠFay e
Ġindic ates
ĠDom ino
Ġmargin al
occ up
ĠOdd ly
Ġprivile ge
Ġinherit ance
ĠGret a
Ġscant ily
Ġtranspl ant
ĠMarlow e
ĠVern on
ĠFilip ino
Ġuncont roll
ĠSuff ice
Ġexhilar ating
ĠHarrel son
' ?
7 3
R ex
S uch
T od
b ag
c ute
c ourse
e ck
h it
k id
r ously
u ition
Ġw aking
is le
Ġm am
Ġm ath
Ġm ugging
Ġb ats
Ġc aval
Ġl ac
ar ling
Ġst unk
Ġh ind
ĠC el
ĠC rit
ĠC OULD
ĠH ence
ĠW ink
ul ates
ĠD V
if iable
ess ion
Ġall ies
ol in
Ġde ck
ĠP rop
ĠF lesh
Ġher d
Ġr arity
ĠE agle
ong ru
Ġsh r
Ġro oft
Ġfun ctions
Ġra bid
ĠSt uff
Ġcont ents
Ġcont empor
Ġtra itor
Ġ19 0
Ġgen oc
Ġdown ward
Ġfew er
Ġfin ance
Ġtri ple
ib ur
ran n
Ġacc idents
Ġinst ructor
Ġwar ped
Ġrun away
ex ist
Ġconf ronting
ĠSc ha
Ġspecial s
Ġmar athon
Ġdisappoint s
Ġmess ing
Ġexp ans
Ġreg ist
ik ings
Ġshoot outs
ST ER
Ġprem ier
ĠAd ult
ĠNe o
ira ble
ĠSam my
Al most
Ġtrag edies
Ġund eniable
Ġstrugg led
Ġunique ly
with standing
Ġ195 8
ĠEn ough
OO M
ĠMe et
Ġtest ed
Ġassum ption
Ġalien ation
ĠShow time
film s
ĠFox x
Ġconsist ed
Ġgru ff
Ġconnect ing
Ġcro ok
ĠDem i
Ġdistribut or
ĠCH E
Ġoverwhel m
ĠSur prisingly
Ġunbe arably
ĠCas per
ĠAnton ioni
Ġdust y
ĠTry ing
Spe aking
numb ing
Ġfren etic
Ġcos m
Ġadvertis ement
ĠWha le
Ġapprox imately
ĠZo han
ĠGeoff rey
ITT LE
Ġflamboy ant
ĠAnto inette
ĠSabr ina
ĠUni verse
Ġformid able
C or
C arl
C itizen
D es
M att
M rs
N one
P L
S ol
S ix
b us
c ie
i y
p rint
u ously
u gged
Ġs assy
Ġw reak
Ġf athom
Ġp ills
Ġp ulse
Ġl ump
Ġl aced
Ġg ren
ĠI l
hat e
Ġbe gg
Ġre new
ilm er
ĠA amir
ĠS ond
ir ting
ĠM ot
ĠM atch
ĠC ate
ĠC ond
Ġj ugg
out ed
op oul
ĠJ ungle
ĠG ris
ĠN er
ĠN emo
ate gy
ĠE gg
Ġle ct
uch i
Ġqu ib
cc o
Ġte aring
ĠV ick
vel t
Ġsl ash
ock s
Ġrest oration
ĠAll y
Ġsuper iors
ĠTh orn
ĠUn known
Ġret reat
Ġrep orters
Ġlight weight
Ġexam ined
Ġref und
Ġform al
Ġfore head
AN E
Ġred is
Ġwit less
ĠQu ick
bor ough
Ġimm ort
Ġcontinu ation
ĠAg nes
Ġpun s
Ġsix teen
ĠNat ural
200 5
Sc ott
Ġconsist ing
Ġconnect s
Ġscar red
198 0
Ġlie utenant
Ġunivers ally
Ġpsychiat ric
Ġautom atic
ĠFin ney
think ing
Ġtender ness
ĠCa an
ĠRes ident
Ġresur rected
stra ight
Ġjewel ry
Ġtherap ist
Ġrang es
Ġrecover ing
ĠSold iers
Ġrail road
ĠBrig itte
Ġcoward ly
OUN D
Ġec st
Ġburd en
Ġchau ffe
Ġattrib utes
ĠIsa ac
Ġclums ily
" '
* ,
B oo
H ot
P hil
c ony
f ol
m om
s pecially
s uff
s ki
he cy
Ġo mn
Ġp oop
Ġd ummy
Ġg n
ic ates
ie ge
Ġre wind
ra ma
ĠB O
ĠB oot
ĠM ee
ĠM ik
ĠC hen
Ġab ly
Ġab omin
ĠL ets
op ol
ĠR aven
Ġout ta
ĠF ate
ĠF iend
ĠF right
ĠJ ared
Ġher rings
ĠG arson
Ġtim id
ook ie
ial ity
ru it
Ġro ok
Ġam usingly
Ġgu id
Ġplot ted
Ġser geant
ĠU h
ren ched
the se
Ġdec on
Ġem ail
Ġsm itten
de pth
Ġgr ieving
ib a
ib an
Ġscript writers
Ġfar c
ok u
arr ot
Ġpres erved
Ġinter spersed
Ġstr ategy
Ġsk ating
Ġmon itor
ĠRob bie
ien ne
ove red
Ġcop ying
ĠZ ane
vent ful
Ġblood thirsty
ĠHis panic
Ġtown spe
Ġfine ly
Ġchar ity
ey e
tra vel
ĠSh ue
Ġcompl ains
Ġforg ivable
lin er
Ġcur sing
Ġlim b
Ġid yll
avy a
Ġaut istic
Ġ195 7
Ġsleep y
ĠSw iss
ĠMe h
ĠHa unted
Ġpurpose ly
ĠBoy d
AC H
Ġdread ed
pret entious
Ġmut ated
Ġenv y
Ġradio active
Ġscare crow
Ġsun set
Ġhur ting
Ġsear ched
Ġpoign ancy
Ġconcent rates
ĠMort ensen
Ġeth ics
ĠFin ch
Ġincompet ence
Ġsadd est
ĠKer r
Ġparan ormal
ĠChamp ionship
Ġjer ky
ĠPleas ance
ĠMim i
ĠDill on
ĠLie utenant
Ġsynd rome
Ġcalcul ated
ĠHav illand
ĠBir ch
Ġcatastrop he
Ġadminist ration
Ġunde veloped
Ġprepar ation
Ġhairc ut
ĠFlet cher
opoul os
Ġtownspe ople
( !)
W ould
W orth
b ac
c ats
l asses
n onsense
r us
u ates
Ġw oke
Ġm ache
ha ra
Ġto e
Ġd orm
Ġd vd
Ġl amp
ĠT s
Ġha lt
ent ist
Ġli zard
ter ror
ĠC ody
ĠH us
ĠH az
ĠD ove
ĠD aughter
Ġj umbled
ĠP assion
Ġwhe els
Ġcon verted
ĠG round
Ġwor ms
Ġun finished
ig a
ity ville
ab outs
Ġqu arters
Ġar ises
th ree
ish warya
ĠIn visible
Ġra ck
Ġbr ash
Ġch unk
Ġinc ongru
Ġlong time
Ġbig ot
sp oilers
Ġacc ol
Ġbu rial
Ġbo ils
Ġcare t
Ġcr ud
co e
Ġplace ment
Ġinter min
ĠCl ancy
Ġunt alented
Ġstar ving
Ġass orted
Ġsort a
Ġamaz es
Ġpred omin
Ġprom isc
Ġsle w
Ġsn ail
Ġve nd
cl ad
Ġmil ieu
ĠMe nd
Ġredeem ed
Ġuns ur
Ġdig s
Ġhost s
Ġboyfriend s
ĠLet ter
Ġvirt ues
Ġdisaster s
ĠHay ek
Ġstret ching
Ġemer ging
Ġmarvel ously
Ġbath tub
craft ed
ĠJess ie
ĠRing o
ĠAra ki
aren ce
Ġgig gle
phan ts
Ġdemand ed
ĠWind ow
ĠTy son
ĠClass ics
oose velt
Ġgee ky
ĠWOR LD
ĠClint on
Ġconsum er
Ġapolog ize
ĠLor re
Ġrein for
Ġorche stra
Ġanaly ze
Ġarchite cture
ĠBos n
Ġprivile ged
Ġunleas hed
ĠJos ie
ropol is
ĠDrey fuss
Ġbud ding
Wr itten
xy gen
ĠCS I
ĠVent ura
Acc ording
ĠAub rey
ĠMig uel
Ġinvari ably
4 7
F at
J ones
M aster
O ff
P T
b ility
b illy
h ome
j oke
k ingly
m ess
m its
r icted
Ġt am
Ġc ert
Ġc ub
Ġc ement
ll is
at uring
Ġn ic
ĠT rem
ad ers
ĠS r
ĠM ile
ĠM oe
ĠM ighty
ill ian
ĠC rist
ĠC onsider
Ġcha ins
ĠP olly
ĠP okemon
ĠR oosevelt
qu ake
um a
ĠG uns
ĠN ell
ĠE ffects
Ġgo ons
Ġcl ay
Ġcl ick
Ġpe asant
... ).
th row
Ġdis com
ap art
ob viously
Ġte ase
Ġra vis
be autiful
Ġatt ribut
ale ndar
av an
Ġsub vers
Ġsm ashing
Ġclass mates
ling er
ov y
Ġinter ven
ĠDe borah
ont i
ins ky
Ġmon astery
my stery
iant ly
Ġreg ulars
Ġann iversary
Ġav ant
ene z
ann i
Ġequ als
apan ese
Ġsign al
asc os
Ġtheat r
Ġthrow away
Ġtre ndy
Ġcostum ing
Ġplain ly
ĠTim ber
ĠBer keley
nat ured
ena issance
rem ember
ĠPart icularly
Ġtend encies
Ġspeech less
ĠLA ST
Ġwarning s
Ġdynam ite
Ġsyn c
Ġwrest ler
Ġprofession ally
ĠLeonard o
Ġconclud es
Ġ; )
ĠKra mer
ĠClay ton
Ġsan ct
Ġenlight en
ĠInterest ingly
Ġmargin ally
ĠJod ie
Ġtrop ical
kl avya
Ġliqu or
Ġinsect s
Ġninet ies
ĠNicol as
Ġschizophren ic
ĠInst inct
Ġpadd ed
Ġproverb ial
Ġoverse as
ĠLith gow
ĠMcCon aughey
) --
C onsidering
D ay
F K
O ON
P re
P sy
U s
b ath
b ster
b ird
d ge
in teresting
ha ck
Ġc gi
or ad
Ġto dd
Ġl ou
ic io
ic ule
ĠA de
ow a
am ish
ĠB Y
ĠB iko
ĠM ah
ĠW OW
ul as
ĠD ies
ess im
ĠP H
ĠP rem
hing ed
ĠE ra
ĠO mega
Ġmy riad
ĠK el
ĠK ru
Ġper me
so cial
ne g
Ġus age
ĠAnd ers
ob ody
ĠV ive
ĠV ance
ĠV isc
ĠV itus
Ġafter thought
ĠSt ick
Ġsl ob
Ġtra ces
Ġimp ly
Ġapp le
Ġclass ified
Ġsho re
uck ed
Ġdet er
Ġrep air
Ġind ifference
Ġexp oses
Ġdri pping
Ġpower fully
Ġtalent less
und ee
ĠMc Adams
gu in
Ġhon orable
Ġsle eper
Ġquestion ed
Ġadv oc
Ġcreep iness
Ġadapt ing
ĠPr in
Ġ195 3
Ġbeha ving
Ġimpro v
Ġ196 3
Ġrefe ren
Ġcritic isms
Ġdef ines
Ġdim ensions
Ġfreak ed
ĠJean ne
do ing
chan ge
Ġemploy s
Ġbal cony
gn ine
200 3
200 4
Ġprint s
Ġreflect ing
Ġstrang est
ĠOff icer
Ġdign ified
Ġune ventful
Ġpig s
Ġmetaph ors
ĠAk ira
ĠCur ry
Ġalcohol ism
Ġastonishing ly
atha way
Br ide
ĠClaud ius
Ġobliv ion
Ġseam lessly
Super man
Ġexceed ingly
ĠTurt les
Ġstim ulating
Ġproced ure
typ ical
Ġineffect ive
Ġdownt own
Ġmasquer ading
Aw ful
fra me
Ġpenal ty
Ġtraumat ized
Ġempath ize
Ġrans om
Ġfarc ical
3 5
D ream
D anny
F riend
G one
G reg
L ater
L uc
T T
V amp
b aked
c amp
f ar
i uses
n ation
n ik
u ire
w ere
w ords
y ers
Ġa uteur
er ies
ha al
ha ir
Ġc ues
Ġof t
an z
Ġl ung
Ġg aining
ct s
ĠT ong
ce nded
ch ot
ĠS onic
ĠM ich
ĠM oss
ĠH ess
ĠH utton
ĠW rit
ĠW ord
ĠD ac
ĠD ob
Ġex ternal
Ġex uber
pp ings
ĠP uri
ĠP OV
ĠL ONG
ĠL SD
ĠR ene
ĠR anger
ĠG U
ĠG ilm
ĠN ast
Ġsh ield
Ġwere wolves
ĠK os
ĠK ilmer
Ġkn ee
Ġpo kes
Ġro oted
Ġoff spring
Ġsp ur
ĠY un
Ġrec overed
Ġsl ang
Ġpr one
ĠAl mod
aw ed
Ġdra in
Ġdif fer
av age
act ress
Ġneed lessly
Ġcar rier
Ġstr ateg
ĠWe aver
ĠTH ERE
ĠRe y
ĠRe ese
ĠRe aper
Ġcra cked
ĠSp aghetti
Ġsy mpt
Ġ8 8
ric a
cha l
Ġtrans vest
Ġcol umn
Ġopp ressive
Ġtype cast
ĠNe arly
ĠGr udge
Ġsil hou
Ġ195 6
Ġimm oral
Ġachie ving
Ġglad ly
Th ird
Ġdig it
ĠAdam son
ĠAlex and
Ġkey board
Ġoffer ings
ĠPol and
Ġjoy s
ĠNick y
Ġcrowd s
Ġcivil ian
bur ne
ĠCle ese
Ġconsist ency
Ġhyster ia
hearted ly
ĠSho ot
UR N
zan ne
ĠVir gil
Ġsimpl er
ĠPlay ing
ĠShar k
ĠCas ablanca
ĠYu z
Ġunfair ly
Ġinject ed
Ġpartners hip
Ġelim inate
ĠMagn um
Spe cial
Ġpurs ues
Ġjer ks
ĠHag g
Ġflee ing
Ġawak ening
Ġshat tered
Ġmim ic
Ġculmin ating
ĠAF TER
rup ulous
OTH ER
Ġpour ing
eren ce
Ġnur ses
ĠBatt lestar
Ult imately
Mid night
Ġaspir ations
Jose ph
Ġmonstros ity
Bey ond
Ġsib ling
? ).<
B reak
D ouble
R ing
a o
d ist
d ep
e arth
p ick
s kin
s hank
y y
~ ~
Ġm uted
Ġd ron
br inging
Ġg um
ic key
Ġha ired
Ġre fined
se lling
id emic
ĠThe lma
ri ages
ĠC A
ĠC ame
ĠC ash
ĠH utch
Ġsc rat
pp ard
Ġv audeville
est ring
ĠP un
ĠP ull
ĠL ag
ĠL ITTLE
ĠR aid
qu arters
ĠF ed
ĠF eder
ĠN ation
Ġcan vas
ĠE instein
Ġlo ot
Ġper mission
Ġpo ly
ĠY E
Ġser um
Ġimp at
oc op
oc used
oss us
Ġcomp ilation
Ġem ulate
ĠCh un
ign i
Ġclass room
Ġrun time
co ach
Ġadd ressing
uff le
omb at
Ġpass ages
anc er
Ġmis fits
Ġsat anic
ĠHer bie
Ġfig uring
Ġsn iff
Ġfut ile
Ġswe ep
Ġdisc ount
Ġprot ot
ura ma
Ġten ants
St range
Ġweird o
Ġ195 5
ĠTra mp
TH ER
Ġansw ering
ĠSer geant
sequ ential
Ġcompet ently
Ġdi agn
Ġsix th
Ġcas ino
ĠLo ved
Ġkidn app
Ch uck
Ġyouth s
Ġunw anted
ĠDen ver
sec ret
Ġcircumst ance
Ġring ing
Ġsear ches
ĠMars h
ĠMil o
ĠBor gnine
ĠSur viv
wor st
Ġcapital ize
ĠSol ondz
Ġpig e
Ġgal ore
Ġperpet r
ocr ats
Ġalleged ly
Ġchronic les
Ġrehears al
Ġren owned
ĠSlo ane
ĠAx el
ĠIncred ible
ĠSerb ian
plan es
ĠFern ando
ĠBere nger
Ġsophom oric
ĠVig go
Ġsuspe nded
absor bed
Ġpalp able
ĠYuz na
' ),
- (
B rad
C ind
E VER
F urther
M ahon
P H
P R
P ar
Q U
S ch
d le
g led
i ak
n st
p un
s ave
t ogether
w one
Â ¨
Ġt anks
Ġthe or
Ġto es
Ġto bac
Ġp essim
Ġd udes
Ġg uru
Ġn ort
Ġn iche
st a
st alker
Ġre w
Ġre ply
ent al
ra nd
Ġst omp
ad os
Ġu m
Ġu ber
ch ita
ĠB ard
ur ated
ĠM uppet
ĠH uh
ĠW B
ĠW OM
ĠW ERE
un ge
Ġv ag
Ġv alley
and ered
Ġor gy
ĠJ urassic
ĠG ets
Ġpro b
ĠN umber
Ġcan ned
ĠE lf
ĠE asy
reat ive
Ġsh rie
Ġsh tick
ĠK ING
Ġcl unker
og g
Ġover acts
Ġam ok
Ġsp orad
Ġfl ock
Ġbr anch
Ġmin ing
ect or
Ġev ac
Ġter rain
ster dam
Ġright fully
Ġsec luded
Ġop us
Ġcare less
pris es
ee z
ĠSo x
Ġinter fe
ĠSc ript
ues e
Ġ4 2
ĠLe vin
Ġpar aly
Ġfant astically
Ġsuccess es
ĠNe ville
Ġmeet ings
Ġsuff iciently
Ġstri kingly
Ġcat har
friend s
Ġdam sel
Ġoper ator
Ġwall et
Ġpu ke
sequ ently
Ġaffect ions
ĠRy der
ĠWil bur
ĠEll is
Ġincre ased
Ġtack les
ĠRam ones
Ġemer ged
Ġpunch ing
Le on
ĠMaster s
Ġacqu ire
Ġdistribut ors
ĠCru z
ĠCap ra
Ġcorpor ations
Ġenhan ces
ĠCry pt
Ġaston ished
ĠCare ll
Ġrelax ing
Ġhelicop ters
ĠThanks giving
Ġblank et
Ġcorn ers
Ġfed eral
Ġhumili ating
ĠAW AY
ĠDin osaur
ĠIran ian
Ġinstr uments
ĠExt ras
ĠAz te
-------- --------
Ġsque amish
opp able
Ġunem ployed
ĠVoy ager
Ġly rical
Ġreinc arnation
Ġprest igious
Ġstagger ing
Sus an
Ġuncomprom ising
Ġchauffe ur
A ud
B on
C le
D er
I AL
M arc
S aving
c am
e a
f a
m ag
u um
u zz
v yn
Ġw renching
Ġc ine
ll ess
om on
ct ory
ĠT ree
ĠT owers
Ġha cks
Ġre wards
Ġfor um
ĠB land
ĠB ACK
ĠH oo
ĠW ins
ul king
ĠD aryl
Ġex udes
ĠP erson
ĠP az
Ġne on
ĠR ules
ĠR hames
and ing
ĠF inn
Ġun mist
ĠE nt
ĠE the
Ġgood bye
ĠO cean
Ġsh irts
Ġshe nan
ell ect
Ġcl ients
ab ul
Ġpo king
Ġam iable
ber y
Ġunder whel
Ġtr unk
Ġsur render
Ġinc ome
iv ated
oss i
Ġpret t
ĠCh loe
Ġco al
Ġperson nel
Ġkind erg
ĠWe iss
ilar ious
arn ia
ĠMar ce
ĠRe iner
Ġele ction
ĠSe vent
ĠSte el
cha k
Ġpop ul
Ġwriting s
Ġcol ony
Ġfore ns
ann ah
Ġcinemat ographic
Ġvar iations
Ġdoub les
Ġsubject ive
ĠPer iod
Ġunf lin
My stery
Ġmaterial s
ĠBro ken
RE AM
ĠMor se
Ġsick ness
chie vous
Ġoper atic
Ġfire works
ĠBy ron
Ġcomplex ities
Ġmer maid
Ġ196 1
reg n
Ġtaste ful
Be aut
ĠST R
ĠBer gen
Ġsurround s
Ġast ute
Ġamb ul
Ġsoft core
De ep
Ġsac red
ĠTre asure
Ġris ky
ĠRus so
Ġdeserved ly
Ġphilos opher
ĠHay worth
ĠSant i
Ġtext ure
Ġassass ins
Ġfle w
ĠAst or
Ġhomosexual s
ĠInt o
Ġende avor
Ġcontribut ions
Ġwid ower
Ġupset ting
nes day
Ġirre ve
ĠJac ob
Ġrhy me
Ġmont ages
Ġstead ily
Ed ward
Ġecho es
ĠCart oon
Ġreson ance
Ġsensual ity
Ġchees iness
mill ion
Ġplag iar
ĠThor nton
Ġexcl usive
Ġacknowled ged
ĠCou ple
Ġdepra ved
Ġhardship s
Ġintimid ating
ĠDia z
Ġgadget s
Ġprolong ed
Ġresource ful
ĠHew itt
Sar ah
Ġgull ible
ĠWink ler
( ?)
D irect
H or
M ake
M ENT
P rodu
a ise
b inder
g ement
n ut
w omen
Ġ !!!!
er ves
Ġb umps
Ġb isexual
en co
ou cho
Ġp us
Ġp awn
Ġd umps
at own
Ġl ick
Ġl aud
Ġbe m
ve t
Ġha bits
Ġre prise
ent ive
im med
Ġst u
ĠB alk
Ġli ar
ĠM uk
ĠC rew
ĠH OT
ĠD ate
ĠD elta
ĠD undee
ust omed
Ġk inky
us o
ol ia
Ġde vious
ĠR itz
Ġout break
ist ine
qu al
ĠF an
ong s
so ld
ine a
Ġdid nt
og s
Ġqu oted
... ?
Ġover night
Ġro de
Ġent ity
Ġback yard
Ġbr ute
Ġri pe
Ġri ots
ran o
Ġacc us
Ġsho estring
Ġmat he
Ġdel usional
fin i
ĠWe ap
.... .....
Ġdet est
not iced
ĠRe b
Ġele cted
fic ion
ĠZ izek
Ġind irect
idd y
itch ing
yp her
ann on
ph in
Ġprem ature
ĠOr lando
olog ically
ĠGra ve
ĠIM HO
ĠItal ians
Ġstere o
ĠQu iet
omin ator
Ġemotion less
Ġaut op
ĠBy r
Ġbiz ar
ĠHa i
Ġ194 9
Ġtest s
uk ie
Ġbene f
Ġbelong ed
ĠRos ie
Ġvisit ors
ĠWin ning
Ġprec ision
Ġtrib al
ĠRose mary
ĠGener ation
Ġpit ched
Ġic y
Ġerotic ism
ĠSH E
Ġfict itious
omer set
Ġgar nered
Ġfond ly
ĠDi Caprio
ĠHug o
ĠStr anger
van ia
Ġtriumph s
Tit anic
Ġexhib it
SS IBLE
Ġcollap ses
Ġrum ors
Ġpreced ed
Ġprev ents
ĠDiv ine
ĠLeg ion
dro pping
ĠNove mber
Ġinfuri ating
jerk er
ĠPed ro
dun it
Ġeer ily
C ary
C andy
C ode
H ello
P ierre
R ated
S O
g rown
i ating
m ie
p ers
r unt
w ig
Ġt ighter
he res
Ġw impy
is ure
Ġf rog
Ġb er
es see
Ġto ll
Ġd ice
Ġd ung
Ġg oth
Ġg rit
Ġn avy
Ġn anny
st upid
ĠT iny
ĠT amb
ĠT roll
ĠT olk
Ġre write
Ġu h
Ġan at
Ġse m
Ġse w
ĠS ang
Ġh ug
ĠM ON
ĠH athaway
ome z
Ġdo ses
us al
Ġv oters
Ġwh ine
ĠR ouge
qu els
ĠF irth
ĠF reaks
ĠG oo
ĠN eg
Ġun question
Ġman nered
Ġno isy
Ġbl o
ĠY o
ĠY ee
Ġfl uffy
ĠIn side
Ġra v
Ġnew est
de ep
ran ean
utes y
Ġ3 6
Ġart iculate
uck le
ten borough
Ġdel ve
ĠAn iston
ĠCl erks
Ġsing ular
Ġcra ze
ĠAt will
ank y
Ġclose ups
Ġz eal
Ġmaster y
Ġbra very
Ġbra wl
Ġlist ing
Ġcrit ically
Ġste pping
ĠDan ielle
ĠPe gg
Ġforg iving
ĠPaul ine
ĠAm sterdam
ĠGr anger
ĠBen igni
hys ical
ĠOh io
uro pe
ĠSim ilarly
Ġtast y
belie ve
ĠLu kas
OO L
Ġstat ure
con ne
Th omas
Ġloud ly
Ġthin ly
Ġaim less
Ġmagnific ently
ĠColl ection
Ġbat hing
Ġquir ks
ĠWhe eler
than ks
Ġhey day
Ġrepet ition
Ġshut tle
Ġflo at
Ġcontact s
Ġparticip ation
Ġcapital ism
Ġactiv ist
ĠDi aries
Ġthro ats
bu cci
Ġconven ience
cr atic
Ġcowboy s
Ġpatri otism
ĠReturn s
Ġsou lless
ĠRud olph
Ġgamb ler
ĠImp act
Ġglor ified
obs essed
Ġinherent ly
Sim ply
ĠMey ers
Ġincest uous
ĠKey stone
ĠHapp ened
Ġincon sequential
forman ce
ĠOlymp ic
Ġtwent ies
ĠPau ly
Ġgy psy
ĠRab bit
ĠBOR ING
Ġmisogyn istic
ĠFo ley
Ġadren aline
Ġconn iving
Ġreleg ated
Ġgenoc ide
Ġravis hing
Ġtobac co
- '
A tt
B rit
C inem
C amp
E xt
F ORE
O scar
P redator
R ad
T ed
b os
b ach
c andy
f y
f arious
o ften
r iet
s ie
u ating
Ã £
Ã ł
he es
re ment
Ġm uddy
Ġin fin
Ġl ament
ĠI chi
ut a
ut tering
Ġmo le
ĠT rap
ho ff
Ġhe iress
ra ce
Ġst itches
ith ik
ro se
ĠS it
am ura
Ġli ed
ill o
ĠC reature
ĠC romwell
ĠH il
ĠH un
ĠH oney
ĠW rest
Ġpl oy
Ġso re
Ġv iv
Ġde pl
Ġde fic
ĠL ab
Ġne farious
ast ards
ĠF inding
ĠG remlins
Ġme anders
Ġen compass
ere r
ĠY a
ĠY ugosl
Ġte nded
Ġye arn
ĠSt ation
Ġsl uggish
ĠAl pha
Ġdown load
aw ays
Ġown ing
az ed
rill a
Ġbas ics
Ġsho ps
Ġext rem
uck ing
hip s
ĠWe isz
Ġtalk ie
Ġcomm ands
ĠRe in
Ġheart break
Ġloc usts
Ġmis chievous
Ġav al
ĠSome body
Ġdocument ed
Ġprom inently
ĠAm elie
bo ards
Ġexplo iting
arre l
Ġhom icide
For get
Ġsick ly
Ġble nding
AD Y
ĠHa ven
Ġ196 2
Ġsum ptuous
Ġ194 8
ĠTim my
ĠHall mark
Ġwilling ness
Ġmission ary
Ġrelie ved
Ġelect roc
.' <
Ġspeed ing
Ġju icy
Ġtext book
Ġwel comed
Ġfle et
ĠSH OULD
Ġcompos itions
Ġstalk s
ĠFair y
ĠWind s
Ġbutt ons
Ġeleg ance
ĠFore ver
ĠSqu ad
ĠBus iness
Ġburst ing
ĠCow ard
Ġdevast ated
Ġengross ed
ĠNort ham
ĠVen ice
ĠChamp ion
Jul ie
Ġreck less
Ġhypoc ritical
ĠPleas ence
ĠKit ano
Ġcurt ain
ĠScreen play
ĠBright on
Ġdisillusion ed
ĠBurg ess
Ġconsumm ate
ĠBick ford
ĠTimber lake
Ġshenan igans
ĠTolk ien
) -
C D
D E
G l
G old
K im
R es
R am
R os
b ottom
d isc
d ancing
k u
m outh
n one
Ġs ult
Ġs not
Ġf ading
Ġc roc
on ation
at u
Ġl yn
Ġl aund
br idge
ĠI R
Ġ/> ...
Ġre jection
ra ught
Ġst adium
ro ps
ĠA bs
ĠA ishwarya
Ġth irteen
ĠB alt
ĠM ama
ĠC ant
ĠH ild
ĠH AS
ĠH aines
ers erk
ĠD ynam
Ġsc or
Ġso ck
us cious
ist ical
ĠF iennes
um per
ĠG ale
ĠG ump
ĠE aster
Ġlo ath
Ġshe et
Ġ1 10
pl icated
ĠK not
ac ies
ass binder
Ġsp ades
Ġfl ips
ĠBut t
ĠBut ton
Ġunder dog
Ġch unks
Ġinv al
Ġsha mb
ER O
Ġdel inqu
Ġgra bbing
ĠAll ey
ĠSc ene
Ġsk ies
Ġsk irt
Ġey ed
Ġind ign
Ã© n
ric ane
ank a
Ġref using
Ġrid icule
rop a
cha nd
ief er
ĠHer zog
Ġtechn o
Ġund erest
Ġpublic ly
Ġdumb ed
Ġrecogn izes
ĠMad ness
cent ury
ĠSer ial
war m
Ġpun ks
ĠMexic ans
ĠCor bucci
ĠDu kes
ĠHigh way
IT CH
ĠPal m
Ġclean er
ĠBo at
ĠDick inson
Ġassoci ation
Ġtrib ulations
ĠMa ury
Ġtor ch
Ġcollect ed
198 7
ĠClark son
ĠShakespeare an
Ġinvent or
sm all
Ġconfess es
Ġrank ing
Ġfairy tale
Ġargu ed
Ġfinan cially
ĠAir plane
ĠWonder land
Ġpresum ed
sl asher
ĠFore ign
box er
ĠCall ahan
ĠGeor ges
Ġmaniac al
Ġobser ving
196 8
Ġbog us
ĠMod ern
ĠReno ir
Ġimperson ation
Ġpattern s
Ġdiamond s
Second ly
Ġresear ched
ĠHale y
Ġartic les
Ġsor ority
Ġdegra ding
ĠMir ren
Ġunsc rupulous
ĠBlanc hett
ĠHOR RIBLE
bill ies
Ġmerciless ly
ĠPak istan
ĠPalest inian
Ġdistaste ful
ĠGodd ard
Ġsuperl ative
ĠCoy ote
Ġunres olved
Ġrook ie
9 5
B ette
E scape
M ag
P LE
T ex
V incent
W alter
b eth
c ity
c oun
f rey
m or
n io
p ack
he ster
is ations
Ġf ing
Ġf ile
Ġb ollywood
Ġp hant
at tered
ĠI ris
ot ted
Ġn av
st arring
ĠT ill
ĠT ab
Ġst akes
id get
ĠS omerset
am ong
ĠH AD
un ci
un fortunately
Ġsc um
Ġsc orn
ol fini
Ġv ind
ĠP i
ĠP hy
ĠF ighter
Ġcon qu
Ġcon tender
ĠJ arm
ĠJ FK
red eem
ĠG iam
ĠG onz
ĠG omez
au ra
ig ers
Ġle isure
ĠK w
Ġthem ed
Ġthem atic
Ġpe p
int ellect
ass ador
ian g
Ġbl ade
Ġgu ided
Ġte amed
ĠV itt
ĠHe avy
ĠSt anton
the med
ĠCh ronic
rent ice
ran k
Ġsha bby
Ġput rid
Ġcare free
ĠDe pp
Ġrest less
Ġexc rement
Ġvis itor
Ġimag ining
Ġhome work
Ġcra w
Ġret ains
Ġcop ing
ĠSte iner
com mun
Ġwa ist
ĠCar re
ĠCar lin
ĠTHE N
oub t
Ġpat rons
ific ations
Ġprov oke
Ġgun fight
ĠCon chita
ĠDavid son
Ġteam ing
ĠSh rek
Ġadult hood
oun ce
Ġinsp ires
Ġfront ier
ĠGu er
Ġcry pt
Ġmad ly
Ġbeha ves
ĠSw ord
Ġrevol ve
Ġdraw back
Ġcru c
Ġur gency
ĠRo ach
Ġescap ist
ĠBel gian
ĠEr nie
Ch ild
Ġloss es
Ġthor ough
Ġempt iness
Ġbur gl
ĠBar bra
ĠAv a
ĠWal ters
fl ies
Ġfund ed
Ġestabl ishes
ĠMcG regor
Ġspark ling
Ġpan ache
Ġrot ting
Ġnewsp apers
Ġrank ed
Ġslo pp
Ġscr ut
Sh ort
ĠConn olly
Ġfro gs
Ġmisunder standing
ĠTechn ically
ĠEX ACT
Ġleaders hip
Ġje opard
ĠPL AN
Int erest
Ġintr usive
Ġsup remely
inds ight
Mur der
Ġbully ing
Ġlam est
Ġedit ors
ĠKent ucky
ĠBea vers
ĠMurd ers
Ġcram med
viol ence
ĠPu erto
Ġintertw ined
Ġhust ler
ĠCirc us
Ġdecad ent
Ġdiscern ible
Ġclut ches
ĠLen o
Ġclin ic
Ġstair case
Ġcompris ed
ĠDialog ue
Ġunrecogn izable
ĠKare ena
ĠNAS A
Ġunforg ivable
Ġarbit rary
ĠRosal ind
Eliz abeth
holl and
Ġcontempor aries
Ġdiscom fort
Ġattribut ed
Ġsubvers ive
ĠVisc onti
ĠGilm ore
B o
B ar
F OR
I X
J e
M in
M ax
N T
O C
O l
S outh
U LL
V ir
j ee
l man
n n
r ina
Ġt iring
Ġa ficion
he ar
in burgh
re esome
Ġb en
Ġp anc
an or
Ġin human
st ruck
il itary
se nd
ad ult
Ġse aled
ĠS elle
ĠS umm
am oto
her ty
ĠM use
ĠM erry
ĠM uppets
Ġwe igh
ĠH ark
Ġso cks
Ġcha lk
ĠR ank
ĠR enaissance
ĠF lo
Ġsome ones
ĠG ul
Ġr ushing
Ġtime ly
Ġen vision
pl ings
ĠK ick
ab ama
Ġback story
ĠIn uyasha
Ġsur ve
Ġche ats
oss essed
Ġfin anced
hen ce
rent ial
Ġel usive
co very
co vers
ĠDe bra
ĠTH REE
Ġsk ate
Ġmar ch
Ġele phants
Ġyear ning
Ġgener ates
play er
Ġpass ions
Ġdri fter
Ġ9 11
Ġann ual
Ġpat hetically
ific ent
ĠFran z
Ġannoy s
Ġhon our
ĠTom lin
**** **
olog ies
Ġut tered
Ġconcept ion
belie vable
ĠBlack adder
Ġbattle field
Ġble nded
Ġrespons es
Ġnatural istic
Ġuns ub
ĠDu k
aud lin
Ġgri zz
osh i
ĠWild e
ĠDam n
Ġframe work
Ġmini ature
ĠSE C
Ġincreas es
Ġconsequ ently
ĠMaster son
Ġgig gling
Ġharm ony
Ġaccompan ies
ĠCap one
Ġmyth s
Ġcy borg
Ġplant ation
Ġdomin ant
Ġhill billy
OP LE
Ġdom ain
ĠBeck ham
Ġexhib its
ĠRic o
Ġpsychopath ic
ĠNort on
ĠLor i
ĠSnow blood
Ġblur red
ĠBoo geyman
Ġritual s
olt z
Ġdivers ion
Ġmeas ured
Ġbless ing
Dis ney
Sat urday
Ġglee fully
Mat thew
Ġdisin te
Ã³ n
ĠMacL aine
ĠPir ates
Phant asm
ĠEt ting
Ġnarciss istic
Ġmercen ary
Cann ibal
anth rop
Shan e
ĠPE OPLE
Ġmand atory
Ġaggra v
Ġmism atched
ĠUrs ula
Ġensu ing
ĠAlexand re
Ġaval anche
C ons
N ormally
S ound
W AYS
b esides
d ings
f our
f les
f air
s ci
t i
u u
u ros
v io
w ives
w ait
Ġw imp
ha b
Ġd up
Ġl as
Ġl ent
Ġl ured
Ġl uscious
br oken
Ġn est
st ud
st airs
ĠT our
Ġre pt
Ġre jo
ro pe
ĠS A
ĠS is
ĠS ier
Ġh indsight
ĠB AB
ur ro
ĠM A
Ġwe aves
ĠC AR
ĠC airo
ĠW erner
Ġat omic
un ion
Ġpl ausibility
Ġcom ically
Ġcom rades
ĠP are
ĠL OOK
qu itous
ĠG ol
ĠG ino
ĠG oku
ĠN im
Ġlo go
ĠO thello
Ġstory t
Ġen gin
Ġend orse
are y
Ġar rows
Ġim b
ass ja
Ġad ored
Ġsp ook
ark s
ach man
Ġimp ossibly
iv ia
Ġhum ane
Ġres orting
Ġob jection
av ian
az a
Ġacc ustomed
Ġclass ify
Ġbo ats
Ġpres erve
Ġmar ine
uff ed
Ġmen u
Ġ4 00
ĠAr ts
ĠAt tenborough
Ġwa ving
rom ance
ĠCar lo
ump kin
gu ins
Ġfore ground
ĠWar riors
Ġesc ort
Ġmet ap
sh irt
Ġbody guard
gra nd
Ġapart ments
Ġunf aithful
Ġland lord
Al ice
Ġnarr ates
Ġgrand eur
ĠPr ide
Ġmale volent
Ġrock y
Ġoper as
Ġoper ations
Ġstep mother
Ġsubtle ties
ĠDes i
Ġ196 5
Ġ194 6
ĠGold smith
Ġmood s
Ġspect ator
Ġdisg runt
ĠHam ill
oph ilia
Ġspl iced
ĠGar rett
Ġspectac ularly
lev ard
Ġaccompl ice
Ġcivil ized
ĠWin ston
Ġlay ered
Sc ary
Ġeduc ate
ĠColumb us
ĠTurn s
Ġvac uous
Ġvac uum
Ġtem po
Ġskill ful
Ġfle es
Ġpunch line
ĠMin ister
Ġexagger ating
ĠBu ild
Ġexcess es
Ġexcess ively
Ġrend ers
ĠLam as
Ġremo ving
Ex cept
ĠPlay boy
ĠBa iley
ĠPort man
ĠHung ary
Look ing
Ġsust ained
Cha ract
Ġapplaud ed
Ter rible
main ly
Ġdecor ated
ĠQue ens
ĠGand olfini
Ġrecre ation
person al
ĠIslam ic
ĠMalt in
Ġpione er
ĠMam et
ĠTER RIBLE
Ġaer ial
Ġsprink led
Ġhomop hobic
ĠWed nesday
ĠLup ino
ĠPortug uese
Ġridd led
Ġschm alt
ĠMadh uri
susp ense
Ġguid ance
Ġintermin able
ĠJarm usch
B aby
B arry
G erman
K ee
S ave
a is
b ent
b ble
f ia
g host
h uh
k royd
l ent
l ast
l iness
l oose
p ay
he avy
Ġs me
Ġf ury
Ġf erry
Ġf aked
Ġf ugitive
Ġb rew
it ory
ing way
Ġp ent
Ġd ing
ĠT reat
Ġha iled
Ġre form
Ġst all
id i
Ġy upp
Ġan chor
Ġse ed
Ġse wer
ĠS as
ĠS unny
ĠS aving
oo ge
ĠB il
ĠB asket
ĠM ASS
ĠC E
ĠC aucas
ĠH anna
ĠH anson
ĠW on
ĠD IE
Ġact ively
pp le
ak is
Ġv ows
ous in
ĠL ep
op ha
ĠR aul
ast on
ĠJ ade
red it
ĠG ert
ĠN arnia
os a
ĠE VIL
Ġman e
ĠO dyssey
Ġsh ifting
ge ons
ell s
ĠK ry
ment ary
ab ble
ne cks
ass ed
ull er
ull iver
ĠV ing
ĠV io
ip ing
Ġra g
ang led
Ġgen iuses
Ġtru cks
Ġsupp lied
Ġsupp orters
Ġsm irk
ib les
Ġlead en
Ġel ic
Ġgra vit
ident ly
Ġdist raught
Ġass ess
ĠAr ound
ĠZ oe
Ġsmall est
Ġ5 5
Ġfavor able
ĠHar vard
Ġwa its
ĠCar m
hol t
ĠMc P
uss ian
Ġdem ocracy
ĠSha rif
rib ed
ĠQ U
Ġeffort less
Ġsol itary
Ġshoot ings
ĠEd inburgh
Ġfour teen
OR S
ean uts
ĠEl mer
Ġear ning
ĠAny how
ĠBen icio
ĠMart ino
Ġcat alyst
Ġproject ed
Ġmill ennium
Ġimm ersed
ĠGl obe
Ġcontr asts
ĠNat asha
Ġqual ified
Ġmagn etic
pret ty
Ġcelebr ating
Ġpra ising
Ġawkward ly
Ġge ared
Ġsepar ation
Ġuncom mon
Ġcontrast ing
200 7
Sc ar
Ġbuff alo
Ġaltern ately
Ġexperiment ing
ĠMer lin
ĠCast ell
Ġgentle men
Ġparticip ating
ĠLam bs
Ġremo ves
Ġcontest ant
Ġrev ived
Ġfond ness
ĠShan e
Ġcock tail
!!!!!!!! !!!!!!!!
Ġwrap s
Ġtail or
******** ********
ĠDoll ar
Ġencoura ging
Ġje ep
Ġpersu ade
Ġboun cing
pol itical
Ġincorpor ated
ĠBark in
Ġenlight ened
Ġcontempl ate
Ġseam less
ĠCong ress
ĠFal con
Ġwre cked
Ġbewild ered
ĠTeen age
Ġinsuff erable
Ġpunct uated
Ġacquaint ance
ĠDepart ment
Ġappet ite
Nic hol
ĠTenn essee
Ġapl omb
Ġwast eland
Ġperce ive
Ġimmort ality
ĠSanti ago
Ġblo ated
' ;
B ay
D ean
J ac
L ots
M ade
P ut
T ube
c ard
d et
g id
h l
j an
v ar
w reck
Ġ !<
in ner
Ġs izz
Ġm audlin
Ġb ru
it ized
ing es
en act
ou x
br ill
ut ional
Ġbe ers
ĠT in
ĠT ark
Ġre els
ra w
ra ine
id ine
ad ventures
Ġu bi
ĠS ag
ĠS ob
ĠS we
Ġh ubby
ĠThe ron
Ġth reesome
ĠM um
ĠM aug
ĠH ole
ĠW ool
Ġal oof
Ġal pha
ol ine
Ġde pendent
ĠP oo
ĠR ED
ĠR UN
qu ally
ĠF assbinder
ĠG L
ĠG ross
ĠG ena
Ġun pretentious
Ġun noticed
Ġtim ed
ud ing
Ġlo bby
Ġno ds
ĠK h
ĠK an
ĠK ab
ĠK lein
og ging
ac id
Ġwr ath
Ġbl ob
Ġbl asp
Ġfl irting
Ġhor n
Ġspe ar
ĠSt oltz
ĠU m
Ġinc arn
Ġpr anks
ĠAl b
ĠAl vin
act ly
de f
ib re
Ġsha ft
hes is
ime ly
Ġcr ushing
Ġcr otch
Ġext ension
ov ic
ane y
ex p
ex ter
Ġty co
Ġgra ces
ident ial
inc y
ĠAn ita
Ġtalk ies
ĠSc are
ĠSe ed
Ġdisappoint ments
ĠSp ade
Ġrep ublic
Ġwrong ed
Ġind icated
Ġexam ines
ĠHar p
Ġmis repres
ĠDon nie
Ġvill ages
ĠSome where
Ġpur ple
ey ton
ĠSha un
Ġlist ens
Ġgun shot
ĠBr as
And rew
Ġtechn ological
real ism
Ġequ ipped
ĠAm ber
Ġclim bs
ĠBen o
rid a
ĠTw ist
ĠChe ech
Ġfasc ist
ĠPat sy
Ġcommon ly
boy friend
ĠAust ria
ĠPro f
ĠLou ie
har ine
ĠOF F
ĠStar gate
Ġpract icing
Ġgovern or
ĠBig foot
Ġfresh ness
ĠAlex andra
ĠMel ody
ĠMel bourne
Ġpictures que
Ġhighlight ed
ĠEr in
ĠTer i
ĠFe ld
Ġprogress ive
Ġprogress ively
ĠRos en
mar ried
ĠBet hany
Sp ace
abb ing
ĠCam era
Ġtun nels
Ġexpert ise
ĠBor g
ĠRoman o
Ġske let
ĠANY ONE
Ġmerc ifully
Ġpray er
ĠMeg an
Ġhes itation
Ġgee ks
Ġmock umentary
Ġdecl ares
Ġgradu ated
God zilla
Night mare
ĠTal iban
charact ers
Ġsuspic ions
ĠJen na
lad en
Ġboun ce
Ġblur ry
Ġreck on
Ġrefuge es
Ġwoe ful
ĠOp rah
ĠGos ling
cal ibur
pres ent
Ġinstrument al
Ġunimp ressive
ĠYan kees
ĠConst ance
viol ent
ĠFerr ara
Through out
Ġnymp h
Ġgodd ess
mur der
Ġcaret aker
Friend s
Ġparaly zed
intellect ual
7 6
D em
E ach
P aris
R ingu
T op
T ruly
g uns
h im
k wood
l ists
Ġt abl
er ving
Ġf ri
Ġm ull
on k
Ġd oo
Ġd ash
Ġin k
at z
ar iously
ĠT ud
ho g
ent ity
et ers
gh i
ĠA ur
ĠA bel
ĠS entin
ĠB ones
ur ities
ĠM anson
ĠC yl
Ġare na
ul ah
ĠD AY
Ġsc an
Ġsc oring
Ġfr ater
Ġall y
ĠP itch
ĠL DS
ĠR ATING
Ġcon quest
ĠJ ensen
Ġun ful
ĠE scape
ĠK ud
ment al
te acher
Ġpe er
Ġover act
Ġhow ling
Ġpre occup
ĠV erm
Ġback ward
Ġra pp
Ġbr ides
Ġsl ashing
!! "
Ġinc arnation
ĠAl ba
ĠAl abama
ĠCh iba
ĠYou Tube
ray ed
ee ee
ĠBe ginning
ĠDe er
Ġstr icken
ĠCl if
ĠSp oiler
Ġwrong ly
ĠSte fan
IN AL
Ġcoll ar
Ġside walk
ĠIs abel
ĠRobert o
AN CE
Ġspeak ers
ph ones
ili us
Ġ6 5
gra m
Ġequ ality
EN S
Ġeng ulf
St ay
Ġbar g
Ġexec ute
Ġappro ve
Ġfamiliar ity
AD E
Ġmid way
ĠSw itzer
ĠTr ilogy
har m
Ġcompet itive
Ġsqu irm
Ġoccur rence
Ġisland s
Ġpack ing
Ġlog ically
ĠSch wart
Ġresc ues
Ġresc uing
Ġden ominator
Ġaccom mod
Ġprofessional ism
Ġham ming
ĠRos ario
Ġprotect ed
Ġprec ocious
ga ard
ĠSun rise
ĠSho es
ĠCass andra
ĠSin bad
197 0
ĠPre ity
ĠBurn ing
Ġpupp ies
Ġcoinc identally
Ġelev ated
ĠJac qu
ĠRain er
Ġinnov ation
Ġvent ures
ĠMAN Y
Ġjew els
ograph ies
Ġnail ed
Ġalb ums
Che ck
Ġhumili ated
ĠTru ff
ĠDirect ors
Ġmesmer ized
ĠEle phant
ĠEle anor
Ġawa its
Ġadopt ion
ĠWol fe
Ġlibert y
Ġmeas ures
ĠCON TAIN
vas ive
Ġreported ly
Ġconfir ms
Ġinflict ed
ĠFO X
ĠBarn es
ĠCale b
ĠBruck heimer
Ġsynch ron
Ġtelegrap hed
ĠDac ascos
Ġkinderg arten
ĠByr ne
ĠTamb lyn
Ġengin es
) )
C ould
F ire
F ans
I F
I Z
J erry
N ice
O G
U nt
W riter
b oo
b illed
c uts
f isted
g rim
l ive
p owered
s ure
s ac
t or
Ġa qu
in stead
re a
Ġb id
Ġp ets
Ġp arrot
Ġl ingers
ar oo
Ġg houl
ĠI ago
le men
Ġst oop
ro lling
ĠS ak
ĠS ign
ĠS UN
ĠB uc
ĠH ate
ĠH auer
ĠH IV
ĠH mmm
ĠW ig
em a
Ġal arming
ĠL ara
ĠL anguage
ĠR iley
ĠF og
ĠF raser
ĠE M
ĠO g
ĠO VER
ĠO wl
Ġsh udder
ĠK un
Ġper se
Ġper vert
our nal
Ġar oused
iz zy
les que
Ġtra m
Ġtra it
Ġdec ay
Ġpr at
az zy
Ġinv ading
Ġes p
ord a
ĠHow ling
Ġep onymous
Ġep idemic
Ġel icit
Ġour s
ĠCha ll
ĠCha vez
ĠCl own
Ġunt imely
Ġsty list
ĠSp inal
Ġind o
ĠSte iger
com ic
Ġamaz e
ĠCar on
ĠMc Int
Ġmor ph
Ġeff em
ik off
yp o
ĠKe nd
Ġcool er
ili ation
ĠSh u
Ġbar rier
Ġthrow back
Ġpost s
Ġappro ved
Ġlaw yers
bl owing
ĠPh ot
Ġcommun ities
Ġformer ly
Ġess ay
ĠMe at
ĠHa unting
ĠDes mond
Ġpu er
Ġcrim inally
Ġdanger ously
bb its
Ġassum ptions
ĠSec urity
ĠSch um
Ġdiv ide
cra zy
ĠCanad ians
Ġhide ously
Ġunw ittingly
200 6
Ġcorrupt ed
ĠBrad ford
Ġdescript ions
Ġevol ves
ĠRa ft
ĠHad ley
ĠLI V
Ġperpet ual
ĠCher yl
Ġobser ver
Ġsand wich
Ġsett les
sur prise
ĠSupp osedly
ĠMcCart ney
ĠVar gas
Ġrefuge e
Never theless
Ġpreced ing
Ġfren zy
Ġgap ing
ĠMant le
Ġmemor ably
Ġorg ans
Ġorg asm
Ġrant ing
ĠInn oc
ĠAven ger
tal ent
Ġmanufact ured
ĠDy ke
Ġsociet ies
AZ ING
ĠMead ows
Ġcompon ent
Ġbabys itter
ĠRegin a
ĠDuc hov
Ġincess ant
ĠBren nan
ĠPars ons
Ġtestim ony
Tod ay
Ġabomin able
Ġambul ance
Ġdisgrunt led
Ġubi quitous
I ce
K iller
T arzan
V al
W arning
a ffect
b inding
c ased
c ode
f ut
f ried
h ur
j ou
k icks
l ia
m ination
p m
p ace
v ie
Â ĸ
he on
in Ã©e
Ġs ized
Ġw ww
is abeth
it ate
Ġc ough
Ġc ensored
Ġc utesy
ou ri
Ġp its
Ġe cl
ĠT we
Ġha y
Ġha unts
ho pe
Ġse al
ir ious
am o
ĠB ath
ĠB irth
Ġli ven
ĠM ight
ĠM oll
ĠM ER
Ġwe ep
Ġnot withstanding
ĠC ITY
ĠD I
ĠD il
ĠD jango
ag ged
ĠP P
ĠP umb
op era
op atra
ĠR ivers
ast ical
ĠF light
ĠG h
ĠG ov
ĠG ellar
Ġun educated
ig en
ĠE k
Ġup bringing
ĠO d
itt ee
ĠK illing
Ġper ceptive
Ġqu oting
Ġover acted
Ġro aming
Ġdis k
Ġsp rings
ob lins
ĠV elve
ĠHe ath
ĠIn itially
ĠIn fern
Ġhor ns
Ġmus cles
Ġdra ined
Ġpret ensions
ĠCh ill
Ġinv iting
Ġgr umpy
ov al
Ġdel ic
ĠDe anna
Ġstr ut
Ġgl ove
ĠAn akin
ĠMar vel
ĠMar ines
Ġunt rue
ĠZ el
ĠLe an
right eous
Ġmed itation
Ġpick y
ky ll
Ġdr ums
ĠPl at
Ġpos h
Ġdisc arded
Ġmoder ate
olog ists
ING S
ĠPer lman
Ġeng ages
St age
Ġfeature tte
Ġattract s
ĠEn nio
ĠFl oyd
no isse
Ġoccur rences
*** <
Ġpun ish
ĠSch mid
ĠNic ola
Ġcoun cil
Ġblind ly
ĠPres ley
Ġblock s
ĠSus pect
Ġdepart ments
oop ers
ĠLi ber
Ġsurreal istic
Ġtur gid
ĠBE FORE
ĠGener ally
Ġenviron ments
Ġju ice
197 9
Ġsch tick
ĠPitt s
Ġcheer leader
Ġinj uries
Ġsav vy
Ġsurf ers
Ġfet ching
Ġoblig ation
ĠDa ily
Ġfulf illed
Ġexplicit ly
Ġtow ers
Ġnut ty
idel ines
sho ck
Ġmistaken ly
Ġsacrific ing
ĠKay e
Ġvulgar ity
ucc o
ĠSoph ia
Ġincorpor ate
Ġdism ay
Ġlap ses
Fred dy
Ġarist ocrat
Ġawak ens
Ġdecap itated
Les lie
Ġhott est
ĠWa its
Ġsociet al
ĠEri ka
Ġarchae ologist
Ġerr atic
Ġreper to
Ġsabot age
Ġnotor iety
fant asy
Ġinadequ ate
Ġmascul ine
Ġcorrid ors
Ġunderc urrent
Ġ00 7
Ġdisple asure
Ġdisfig ured
ĠCed ric
Ġidyll ic
Ġnort hern
abul ary
Ġbem used
ĠHil ary
Ġsult ry
C OM
E ST
J aws
K iss
L aw
R oy
R eal
R achel
W est
b as
m ale
t em
u ve
v ory
y on
Ã ¥
Ġthe sis
Ġs ans
is ingly
Ġb ait
it ating
ou ra
Ġp anned
Ġl umber
ic z
Ġe ve
Ġn ipp
Ġst oner
Ġy ards
ch io
ĠA mos
ĠS ke
ir i
ri ft
ow itz
ĠM AY
Ġwe ave
ĠD ES
Ġall usions
ag in
ĠP and
op ing
Ġcon ference
ĠG ator
Ġme ek
ĠN i
ĠN anny
Ġlo ony
Ġfa rew
ĠK att
ab ar
ple t
Ġdis em
ap or
ap est
Ġbl axploitation
ĠY oda
ĠY akuza
ĠV III
get t
ĠHe cht
ĠSt ark
Ġch urning
Ġtra ppings
Ġres orts
ĠAl ain
Ġcomp rehension
Ġfin esse
Ġrel ish
Ġkid die
ĠShe l
Ġcons ol
Ġcall ous
Ġrest ricted
Ġsk impy
Ġcra mp
Ġret read
ĠAr chie
ĠZ em
ĠMan ch
ĠÂ ¨
Ġ9 8
rom eda
Ġmis fire
ĠJack man
cha rine
Ġtrans forming
Ġcent res
ung a
ĠBrit ney
Ġgun fire
Ġsn iper
ĠNe ill
Ġsuff oc
Ġemb ell
ĠCol ossus
Ġer ase
ĠSu zanne
ĠEx pl
ĠEx ecutive
ĠAnt wone
Ġsocial ite
Ġaff lu
ĠPro blem
ĠSat anic
ĠCor bett
ĠDu ane
Ġimpl ication
Ġdefe ats
Ġjoy ous
enge ance
Ġresemb led
Ġdeb acle
ĠIN C
Ġaband ons
Ġna Ã¯
Ġopt ed
Ġner ds
Ġwond rous
Ġfate ful
ĠCass ie
Ġconce it
ĠMcG avin
ĠAra bs
Ġservice able
ĠBurn ett
Ġgar ner
ĠAL WAYS
orc ery
ĠProdu ctions
ĠUnder ground
Ġdecl are
Ġperpet ually
Ġingred ient
Ġwha cked
every one
isha ble
Ġarc s
Ġvoy e
ĠDin ner
ĠShah rukh
Ġplod s
Ġassemb ly
ĠGre ase
ĠLill ian
ĠSyd ow
Ġcomprom ised
Sim on
Ġzoom s
ĠLib erty
Ġextrav agan
Ġdeft ly
ĠTro opers
ĠHem ingway
Ġhoriz on
ĠLuci o
ĠGersh win
Ġlifel ong
Ġunrel enting
Ġextravag ant
ĠReve rend
Ġtriump hant
ĠCul kin
Miche lle
ĠPrin ze
Cind erella
ĠSier ra
ĠSentin el
Ġpuer ile
? ...
B A
B attle
D ou
D oo
D ir
R R
W alk
W elcome
a ired
b reed
e ers
f ires
r ums
t rap
t ube
v ictim
w onder
z nick
Ġt rough
Ġt ainted
Ġs ard
Ġw iser
Ġm ummies
Ġb aw
en joy
Ġl ane
Ġg als
Ġg osh
Ġe astern
Ġn am
Ġn ap
Ġn oses
Ġn aval
st ral
al one
Ġbe asts
Ġha cked
ho ven
Ġre ct
Ġy acht
ro lled
ĠS ly
ĠS out
ĠB ri
ĠB ain
ĠB uffalo
ĠM AR
ĠM oses
ĠM isty
ĠC ock
pe lle
ĠW att
Ġsc aring
em ar
Ġwho dunit
Ġall ure
art hy
ag g
ĠL esb
op hile
ĠR ah
ĠR hod
Ġout takes
ist ful
qu eness
ĠG I
ĠG ed
ĠG ru
ĠG abe
Ġun its
ĠE mb
ĠE wan
ge ist
Ġen ab
ĠK ira
Ġag reement
ian i
Ġsp itting
Ġsp outing
own ess
ult i
Ġbr ass
Ġrec ite
Ġrec laim
Ġspe lling
Ġ2 9
ĠU gh
Ġch ic
ren cy
Ġtr an
Ġsur rog
Ġcomp ulsive
Ġev oked
av ors
Ġpret ense
Ġapp ar
ced es
Ġco h
Ġco arse
Ġcar bon
Ġins ensitive
ĠSo fia
Ġrest s
ĠAn imation
Ġrecommend ing
ĠSc he
ĠBl ob
ĠMar co
ĠTh ought
ĠRe a
Ġcra ving
Ã© g
ĠAt kins
Ġ7 3
Ġbeginning s
Ġpar aph
unk en
Ġcomment er
Ġopp ression
ĠInd ust
AN S
ĠGra m
light ly
uri an
ĠUS S
ĠMor rison
ĠMac G
Ġ: )<
con v
ĠMon a
Ġmel ody
Ġ15 0
Ġhang ed
ĠRed emption
Ġunex citing
Ġearth quake
ĠJoan ne
Ġuns av
Ġlab our
ĠST UP
Ġfaith fully
ĠLo ach
see ing
ĠMore au
ĠShow s
ĠSteven son
Ġpra ises
she ll
Ġreact s
het ics
ĠRon nie
Ġens ures
ĠCarl ito
Ġtroub ling
Ġhall mark
aph ne
Ġtem pl
Ġic ing
ĠSy nd
199 8
ĠPo el
ĠLouis iana
ĠHaw ks
Ġdemonstr ation
Ġbond age
ĠDar ling
ĠHA PP
Ġheaven s
Ġbackd rops
Ġtag line
Ġsedu ction
ĠCould n
Ġasse ts
Ġfart her
Ġaddict ive
ĠRoll ing
Ġtemper ament
ĠClaud ette
ĠLOT R
ellig ence
Ġexquis itely
Ġhesit ant
ĠNa ish
Ġpoo rest
tit le
Ġprosec utor
ĠFerr ari
ĠMP AA
Ġswashbuck ling
Ġinstruct ions
ĠFUN NY
Eng lish
Ġrecapt ure
Ġgard ener
accept able
ĠLenz i
Ġrooft op
ĠDies el
ĠPull man
ĠGiam atti
Ġdup ed
ĠMaug ham
ĠSwitzer land
Ġeffem inate
, )
F unny
F ortunately
L isa
R un
S ub
T ales
X X
Z ombie
b op
c ott
d ue
e i
i ose
j in
m ay
r ude
Â ł
Ġt ango
in os
is able
Ġf lex
Ġb ob
ot ent
ot ter
st o
il o
ĠT ar
ĠT orn
Ġha irsty
im on
Ġst em
ay e
ĠS pl
ĠB ret
ĠB ann
ĠB TW
ill ot
ill ance
ĠC O
ĠW anted
ul ence
un ned
ĠD A
Ġex orc
Ġex asper
ag ne
ĠP ang
ĠP ee
ĠP RE
ĠL ime
ĠL yle
ĠL OST
ĠR A
ĠR et
ĠR azz
Ġout ward
qu atch
Ġint est
ĠJ ans
ĠJ ama
Ġr att
ĠE D
ĠE L
ĠO ates
Ġen lists
Ġper version
te chn
Ġro y
ass uming
Ġpart ying
Ġwork ings
ĠY as
ĠV enez
get s
be zz
Ġsl ime
Ġsl apping
Ġcont ra
Ġtr ashed
Ġimp regn
Ġche ered
av is
az ine
Ġinv itation
Ġgr udge
Ġneed le
ĠAs ians
ject ed
Ġinter ludes
ĠDe al
Ġgra ves
Ġspecial ist
Ġcomm ission
Ġmar red
omb re
Ġret ard
ĠAr c
ĠNo ble
IN T
ug n
Ġmis fit
Ġref usal
ĠMc Hugh
Ġpar ole
Ġvill a
Ġgame play
Ġinf l
Ġcomment ators
mb ers
rib ute
ĠGod s
Ġste ep
ĠEd ition
Ġill ustrated
ĠDo e
Ġunf l
Ġodd ity
Ġstri ves
Ġemb od
Ġpost ing
ĠMor i
ĠGu ide
Ġclever ness
Ġhistor ian
ĠChe ung
bor ne
Ġprop ortion
IS E
ĠDes ire
Ġbed s
Ġcritic izing
Ġpun ched
Ġbull ied
amb oo
Ġur ges
Ġescap ism
Ġbehav iors
Ġspl itting
ĠParis ian
Ġbreath less
ĠPal ace
ĠCr ud
Ġsac charine
ser iously
Ġcontrast ed
rat ulations
Ġprint ed
ribut ion
Ġbat man
Ġinept itude
Ġvan ishes
197 1
ĠAdd ams
199 0
ĠCount ess
Ġdemonstr ating
vo ice
Ġsne aks
Ġdiss atisf
Ġelev ates
Ġsevent y
ĠCro ck
ĠPhilip pe
Ġcance l
Ġbust ed
Ġcannibal ism
Ġsadd ened
ĠKer sey
ĠWhit aker
Ġrecru its
ĠMall ory
ĠSP ACE
Jul ia
inter pret
Ġhij ack
ĠTun nel
Ġhitch hiker
ĠMcCl ane
Ġliqu id
ĠWee k
ĠGee ks
Ġdepra vity
Ġric her
Ġsynthes izer
count ry
ĠNan on
ĠAB OUT
Ġrestrict ions
ĠComplete ly
ĠExper iment
Ġclo ak
Ġregist ered
suff ering
Ġdepl orable
ĠDynam ite
Tex as
ĠPhy llis
ĠChronic les
ĠVerm ont
' !
D awn
F ant
G reen
H ol
O rigin
f at
g ues
l ig
l ore
l augh
m ass
m ere
n ial
p aper
r ative
u ce
u its
Ġt int
in um
Ġb icycle
it ative
it zy
Ġp ounding
Ġd ame
Ġd anced
ed ing
at ical
Ġl est
Ġl ampoon
Ġl ounge
ĠT erence
ver ine
Ġst if
ĠS ort
ĠS ER
ĠThe resa
her s
ĠC ave
ĠH air
ĠD D
ĠD urning
ust re
Ġdo l
Ġk itsch
Ġall iance
ak ob
Ġv iable
op ular
ĠR ap
ĠR ated
ĠR ip
ĠF idel
ĠJ ang
ĠG amera
Ġme ager
ud g
ud er
Ġle cher
Ġscen ic
oy s
Ġper vasive
ian ces
Ġsp ins
Ġfl ing
Ġho bby
ci er
Ġmin ions
Ġgen ie
Ġres idence
ĠAl aska
Ġmus cular
Ġbelie vably
Ġcomp ar
Ġfin er
li b
Ġscreen ings
Ġbas es
Ġcle arer
Ġlet har
Ġinter vention
ĠAn il
ĠSc and
ues day
Ġdet r
ĠCl arence
ah oma
ount ain
Ġstar let
ĠZ an
Ġind ict
Ġind isc
idd ing
Ġpower house
Ġsw ings
Ġpar ach
yn asty
Ġstra ins
Ġcomment ator
Ġspeak er
Ġnon stop
Ġdream like
ON S
Ġdev out
Ġinde pend
OR T
Ġdisc on
Ġ6 4
Ġut most
ĠGra f
Ġspoil t
oun ced
Ġmil estone
An im
sw orthy
Ġrock ed
Ġrepe llent
ĠFred eric
Ġphys ician
con ceptions
cle ver
Ġstep father
Ġrevol t
Ġimpro ves
Ġ196 6
ĠJe kyll
Ġfear ful
Ġsqu andered
ĠHol m
Ġalien ated
ĠAngel opoulos
Ġdef ence
ĠSch w
Ġabsurd ly
ĠAb ove
Ġclean ed
ĠEast man
ĠBas ic
Ġprec urs
Ġscrew ing
Ġsed ucing
Ġlesbian ism
199 6
Ġarrest ing
ĠMin utes
Ġacqu ainted
Ġsne aking
hard t
Ġgraph ically
ĠTri p
ĠAL IEN
Ġgro ovy
ĠIce land
Ġmechan ics
Jack ie
Ġgal axy
ĠKrist en
Ġsedu ces
Ġinsist ence
tr ans
ĠMcK ee
Ġsam ple
Ġdetract s
Ġconclud ed
Ġexhib ition
Ind ian
ĠFour th
Ġunst oppable
Ġque ens
ĠRepublic an
ĠViol ent
Jim my
ĠCourt ney
ĠCris p
Ġgym n
ĠTurt urro
Ġvoc abulary
Ġhott ie
Ġattach ment
Ġshrew d
Ġnihil istic
ĠEss entially
ĠChin atown
jor ie
Ġoutburst s
Ġdiscipl ine
ĠNapole on
Ġkidnapp ers
Ġunflin ching
ĠSelle ck
ĠTruff aut
Ġfarew ell
Ġhairsty les
* .
< <
C am
C han
D owell
M S
N N
P ulp
S k
S oon
b are
f ated
f ans
g or
g ast
p ossibly
r ather
s low
u ced
w arned
Ġ .....
Ġt um
Ġt ennis
in elli
Ġo mitted
er b
Ġb ass
ha a
en ne
Ġp or
Ġp osed
Ġd ough
Ġd omination
at hed
Ġl ava
br is
br other
ic ho
Ġn agging
Ġmo res
ĠT as
id ays
ro ianni
ch in
ch ick
ch ingly
Ġan k
ĠA be
ĠS ven
ĠS hop
ĠS incl
ĠB ase
ĠB OY
ĠM ove
ĠM illa
ĠM UR
Ġbut ts
ĠC oo
ĠC ause
ĠC otten
ĠH IM
un er
Ġsc ars
Ġal tering
est e
Ġne c
ĠR ho
ĠF arn
Ġun rest
ĠK ha
Ġcl ones
og ram
Ġqu irk
ny der
Ġgu ise
Ġsp unky
ob al
Ġfl are
ĠV iking
Ġaw ait
Ġwhere abouts
ĠHe ights
Ġent icing
Ġhor rif
Ġrec iting
ual ity
ĠSt arr
Ġch urned
Ġsur fer
Ġdec ently
Ġdown er
Ġsha de
ĠAs ylum
app a
Ġbeaut ies
Ġcle ans
Ġcle avage
co ld
ex c
Ġexc laim
ĠMar ried
Ġrep ression
Ġheart ily
In c
ĠZ ERO
ĠMan iacs
ĠHar mon
ĠCar o
Ġproblem atic
Ġimpress es
cha un
ĠSha l
ĠBr ing
AT ED
aged don
ĠEnglish man
ĠNe v
Ġunf ocused
mm ar
Ġcompl iments
ĠGr oucho
cl usion
Ġbar rage
ows ky
OU GH
Ġactual ity
Ġgrand iose
Ġfront s
Ġrock ets
ĠChan ce
Ġneg atives
Ġbeha ved
ĠFred erick
Ġprop osal
ĠMon keys
Ġdelight s
Ġimpressive ly
Ġsqu al
ĠHol t
Ġdro ll
Ġpers ist
alt ies
ĠX V
Ġhost ed
ĠAlex is
Ġcommer cially
ĠHam m
Ġdiv ision
Ġnumb ing
Ġamb ush
Ġslap s
Ġknock out
Ġbright ly
ĠHel m
ĠLind sey
Ġban ality
ĠRod man
Ġgrace ful
osaur us
ĠChuck y
Ġspin ster
197 2
197 3
Pl ay
ĠSal vation
Ġsnow y
Ġgig gles
hib ition
ĠWall ach
ĠGet ting
Ġadmire rs
ĠCas sel
Ġeth ical
ONE Y
See ing
Ġingen uity
Ġgimm icks
Go ing
ĠRud olf
Ġarrang ement
Ġabdu ction
Ġindu ce
Ġindu ced
ĠRO CK
Ġrecru ited
ĠGre gg
ĠBud apest
ĠCab ot
Ġenlight ening
Ġdrill ing
Ġgam ut
Ġoutlaw s
Ġarist ocratic
Ġtowns folk
Ġster ile
Ġnewcom ers
Ġdecap itation
ĠHos p
Ġpic nic
Ġrevis it
Ġinterrog ation
Ġquot able
Ġanachron istic
Ġundes erved
ĠHost el
ĠKol chak
ĠAG AIN
Ġmicroph one
urope an
Ġreperto ire
B ER
D et
G S
H al
H ad
J ake
M Y
M aking
b iz
c uss
d ifferent
g am
g iven
m ont
p ock
v ino
y les
Ġt idy
Ġw al
Ġo xygen
is ive
Ġto mat
Ġp owered
Ġd ick
br uary
ĠI ne
ĠI RA
il ah
Ġbe nd
Ġmo ll
Ġha ms
ra ined
im il
Ġfor ming
ld a
ĠS ug
oo ps
ĠThe odore
am ps
ĠB less
ĠB rew
ĠM ec
ĠM OST
ill as
ĠC rown
ĠH ERE
ĠW AR
ĠW ords
ĠD ash
Ġfr antically
ess en
Ġso da
Ġal oud
ĠP ia
ĠR ac
ĠR ule
ĠR usty
ĠG at
ĠG as
ĠN urse
Ġun lock
ĠE ileen
ĠK am
ĠK ust
Ġper ipher
Ġshow cased
Ġpe arl
Ġqu ips
Ġar d
Ġpo achers
Ġpo isoned
ac o
th reat
Ġbl urb
Ġbl azing
Ġgu arded
Ġsp ons
ĠY ard
ĠY oko
Ġho dge
ĠHe ar
Ġra lly
ach i
ĠSt age
Ġmin es
Ġri fles
Ġch ur
Ġdown lo
up on
Ġem bezz
Ġinv aded
Ġrel ive
Ġapp all
Ġbo oth
It alian
Ġins in
Ġart ful
ex cellent
Ġinter acting
ĠAn chor
Ġmar riages
ĠRe ality
ĠZ ack
Ġpain st
Ġtyp ing
ĠHer r
Ġprof its
Ġroom mates
Ġsn aps
And y
ement o
Ġcool ness
ph ic
Ġparent al
ura k
mm as
EN CE
cl ose
tt i
Ġcat holic
Ġcap abilities
Ġliter ate
arry l
cle ctic
Ġtort ures
Ġnotice ably
Ġrepl aces
Ġdi ver
Ġsuit or
Ġleg ion
ĠCor ner
mon ies
Ġprep ares
ĠST ARS
pro of
Ġ18 0
ĠMcC all
Ġeight y
Ġbright est
Ġbelong ing
Ġdeb ts
ĠRos coe
ĠDel on
Ġban ana
Ġpress ures
Ġchore ographer
ĠBE L
Ġinex cus
Ġimagin ations
Ġreflect ive
Ġpal atable
198 1
Ġcring ed
world ly
Ġchair s
Ġdiss ol
Mar g
Ġske ptic
ĠProdu cers
rehens ive
Ġlifest yles
Fran ken
ĠFle ischer
bal ance
Ke ep
Ġmaid en
put ting
Ġcannibal istic
Ġsett ling
Ġsadd led
ĠPy un
ĠEVERY ONE
Ġje ans
Ġneighb ours
Ant on
ĠShaw shank
ĠAM C
ĠTrans formers
ĠJol son
Ġpant om
Ġorche stral
Ġobst acle
Ġsquare ly
Pr ince
ĠHend rix
Ġbarb ar
ĠCons idine
Ġexceed ed
ĠSmall ville
clim ax
ĠBul gar
ĠFish burne
ĠAy kroyd
kl ahoma
Lou is
Ġartif acts
ĠBudd hist
Ġdecad ence
ĠBritt any
Wood y
ĠInde pendent
haus en
ĠCambod ia
Ġcontriv ances
Ġpac if
Rog er
ĠOcc asionally
ĠVive k
ĠAlmod ovar
Ġdigit ally
Ġunderwhel ming
Ġlaund ry
opha gus
Ġmane u
ĠVelve t
: "
B ern
C ertainly
D ec
I an
J apanese
M ira
R od
S in
S an
c ou
g ium
j ah
m ins
x x
Ġt ract
he a
Ġw itt
it ic
it ations
Ġc ord
es us
Ġand roid
Ġp inn
Ġl iner
ĠI gn
Ġe clectic
ĠT hal
Ġha il
Ġre play
Ġre build
ent iful
Ġhe ated
Ġst ee
Ġfilm ic
Ġfor bid
ce y
all i
Ġse l
Ġh ilt
ĠB ass
ĠC arly
Ġj olly
Ġk ings
ĠP rey
ĠL ame
ĠL ap
op histic
Ġout weigh
ist ingu
qu ir
ĠF reedom
ĠN ature
ig ated
Ġwat chers
Ġen able
ĠK otto
Ġbet s
Ġover power
ass in
Ġsa p
ĠY v
Ġfl oo
Ġdes irable
Ġrec l
Ġmin im
Ġch in
Ġstill s
Ġpr istine
li ving
sp oon
Ġkid dies
Ġhel med
Ġmat inÃ©e
ĠDe Pal
ĠAn imated
ĠSc r
Ġsk ips
Ġeas iest
ĠZ eta
ĠZ ucco
Ġfail ings
ĠNo el
Ġamaz ement
Ġfant astical
Ġpur se
Ġpur ity
ĠSha nd
Ġcol onel
Ġevil s
ĠInd ie
Ġca ves
Ġill iterate
ĠNe ve
Ġair planes
ĠAny body
ĠQu incy
hel p
bl ah
ĠDra go
ĠLu cia
ĠEn forcer
Ġest eem
Ġterror ized
Ġrad iant
Ġmass ac
Ġscream ed
Ġshar ply
ĠLove ly
Ġpers istent
Ġsucceed ing
Ġappeal ed
Ġmach inations
Ġfreak in
ĠMcC arey
wr ong
Ġden ies
ĠHel ena
ĠSl aughter
ĠOl ive
Ġsepar ately
Ġuncom fort
Ġregret s
Ġdesp ised
abb ling
Ġscrew s
Ġarm ies
dra w
ĠSy mp
Ġbag gage
199 3
ĠKat harine
ĠSal v
ĠMil itary
ĠMil estone
Ġstrang led
Ġbetray s
ĠComp are
BO DY
sm oking
ĠTri ple
Ġgrim y
Ġske leton
Ġpresident ial
ĠRa oul
ĠCro at
ĠHind u
ĠMcK enzie
Ġbott les
Ġwha ck
Ġhopeless ness
Ã¡ n
ĠRO B
ĠTalk ing
ĠCab in
Ġcontradict ions
ĠDud ikoff
ĠPin head
Ġtang led
Me et
Ġabund ant
ĠBou levard
Ġpoll ution
ĠVoy age
Ġvolunte er
Ġunsuccess fully
Ġbree zy
Ġric hes
Ġoo zes
Ġreserv ations
ogen ic
ĠBS G
Ġscarce ly
Whe ther
Ġlum inous
Ġdepri ved
Ġprogramm es
ĠHels ing
Ġloath some
Ġtyco on
ĠPP V
Ġsurrog ate
Ġdiscon cert
Ġtomat oes
? .
E llen
F ive
H i
H it
L yn
O dd
S ullivan
T RE
U B
W all
b oiler
f red
g ary
g arde
j er
k um
k ids
l uck
r ide
s cient
u er
Ġ ie
in ery
Ġs id
is i
Ġb ounds
it ier
es ame
ou ver
Ġp ony
Ġd astard
at ose
ar ce
Ġg aze
Ġe the
ot aur
il ter
il ogue
ie llo
ĠT uck
ĠT ilda
Ġha cking
ent imental
ra c
se ction
ad en
ĠA j
ĠA pe
Ġse aside
ĠS ling
ĠS aints
ĠS nyder
Ġh id
ĠM ays
ĠM ister
ĠH icks
ĠH ARD
ĠW ON
Ġat he
un ction
ĠD up
ĠD utt
ess es
Ġcha rit
ĠR arely
Ġcon noisse
ĠJ C
ĠG ir
Ġr het
Ġpro se
ĠN est
os er
os able
Ġun covered
Ġun spoken
Ġun professional
ig ail
ĠE AR
reat h
ook er
ĠO H
Ġno vice
Ġkn ights
int h
Ġsp at
ĠV ad
ip ated
Ġra ven
ci vil
Ġrec alled
Ġrec reated
ĠSt ur
Ġsub mitted
ĠCh ile
ĠShe mp
view s
Ġ3 1
Ġbo ast
Ġfound ed
Ġinter vals
Ġboy ish
ĠBl unt
ĠRe vol
Ġcop ious
Ġhero ines
Ġcoll age
ĠCar uso
unch ing
19 50
off icial
AT ER
Ġplan ets
ĠEl eni
Ġinn ate
ĠSh im
Ġstri ve
Ġfree zing
Ġred necks
Ġagree ing
Ġimm ers
Ġcond ensed
Ġstat ues
Ġ: -
Ġpointless ly
Ġimpro ving
Ġjump y
ĠGold sworthy
ĠBoy er
Ġfresh man
Ġconflict ing
Be autiful
Ġsoft ware
azz ara
ĠRom antic
Ġreact ing
UT E
ĠMen jou
Ġorgan ic
Ġcab aret
lim ited
col or
Pl us
Ġconce al
Ġlink ing
Ġunp re
Ġconsp ic
Ġenthusi asts
mod el
Ġfarm ers
Ġdiss ervice
cut ting
Ġanticip ating
ĠChic o
Ġgut ter
Ġinstall ments
Ġweapon ry
Ġminimal ist
ĠAud ie
Ġspiritual ity
Com edy
Ġcollabor ator
Ġorphan ed
ĠConf idential
ĠWhit ney
Ġdent al
Ġunsatisf ied
Ġlackl ustre
Ġrul er
Ġple a
Ġow ed
ĠSel znick
ĠFra z
Ġresear ching
FE CT
Ġsched uled
Ġdwarf s
ĠSoc ial
ĠCris pin
Ġunimp ortant
Pol ice
ĠYan kee
Ġwre cks
Ġly ric
Ġresent ment
ĠRid ley
Ġmour ning
ĠRu fus
Ġunav ailable
Ġugl iness
ĠIrons ide
Ġdispar ate
Ġinfat uated
Ġhistrion ics
ĠWinc hester
Ġmisunderstand ings
ĠMatte i
eck is
ĠKru ger
Ġtransvest ite
ĠHoo ver
ĠEthe l
Ġsurve illance
ĠDuchov ny
ĠZem eckis
Ġafflu ent
ĠnaÃ¯ ve
Dou glas
Ġsard onic
ĠMori arty
ĠDePal ma
8 5
D ri
F u
F ox
G ee
J ess
K A
L and
M M
N azi
T or
Z Z
Z ero
b iting
c ond
d ling
d umb
g ut
j ar
j ob
l eness
p ri
t ical
w ielding
Ã «
Ġ ??
Ġt ug
Ġs ided
Ġs ooo
Ġw ary
Ġf iance
Ġm erry
Ġb ail
Ġb erserk
Ġc oo
Ġc alendar
Ġd era
ar in
ie m
Ġha st
Ġst ressed
ro ft
ĠA rist
ĠA iello
ĠS ieg
ĠB i
ur ica
ĠC ulp
ĠH ays
ĠH ines
ĠH atton
ĠW A
Ġat op
un et
Ġsc al
Ġj ol
Ġwho res
Ġex tend
Ġso fa
Ġab hor
Ġcha ined
ĠP aw
ĠP ole
ĠP eanuts
ĠL ili
op en
ĠR ox
and ez
ist as
fe eling
ĠN av
ud a
ĠE R
Ġget away
Ġper ky
ab es
Ġpe as
... '
... ),
Ġover head
int a
ost le
Ġrem aking
Ġspe w
Ġch ord
Ġ19 00
Ġgi ants
Ġpr ices
Ġche cks
** <
Ġsub mission
de cent
Ġworld ly
Ġco in
hes on
Ġsex ism
Ġhand c
Ġcar go
ĠFor bidden
ĠRob son
sy l
Ġrep orting
Ġcred ential
ĠHar bour
Ġcomment aries
Ġmot ley
Ġtele vised
ĠOr phan
Ġant id
ĠAm ityville
Ġemb odies
ĠFrench man
ĠCol t
Ġattract ions
Ġcur ve
Ġfra il
ĠChan ge
bor gs
set te
Ġprop oses
ĠHarry hausen
ĠDes ert
ĠDes ign
Ġrap ists
Ġtrain er
str ings
Ġleg ally
Ġfashion able
uel a
Ġcell ar
ĠMcC orm
ĠCal ig
ĠSpe lling
IE W
Ġham pered
ĠSn aps
ĠJan is
add a
fl ash
Ġtack led
Ġgrace fully
some one
Ġdisp atched
Ġdisp osal
Ġpsycho an
ĠSho ck
upp ance
197 6
ĠAst in
ĠSal ma
Ġevol ving
Ġwand ered
ĠCH AR
Ġgar ish
ĠCap ote
ĠInc identally
Am ong
Ġgradu al
Ġsplendid ly
ĠCher ry
Ġfoo ling
Ġsuburb s
Ġrive ted
cont rol
Other wise
ĠRoth rock
ĠId ol
Ġwig s
Ġsuspic iously
ĠBett any
ĠAM AZING
ctic ut
numb ingly
ĠNov arro
ĠSopran o
ĠStrange ly
ĠHur ley
Ġinfant ile
ĠMol ina
Ġadvis er
Ġchee ky
Ġchee zy
Ġven om
Ġvoc als
Ġenlist ed
Ġobt ained
ĠFi ore
ĠRoh mer
supp osedly
Gr anted
Ġmaj estic
ĠGy llen
Ġcondu ctor
ĠKaj ol
Ham let
Ġfrighten ingly
Ġmutil ated
Ġfisher man
Ġeld est
ĠPend leton
ĠCorpor ation
Ġuntou ched
Ġcaval ry
bus iness
ĠHaz el
Ġprotot ype
ĠWeap on
Ġbenef ited
Ã£ o
ĠKud row
Ġtran qu
ĠSTUP ID
ĠSincl air
Ġpinn acle
5 00
7 5
B urt
C all
E specially
F ight
G inger
K urt
N on
N ER
V ENT
a unt
g um
l orn
m and
o irs
p al
s ister
t ri
v amp
Ġ @
Ġt il
Ġa h
in ine
in uity
Ġw olves
er os
Ġf re
Ġf rol
Ġf izz
Ġm umbo
it os
Ġc oy
Ġc av
ll er
Ġd ross
Ġl ined
ar ance
ar cer
br ained
Ġg aw
ĠT at
ĠT illy
ĠT iff
ver ing
Ġhe inous
ra pe
Ġst ing
Ġan ec
ĠA jay
Ġh ots
ĠB B
ĠB AT
ĠM EN
ĠM ISS
ter m
ul ty
ul ia
Ġsc umb
Ġsu ite
ĠP av
ĠP ool
ĠP ilot
ĠL uthor
ĠR i
ĠR w
ĠF urious
Ġor al
ĠG ypo
Ġr anger
Ġpro st
ĠN OR
Ġcan al
Ġun named
Ġun hinged
Ġun acceptable
ĠE aling
Ġfe eds
so ft
te le
Ġpe an
Ġlook alike
Ġro bs
Ġim min
ert igo
Ġdis hes
Ġsp ans
Ġfl avour
ĠV engeance
get ting
Ġra pper
Ġcont amin
Ġch rist
the m
Ġyoung ster
Ġinv ade
Ġsha pes
gg s
Ġbo res
co x
ov an
Ġinter course
Ġgl ances
ĠSc ho
ĠMar jorie
ĠFor bes
ĠRe iser
Ġhome land
Ġ4 4
Ġass ail
Ġpict ured
Ġopen er
Ġwa iter
Ġmis lead
line ar
Ġdark ened
Ġhon ored
ĠIs abella
ĠSha ggy
Ġfig ur
Ġfore warned
Ġsol ace
Ġdev ote
ST AR
Ġpay ed
!!! "
ĠNe ar
ĠGra ves
vol ved
mm mm
ĠYork er
Ġflaw lessly
Ġtwist ing
Ġsil ently
ĠSim one
with in
ĠSer ge
Ġfear less
Ġproduct ive
Ġtaste fully
Ġrespons ibilities
ĠSand s
ĠBur r
[...]
