{"<|endoftext|>":0,"<MASK>":1,"<PAD>":2,"!":3,"\"":4,"#":5,"$":6,"%":7,"&":8,"'":9,"(":10,")":11,"*":12,"+":13,",":14,"-":15,".":16,"/":17,"0":18,"1":19,"2":20,"3":21,"4":22,"5":23,"6":24,"7":25,"8":26,"9":27,":":28,";":29,"<":30,"=":31,">":32,"?":33,"@":34,"A":35,"B":36,"C":37,"D":38,"E":39,"F":40,"G":41,"H":42,"I":43,"J":44,"K":45,"L":46,"M":47,"N":48,"O":49,"P":50,"Q":51,"R":52,"S":53,"T":54,"U":55,"V":56,"W":57,"X":58,"Y":59,"Z":60,"[":61,"\\":62,"]":63,"^":64,"_":65,"`":66,"a":67,"b":68,"c":69,"d":70,"e":71,"f":72,"g":73,"h":74,"i":75,"j":76,"k":77,"l":78,"m":79,"n":80,"o":81,"p":82,"q":83,"r":84,"s":85,"t":86,"u":87,"v":88,"w":89,"x":90,"y":91,"z":92,"{":93,"|":94,"}":95,"~":96,"¡":97,"¢":98,"£":99,"¤":100,"¥":101,"¦":102,"§":103,"¨":104,"©":105,"ª":106,"«":107,"¬":108,"®":109,"¯":110,"°":111,"±":112,"²":113,"³":114,"´":115,"µ":116,"¶":117,"·":118,"¸":119,"¹":120,"º":121,"»":122,"¼":123,"½":124,"¾":125,"¿":126,"À":127,"Á":128,"Â":129,"Ã":130,"Ä":131,"Å":132,"Æ":133,"Ç":134,"È":135,"É":136,"Ê":137,"Ë":138,"Ì":139,"Í":140,"Î":141,"Ï":142,"Ð":143,"Ñ":144,"Ò":145,"Ó":146,"Ô":147,"Õ":148,"Ö":149,"×":150,"Ø":151,"Ù":152,"Ú":153,"Û":154,"Ü":155,"Ý":156,"Þ":157,"ß":158,"à":159,"á":160,"â":161,"ã":162,"ä":163,"å":164,"æ":165,"ç":166,"è":167,"é":168,"ê":169,"ë":170,"ì":171,"í":172,"î":173,"ï":174,"ð":175,"ñ":176,"ò":177,"ó":178,"ô":179,"õ":180,"ö":181,"÷":182,"ø":183,"ù":184,"ú":185,"û":186,"ü":187,"ý":188,"þ":189,"ÿ":190,"Ā":191,"ā":192,"Ă":193,"ă":194,"Ą":195,"ą":196,"Ć":197,"ć":198,"Ĉ":199,"ĉ":200,"Ċ":201,"ċ":202,"Č":203,"č":204,"Ď":205,"ď":206,"Đ":207,"đ":208,"Ē":209,"ē":210,"Ĕ":211,"ĕ":212,"Ė":213,"ė":214,"Ę":215,"ę":216,"Ě":217,"ě":218,"Ĝ":219,"ĝ":220,"Ğ":221,"ğ":222,"Ġ":223,"ġ":224,"Ģ":225,"ģ":226,"Ĥ":227,"ĥ":228,"Ħ":229,"ħ":230,"Ĩ":231,"ĩ":232,"Ī":233,"ī":234,"Ĭ":235,"ĭ":236,"Į":237,"į":238,"İ":239,"ı":240,"Ĳ":241,"ĳ":242,"Ĵ":243,"ĵ":244,"Ķ":245,"ķ":246,"ĸ":247,"Ĺ":248,"ĺ":249,"Ļ":250,"ļ":251,"Ľ":252,"ľ":253,"Ŀ":254,"ŀ":255,"Ł":256,"ł":257,"Ń":258,"Ġt":259,"Ġa":260,"he":261,"in":262,"Ġthe":263,"Ġs":264,"re":265,"Ġw":266,"Ġo":267,"is":268,"er":269,"nd":270,"Ġf":271,"Ġm":272,"Ġb":273,"it":274,"ha":275,"ing":276,"Ġc":277,"en":278,"es":279,"or":280,"ou":281,"on":282,"ll":283,"Ġand":284,"Ġof":285,"Ġto":286,"Ġp":287,"Ġd":288,"ed":289,"an":290,"Ġin":291,"at":292,"Ġl":293,"ar":294,"as":295,"om":296,"Ġis":297,"his":298,"br":299,"Ġg":300,"ic":301,"ĠI":302,"Ġ/":303,"Ġ/>":304,"le":305,"Ġe":306,"hat":307,"ot":308,"Ġn":309,"ut":310,"st":311,"ct":312,"al":313,"il":314,"Ġit":315,"Ġbe":316,"ve":317,"ie":318,"ly":319,"Ġmo":320,"ĠT":321,"Ġha":322,"ho":323,"Ġre":324,"Ġon":325,"Ġthat":326,"ver":327,"ent":328,"Ġhe":329,"'s":330,"ra":331,"ion":332,"Ġthis":333,"im":334,"se":335,"Ġst":336,"ay":337,"et":338,"gh":339,"id":340,"Ġwas":341,"Ġmov":342,"Ġy":343,"Ġ/><":344,"ith":345,"ilm":346,"ro":347,"Ġfilm":348,"Ġfor":349,"ad":350,"Ġu":351,"Ġas":352,"ce":353,"all":354,"Ġwith":355,"ch":356,"ke":357,"ld":358,"Ġan":359,"ĠA":360,"Ġse":361,"ĠS":362,"Ġh":363,"oo":364,"Ġmovie":365,"ĠThe":366,"ir":367,"Ġyou":368,"ri":369,"ow":370,".<":371,"am":372,"Ġth":373,"ĠB":374,"her":375,"Ġli":376,"ur":377,"ĠM":378,"Ġbut":379,"ill":380,"Ġwe":381,"'t":382,"Ġnot":383,"ally":384,"ter":385,"Ġ(":386,"ĠC":387,"Ġ\"":388,"ĠH":389,"ck":390,"Ġare":391,"ome":392,"Ġhis":393,"pe":394,"ers":395,"ould":396,"ĠW":397,"Ġat":398,"ul":399,"..":400,"un":401,"Ġhave":402,"ght":403,"ĠD":404,"Ġsc":405,"ust":406,"if":407,"em":408,"Ġj":409,"Ġsu":410,"out":411,"Ġfr":412,"Ġact":413,"Ġdo":414,"Ġwho":415,"ble":416,"Ġex":417,"Ġone":418,"ess":419,"ain":420,"Ġk":421,"el":422,"Ġpl":423,"Ġso":424,"Ġcom":425,"very":426,"Ġall":427,"Ġab":428,"ies":429,"art":430,"ood":431,"ant":432,"pp":433,"Ġby":434,"Ġal":435,"Ġcha":436,"us":437,"ol":438,"ak":439,"ag":440,"Ġv":441,"how":442,"Ġwh":443,"Ġde":444,"est":445,"ous":446,"ĠP":447,"ĠL":448,"Ġfrom":449,"Ġthey":450,"ort":451,"Ġne":452,"op":453,"ĠR":454,"ast":455,"Ġlike":456,"one":457,"and":458,"Ġout":459,"ist":460,"qu":461,"ĠF":462,"Ġsome":463,"Ġwhe":464,"Ġint":465,"ven":466,"Ġor":467,"fe":468,"Ġcon":469,"ation":470,"um":471,"ĠJ":472,"Ġher":473,"red":474,"ĠG":475,"au":476,"ough":477,"Ġr":478,"Ġhas":479,"Ġjust":480,"Ġabout":481,"ĠIt":482,"Ġme":483,"res":484,"ract":485,"hing":486,"Ġpro":487,"Ġwor":488,"ive":489,"ind":490,"ory":491,"pt":492,"ĠN":493,"os":494,"ate":495,"ack":496,"Ġcan":497,"Ġun":498,"ig":499,"Ġtim":500,"The":501,"ud":502,"ĠE":503,"Ġle":504,"ire":505,"ake":506,"reat":507,"han":508,"ight":509,"Ġcharact":510,"Ġgood":511,"ich":512,"Ġup":513,"ong":514,"ook":515,"Ġman":516,"Ġlo":517,"Ġany":518,"Ġgo":519,"Ġwat":520,"Ġmore":521,"ĠO":522,"Ġget":523,"ry":524,"ity":525,"Ġno":526,"Ġwhat":527,"Ġsee":528,"Ġfe":529,"Ġwould":530,"Ġvery":531,"Ġfa":532,"Ġthere":533,"ound":534,"ther":535,"nt":536,"Ġsh":537,"Ġmy":538,"ge":539,"ite":540,"Ġstory":541,"ide":542,"Ġbec":543,"od":544,"ard":545,"Ġtime":546,"Ġshe":547,"Ġwhen":548,"ame":549,"Ġ1":550,"Ġen":551,"Ġtheir":552,"ell":553,"Ġscen":554,"Ġwere":555,"able":556,"Ġ-":557,"Ġreally":558,"lf":559,"ure":560,"Ġhad":561,"Ġonly":562,"ore":563,"oy":564,"itt":565,"pl":566,"ious":567,"Ġhim":568,"Ġif":569,"ĠK":570,"Ġper":571,"ick":572,"Ġeven":573,"Ġwhich":574,"ink":575,"ial":576,"Ġother":577,"so":578,"Ġshow":579,"Ġthem":580,"Ġcl":581,"Ġwatch":582,"Ġthan":583,"ment":584,"our":585,"man":586,"ine":587,"ab":588,"ond":589,"Ġkn":590,"te":591,"Ġdid":592,"og":593,"Ġend":594,"Ġdoes":595,"ars":596,"uch":597,"ves":598,"ays":599,"Ġpe":600,"ru":601,"ause":602,"are":603,"Ġlook":604,"Ġgreat":605,"Ġqu":606,"Ġbet":607,"...":608,"Ġbad":609,"ice":610,"Ġmuch":611,"ade":612,"irect":613,"irst":614,"per":615,"ople":616,"Ġar":617,"Ġcould":618,"Ġbeen":619,"Ġpo":620,"ple":621,"Ġinto":622,"ence":623,"Ġover":624,"Ġwill":625,"Ġro":626,"Ġhow":627,"Ġim":628,"Ġwell":629,"Ġmost":630,"Ġpre":631,"int":632,"Ġpeople":633,"ĠThis":634,"Ġtw":635,"ac":636,"for":637,"other":638,"ne":639,"ng":640,"Ġknow":641,"ert":642,"th":643,"Ġdis":644,"Ġthink":645,"ass":646,"Ġbecause":647,"age":648,"Ġtoo":649,"Ġad":650,"Ġus":651,"fter":652,"Ġag":653,"Ġmake":654,"ff":655,"ile":656,"ors":657,"ful":658,"Ġoff":659,"Ġreal":660,"Ġfirst":661,"Ġdirect":662,"Ġpart":663,"Ġevery":664,"ving":665,"Ġthing":666,"Ġmade":667,"Ġam":668,"ull":669,"ny":670,"Ġway":671,"ere":672,"Ġalso":673,"Ġfun":674,"Ġsa":675,"ish":676,"ict":677,"ary":678,"ty":679,"wn":680,"Ġseem":681,"ap":682,"Ġmovies":683,"Ġdon":684,"Ġcharacter":685,"Ġits":686,"gin":687,"Ġwr":688,"oll":689,"ian":690,"Ġ'":691,"ical":692,"Ġmak":693,"ep":694,"Ġbl":695,"Ġgu":696,"Ġcharacters":697,"ress":698,"iew":699,"ue":700,"ated":701,"ces":702,"Ġwork":703,"Ġsp":704,"ĠY":705,"ually":706,"ĠAnd":707,"cc":708,"Ġfilms":709,"ob":710,"pect":711,"Ġfl":712,"fect":713,"iz":714,"Ġte":715,"Ġplot":716,"hed":717,"Ġplay":718,"self":719,"Ġbeing":720,"Ġthen":721,"Ġwant":722,"Ġye":723,"omet":724,"ĠV":725,"Ġseen":726,"ost":727,"ittle":728,"Ġaw":729,"ĠBut":730,"Ġser":731,"),":732,"Ġafter":733,"Ġtwo":734,"Ġyour":735,"Ġho":736,"mer":737,"rough":738,"get":739,"Ġlove":740,"Ġnever":741,"urn":742,"ens":743,"ved":744,"Ġmany":745,"ip":746,").":747,"nder":748,"Ġwhere":749,"ans":750,"ĠHe":751,"Ġacting":752,"own":753,"Ġsay":754,"hy":755,"Ġent":756,"Ġ<":757,"Ġback":758,"Ġthrough":759,"Ġlittle":760,"me":761,"ĠIn":762,"ult":763,"This":764,"Ġlife":765,"Ġbest":766,"Ġhor":767,"ild":768,"Ġsomet":769,"Ġra":770,"du":771,"Ġrem":772,"ather":773,"ily":774,"Ġever":775,"vel":776,"ark":777,"Ġbetter":778,"ever":779,"ris":780,"we":781,"ci":782,"ber":783,"ace":784,"ions":785,"Ġbr":786,"ach":787,"Ġdes":788,"Ġrec":789,"ual":790,"Ġperfor":791,"Ġscene":792,"les":793,"Ġfind":794,"Ġshould":795,"Ġspe":796,"ĠSt":797,"be":798,"ance":799,"ought":800,"Ġsl":801,"!!":802,"Ġscenes":803,"thing":804,"Ġatt":805,"less":806,"ertain":807,"Ġfeel":808,"Ġcont":809,"Ġ2":810,"Ġunder":811,"ting":812,"iend":813,"Ġmin":814,"ĠU":815,"Ġagain":816,"lie":817,"erest":818,"ents":819,"vers":820,"Ġri":821,"'ve":822,"Ġch":823,"hose":824,"Ġhere":825,"ia":826,"Ġkill":827,"Ġinterest":828,"Ġtra":829,"ree":830,"igh":831,"Ġstill":832,"ĠThere":833,"ense":834,"Ġsomething":835,"Ġ19":836,"rd":837,"ning":838,"ren":839,"fore":840,"Ġhapp":841,"Ġtr":842,"Ġi":843,"Ġthese":844,"Ġsuch":845,"ations":846,"Ġsur":847,"Ġlot":848,"'m":849,"Ġinc":850,"Ġperforman":851,"ably":852,"ason":853,"Ġmay":854,"Ġimp":855,"iv":856,"ating":857,"ror":858,"ction":859,"ang":860,"rap":861,"ise":862,"Ġold":863,"Ġhum":864,"Ġcast":865,"the":866,"Ġgi":867,"arly":868,"ase":869,"reen":870,"Ġpoint":871,"augh":872,"Ġgen":873,"Ġdoesn":874,"Ġdec":875,"Ġap":876,"Ġres":877,"alk":878,"Ġthose":879,"Ġwom":880,"ater":881,"Ġsim":882,"Ġfam":883,"irl":884,"Ġdidn":885,"Ġyears":886,"ps":887,"joy":888,"Ġcou":889,"Ġwatching":890,"Ġactors":891,"Ġtry":892,"Ġpr":893,"oth":894,"Ġstart":895,"Ġguy":896,"ĠJo":897,"Ġset":898,"Ġfact":899,"Ġmakes":900,"Ġche":901,"ffect":902,"Ġfunny":903,"oc":904,"ĠAl":905,"Ġgoing":906,"erson":907,"oss":908,"Ġmus":909,"Ġview":910,"Ġenjoy":911,"ute":912,"Ġtak":913,"edy":914,"Ġob":915,"Ġbelie":916,"Ġdown":917,"Ġsame":918,"Ġfew":919,"iss":920,"ath":921,"Ġcomp":922,"up":923,"der":924,"ĠIf":925,"aw":926,"ect":927,"Ġwhile":928,"Ġactually":929,"ale":930,"Ġev":931,"Ġfin":932,"Ġbefore":933,"Ġdra":934,"Ġdif":935,"Ġem":936,"Ġtru":937,"Ġlong":938,"Ġown":939,"rit":940,"**":941,"rigin":942,"ft":943,"av":944,"Ġter":945,"Ġyoung":946,"Ġwhy":947,"cial":948,"Ġprodu":949,"Ġke":950,"act":951,"Ġbit":952,"Ġpret":953,"Ġnew":954,"ience":955,"li":956,"Ġgot":957,"Ġnow":958,"az":959,"Ġdirector":960,"Ġsupp":961,"Ġthought":962,"Ġorigin":963,"Ġsub":964,"ript":965,"--":966,"Ġtri":967,"Ġturn":968,"Ġthough":969,"Ġsm":970,"'re":971,"Ġnothing":972,"ons":973,"ĠCh":974,"ince":975,"de":976,"Ġanother":977,"ub":978,"Ġexce":979,"ose":980,"Ġbig":981,"Ġ&":982,"Ġinv":983,"ew":984,"Ġgirl":985,"hen":986,"ible":987,"rent":988,"Ġcomple":989,"meric":990,"Ġeffect":991,"sp":992,"Ġrel":993,"ign":994,"Ġquite":995,"Ġseems":996,"Ġaround":997,"Ġfriend":998,"Ġthings":999,"Ġgr":1000,"ib":1001,"iting":1002,"Ġscreen":1003,"ically":1004,"Ġenough":1005,"Ġapp":1006,"Ġpretty":1007,"ced":1008,"Ġaction":1009,"ks":1010,"aut":1011,"ster":1012,"ings":1013,"onder":1014,"00":1015,"ween":1016,"Ġright":1017,"ran":1018,"ave":1019,"Ġworld":1020,"Ġscript":1021,"Ġhard":1022,"Ġoriginal":1023,"ately":1024,"Ġco":1025,"ways":1026,"most":1027,"Ġsha":1028,"Ġperson":1029,"Ġbetween":1030,"Ġkid":1031,"Ġtake":1032,"ead":1033,"Ġneed":1034,"ness":1035,"ched":1036,"Ġhigh":1037,"Ġacc":1038,"Ġsec":1039,"rill":1040,"Ġfar":1041,"Ġmust":1042,"hes":1043,"ention":1044,"Ġhorror":1045,"Ġappe":1046,"utes":1047,"Ġgive":1048,"Ġsex":1049,"ward":1050,"ĠAmeric":1051,"Ġes":1052,"ĠShe":1053,"Ġkind":1054,"Ġrole":1055,"ma":1056,"Ġop":1057,"Ġlead":1058,"vious":1059,"Ġmom":1060,"Ġreason":1061,"Ġwhole":1062,"ĠAs":1063,"inem":1064,"\",":1065,"Ġwonder":1066,"app":1067,"Ġbu":1068,"Ġseries":1069,"Ġinteresting":1070,"Ġtell":1071,"its":1072,"orth":1073,"Ġleast":1074,"ner":1075,"Ġisn":1076,"ord":1077,"Ġgets":1078,"Ġalways":1079,"ock":1080,"Ġhel":1081,"Ġcomedy":1082,"Ġchild":1083,"ĠHow":1084,"ash":1085,"Ġput":1086,"Ġtimes":1087,"icul":1088,"ody":1089,"Ġcome":1090,"Ġmain":1091,"Ġboth":1092,"Ġsaw":1093,"ĠThey":1094,"Ġmusic":1095,"gg":1096,"row":1097,"Ġdiffe":1098,"ĠYou":1099,"ully":1100,"Ġexpect":1101,"Ġhand":1102,"ife":1103,"ime":1104,"here":1105,"Ġbas":1106,"Ġexpl":1107,"hn":1108,"Ġwithout":1109,"Ġclass":1110,"Ġminutes":1111,"Ġsho":1112,"Ġread":1113,"Ġcam":1114,"Ġdone":1115,"uring":1116,"Ġide":1117,"Ġmight":1118,"Ġlast":1119,"ines":1120,"Ġalmost":1121,"Ġbegin":1122,"view":1123,"ray":1124,"'ll":1125,"xt":1126,"ouse":1127,"ok":1128,"Ġperformance":1129,"rible":1130,"Ġ3":1131,"Ġcomplete":1132,"bably":1133,"Ġshot":1134,"Ġlaugh":1135,"Ġbeaut":1136,"Ġaud":1137,"Ġcour":1138,"Ġbo":1139,"Ġcare":1140,"Ġep":1141,"Ġinst":1142,"Ġcinem":1143,"stand":1144,"Ġanything":1145,"Ġcle":1146,"Ġsequ":1147,"cially":1148,"It":1149,"Ġentertain":1150,"pris":1151,"Ġfamily":1152,"though":1153,"Ġsound":1154,"Ġaway":1155,"Ġwar":1156,"Ġsince":1157,"Ġcons":1158,"Ġbook":1159,"Ġel":1160,"Ġfound":1161,"ee":1162,"ros":1163,"oney":1164,"Ġcr":1165,"Ġcar":1166,"\".":1167,"ative":1168,"Ġrun":1169,"era":1170,"co":1171,"ialog":1172,"son":1173,"Ġwoman":1174,"Ġcall":1175,"ret":1176,"Ġext":1177,"led":1178,"Ġprobably":1179,"ail":1180,"pecially":1181,"ures":1182,"ms":1183,"Ġdialog":1184,"ograp":1185,"Ġhappen":1186,"wood":1187,"Ġsure":1188,"Ġrather":1189,"Ġins":1190,"Ġworth":1191,"ition":1192,"mend":1193,"Ġdifferent":1194,"ling":1195,"ĠTV":1196,"als":1197,"osed":1198,"Ġart":1199,".\"":1200,"ov":1201,"ane":1202,"Ġadd":1203,"oint":1204,"Ġmat":1205,"ither":1206,"Ġtrying":1207,"ER":1208,"Ġlik":1209,"aster":1210,"Ġkeep":1211,"dd":1212,"ĠBe":1213,"ĠJohn":1214,"arr":1215,"Ġsense":1216,"Ġworst":1217,"ingly":1218,"uck":1219,"Ġour":1220,"Ġmaking":1221,"ten":1222,"Ġcourse":1223,"Ġ10":1224,"Ġlet":1225,"Ġchan":1226,"ex":1227,"Ġabs":1228,"Ġpoor":1229,"Ġbor":1230,"Ġdel":1231,"Ġplace":1232,"VD":1233,"Ġcomes":1234,"ĠWhat":1235,"Ġbelieve":1236,"olly":1237,"ject":1238,"Ġmean":1239,"Ġty":1240,"apt":1241,"Ġpol":1242,"Ġsurpris":1243,"ĠSo":1244,"Ġpres":1245,"Ġhelp":1246,"ics":1247,"Ġeach":1248,"Ġyet":1249,"umb":1250,"Ġgoes":1251,"arent":1252,"ates":1253,"hip":1254,"Ġjob":1255,"isod":1256,"Ġmind":1257,"Ġending":1258,"Ġinter":1259,"ĠThat":1260,"ments":1261,"Ġshows":1262,"Ġplayed":1263,"Ġless":1264,"ream":1265,"Ġanyone":1266,"ĠDe":1267,"Ġproble":1268,"empt":1269,"fin":1270,"ĠDVD":1271,"ortun":1272,"ower":1273,"Ġstand":1274,"istic":1275,"Ġvers":1276,"Ġstr":1277,"Ġgra":1278,"Ġday":1279,"sc":1280,"ont":1281,"Ġbeautif":1282,"Ġlooks":1283,"Ġrest":1284,"lud":1285,"'d":1286,"Ġac":1287,"Ġplays":1288,"Ġmoney":1289,"read":1290,"Ġepisod":1291,"ĠCha":1292,"Ġboy":1293,"ollow":1294,"Ġgl":1295,"ĠWe":1296,"ommend":1297,"Ġconf":1298,"ident":1299,"Ġwasn":1300,"Ġcre":1301,"ality":1302,"Ġperfect":1303,"ilar":1304,"ĠAll":1305,"Ġcreat":1306,"icha":1307,"ney":1308,"Ġeffects":1309,"inc":1310,"Ġactor":1311,"Ġsuper":1312,"Ġport":1313,"....":1314,"Ġhead":1315,"Ġhaving":1316,"gether":1317,"Ġtogether":1318,"Ġlooking":1319,"iece":1320,"Ġsecond":1321,"Ġsaid":1322,"reak":1323,"ĠAn":1324,"Ġtakes":1325,"Ġmem":1326,"Ġfan":1327,"Ġmiss":1328,"Ġcertain":1329,"Ġexper":1330,"arn":1331,"ism":1332,"land":1333,"way":1334,"Ġrecommend":1335,"Ġwatched":1336,"ied":1337,"Ġshort":1338,"Ġaudience":1339,"rist":1340,"Ġunderstand":1341,"ĠNot":1342,"leas":1343,"Ġtalk":1344,"ĠSc":1345,"ins":1346,"Ġexc":1347,"Ġelse":1348,"io":1349,"Ġfollow":1350,"Ġsit":1351,"ĠTH":1352,"Ġsomeone":1353,"Ġposs":1354,"llent":1355,"Ġhalf":1356,"Ġfav":1357,"Ġspecial":1358,"ues":1359,"Ġnight":1360,"Ġhimself":1361,"ĠAmerican":1362,"ĠBl":1363,"Ġfall":1364,"ollywood":1365,"hile":1366,"Ġespecially":1367,"ted":1368,"Ġthree":1369,"cept":1370,"ĠMar":1371,"ited":1372,"ross":1373,"ply":1374,"Ġreview":1375,"day":1376,"10":1377,"Ġcomm":1378,"Ġnice":1379,"ired":1380,"old":1381,"Ġdet":1382,"not":1383,"Ġed":1384,"Ġvis":1385,"ists":1386,"Ġtrue":1387,"atic":1388,"Ġmur":1389,"Ġsk":1390,"ix":1391,"Ġobvious":1392,"ames":1393,"Ġleft":1394,"Ġmon":1395,"Ġuse":1396,"att":1397,"Ġidea":1398,"udget":1399,"Ġentire":1400,"Ġmar":1401,"Ġinvol":1402,"ĠTh":1403,"ĠFor":1404,"iol":1405,"Ġwife":1406,"ĠRe":1407,"Ġcame":1408,"Ġduring":1409,"Ġhour":1410,"ĠCl":1411,"Ġfight":1412,"uff":1413,"omb":1414,"ional":1415,"ides":1416,"Ġmen":1417,"ĠRob":1418,"Ġimag":1419,"Ġfriends":1420,"ier":1421,"Ġdist":1422,"ork":1423,"fully":1424,"Ġseeing":1425,"Ġcho":1426,"Ġele":1427,"upid":1428,"Ġused":1429,"sy":1430,"ĠUn":1431,"Ġfather":1432,"Ġexcellent":1433,"Ġfeat":1434,"Ġeverything":1435,"ah":1436,"Ġtot":1437,"Ġyear":1438,"Ġhome":1439,"Ġeveryone":1440,"Ġlater":1441,"Ġlow":1442,"Ġonce":1443,"Ġhist":1444,"Ġattempt":1445,"Ġversion":1446,"ird":1447,"Ġsing":1448,"Ġey":1449,"appoint":1450,"Ġsimply":1451,"like":1452,"hool":1453,"med":1454,"Ġunt":1455,"ared":1456,"Ġtal":1457,"Ġbeautiful":1458,"Ġcompletely":1459,"ĠSe":1460,"Ġdeath":1461,"ount":1462,"Ġsty":1463,"orn":1464,"Ġgener":1465,"Ġlack":1466,"Ġcra":1467,"Ġdisappoint":1468,"ien":1469,"air":1470,"my":1471,"Ġph":1472,"Ġstupid":1473,"atch":1474,"ool":1475,"ove":1476,"cy":1477,"ery":1478,"Ġret":1479,"Ġperformances":1480,"olute":1481,"Ġportray":1482,"but":1483,"Ġtit":1484,"iter":1485,"Ġ4":1486,"ĠHollywood":1487,"ĠSp":1488,"Ġrep":1489,"Ġstar":1490,"Ġhuman":1491,"Ġass":1492,"Ġinclud":1493,"ying":1494,"Ġpict":1495,"Ġremem":1496,"Ġdefin":1497,"Ġwrong":1498,"Ġopen":1499,"Ġanim":1500,"ott":1501,"Ġserious":1502,"Ġsupposed":1503,"Ġcop":1504,"Ġmess":1505,"Ġviol":1506,"ĠWhen":1507,"Ġheart":1508,"Ġstud":1509,"Ġword":1510,"ets":1511,"Ġtop":1512,"Ġboring":1513,"Ġsy":1514,"In":1515,"Ġeas":1516,"Ġline":1517,"ities":1518,"Ġcouple":1519,"Ġ--":1520,"Ġalong":1521,"Ġwomen":1522,"ider":1523,"Ġconc":1524,"haps":1525,"fic":1526,"ĠAr":1527,"ĠZ":1528,"uth":1529,"lease":1530,"Ġloc":1531,"Ġcamera":1532,"Ġind":1533,"itten":1534,"Ġsmall":1535,"ĠHowever":1536,"ike":1537,"Ġhero":1538,"Ġeither":1539,"Ġhope":1540,"Ġcount":1541,"play":1542,"ideo":1543,"Ġfail":1544,"idd":1545,"ote":1546,"ĠSte":1547,"Ġhouse":1548,"Ġbecom":1549,"Ġblack":1550,"Ġuntil":1551,"velop":1552,"Ġkids":1553,"Ã©":1554,"ains":1555,"ography":1556,"elt":1557,"Ġgiven":1558,"Ġabsolute":1559,"Ġemot":1560,"Ġmoments":1561,"Ġsong":1562,"Ġhumor":1563,"tern":1564,"Ġlight":1565,"fortun":1566,"Ġflick":1567,"itely":1568,"Ġconv":1569,"Ġpass":1570,"ĠOne":1571,"Ġ5":1572,"Ġhat":1573,"Ġsad":1574,"ĠMy":1575,"Ġrom":1576,"Ġ8":1577,"com":1578,"iness":1579,"sel":1580,"Ġproduction":1581,"Ġinstead":1582,",\"":1583,"Ġmother":1584,"ĠAt":1585,"mak":1586,"ax":1587,"ters":1588,"ize":1589,"orm":1590,"Ġbudget":1591,"Ġtruly":1592,"ĠMan":1593,"Ġexp":1594,"Ġwon":1595,"Ġclassic":1596,"Ġsort":1597,"aring":1598,"Ġitself":1599,"Ġgetting":1600,"Ġname":1601,"Ġfull":1602,"Ġschool":1603,"Ġexam":1604,"ĠNo":1605,"Ġparticul":1606,"Ġcred":1607,"ĠWill":1608,"iant":1609,"ories":1610,"Ġfavor":1611,"aj":1612,"ger":1613,"na":1614,"Ġdead":1615,"Ġnext":1616,"IN":1617,"Ġpain":1618,"ĠChrist":1619,"Ġgives":1620,"vis":1621,"ility":1622,"Ġdoing":1623,"ĠÂ":1624,"Ġdep":1625,"Ġface":1626,"mp":1627,"ug":1628,"Ġdri":1629,"Ġreg":1630,"Ġexcept":1631,"Ġamaz":1632,"ĠHar":1633,"Ġawful":1634,"Ġcoll":1635,"Ġwa":1636,"Ġothers":1637,"Ġdevelop":1638,"ĠLe":1639,"ument":1640,"ently":1641,"oon":1642,"Ġplaying":1643,"Ġdialogue":1644,"Ġpower":1645,"ts":1646,"que":1647,"ming":1648,"Ġterrible":1649,"ric":1650,"Ġ9":1651,"Ġlines":1652,"Ġbecome":1653,"imes":1654,"illy":1655,"Ġ7":1656,"Ġslow":1657,"Ġentertaining":1658,"Ġoften":1659,"reme":1660,"Ġtalent":1661,"Ġwent":1662,"Ġwonderful":1663,"rom":1664,"If":1665,"right":1666,"Ġhowever":1667,"Ġremember":1668,"enn":1669,"Ġguess":1670,"Ġlive":1671,"ized":1672,"Ġcouldn":1673,"ĠCar":1674,"ibly":1675,"Ġquest":1676,"ĠNew":1677,"oid":1678,"Ġann":1679,"riend":1680,"Ġliked":1681,"ony":1682,"anc":1683,"Ġvideo":1684,"Ġcor":1685,"ĠTHE":1686,"tic":1687,"Ġmis":1688,"Ġearly":1689,"Ġcase":1690,"ler":1691,"ank":1692,"Ġstars":1693,"ĠMr":1694,"und":1695,"Ġproblem":1696,"ĠOn":1697,"Ġcut":1698,"Ġactress":1699,"line":1700,"Ġref":1701,"Ġepisode":1702,"Ġclose":1703,"ton":1704,"hol":1705,"ec":1706,"round":1707,"vent":1708,"ĠMc":1709,"Ġbrill":1710,"Ġstyle":1711,"Ġpiece":1712,"iam":1713,"Ġdark":1714,"Ġrelations":1715,"Ġimpress":1716,"ured":1717,"Ġmaybe":1718,"Ġmention":1719,"itch":1720,"Ġagainst":1721,"Ġfelt":1722,"Ġstrong":1723,"ĠWell":1724,"Ġz":1725,"There":1726,"Ġtitle":1727,"oot":1728,"ccess":1729,"ĠDon":1730,"Ġrid":1731,"Ġchildren":1732,"selves":1733,"ined":1734,"used":1735,"ular":1736,"ĠDav":1737,"Ġdefinitely":1738,"pite":1739,"Ġpast":1740,"Ġside":1741,"Ġwaste":1742,"ley":1743,"Ġ.":1744,"Ġbeginning":1745,"oub":1746,"pped":1747,"Ġform":1748,"ĠJack":1749,"Ġsw":1750,"ump":1751,"aughter":1752,"Ġsever":1753,"rop":1754,"body":1755,"Ġseemed":1756,"Ġlives":1757,"Ġthrill":1758,"Ġdirection":1759,"Ġpicture":1760,"cha":1761,"Ġtrans":1762,"Ġworse":1763,"Ġblood":1764,"Ġcertainly":1765,"Ġrent":1766,"fortunately":1767,"Ġextreme":1768,"Ġpar":1769,"Ġseveral":1770,"unk":1771,"ready":1772,"Ġfans":1773,"unch":1774,"Ġabsolutely":1775,"Ġrelationship":1776,"Ġguys":1777,"Ġbrother":1778,"Ġbecomes":1779,"Ġwritten":1780,"Ġvill":1781,"Ġfant":1782,"ĠHis":1783,"Ġpop":1784,"Ġpred":1785,"Ġsomew":1786,"Ġdrama":1787,"Ġsuccess":1788,"ĠEven":1789,"Ġvo":1790,"Ġadm":1791,"lish":1792,"Ġpat":1793,"Ġnat":1794,"Ġsupport":1795,"Ġwanted":1796,"Ġalready":1797,"rew":1798,"Ġav":1799,"Ġgrou":1800,"Ġtown":1801,"ried":1802,"ific":1803,"Ġson":1804,"Ġself":1805,"Ġbrilliant":1806,"ĠEng":1807,"ages":1808,"Ġtou":1809,"Ġfine":1810,"Ġchar":1811,"Ġcinema":1812,"Ġable":1813,").<":1814,"ĠFran":1815,"ots":1816,"Ġtotally":1817,"to":1818,"Ġgame":1819,"vable":1820,"yn":1821,"rown":1822,"Ġalthough":1823,"Ġmaster":1824,"Ġet":1825,"Ġocc":1826,"Ġgenre":1827,"cess":1828,"Ġsat":1829,"Ġlost":1830,"Ġcent":1831,"Ġdoc":1832,"gu":1833,"by":1834,"uss":1835,"ern":1836,"Ġtries":1837,"Ġdem":1838,"ief":1839,"Ġprov":1840,"ĠSome":1841,"Ġbased":1842,"Ġwants":1843,"oil":1844,"amp":1845,"ung":1846,"ided":1847,"Ġloved":1848,"!<":1849,"Ġpresent":1850,"uc":1851,"Ġpur":1852,"ĠÂĸ":1853,"19":1854,"Ġcult":1855,"Ġhistory":1856,"Ġannoy":1857,"ichael":1858,"Ġcalled":1859,"Ġimport":1860,"Ġthroughout":1861,"Ġstarts":1862,"Ġstra":1863,"Ġmor":1864,"Ġeff":1865,"Ġmyster":1866,"Ġviewer":1867,"Ġthemselves":1868,"Ġstuff":1869,"chn":1870,"Ġval":1871,"Ġwriting":1872,"ey":1873,"orge":1874,"Ġbreak":1875,"Ġexample":1876,"ĠTo":1877,"Ġquality":1878,"Ġwalk":1879,"hind":1880,"Ġappear":1881,"Ġhon":1882,"itive":1883,"Ġenjoyed":1884,"Ġsitu":1885,"Ġmag":1886,"range":1887,"Ġdeser":1888,"Ġinf":1889,"Ġnum":1890,"using":1891,"Ġpsy":1892,"ĠIs":1893,"ination":1894,"Ġfair":1895,"Ġworks":1896,"Ġturns":1897,"band":1898,"ik":1899,"Ġfem":1900,"Ġcomment":1901,"Ġcapt":1902,"Ġnovel":1903,"use":1904,"Ġkiller":1905,"ĠAfter":1906,"ister":1907,"Ġdeal":1908,"Ġfinal":1909,"ĠSha":1910,"Ġtoday":1911,"Ġparts":1912,"Ġteen":1913,"??":1914,"Ġmatter":1915,"ished":1916,"mb":1917,"Ġbra":1918,"Ġmed":1919,"Ġlevel":1920,"Ġlearn":1921,"ude":1922,"Ġgroup":1923,"Ġkilled":1924,"Ġtyp":1925,"oke":1926,"rib":1927,"Ġgave":1928,"off":1929,"Ġlist":1930,"Ġcol":1931,"Ġstop":1932,"Ġcontin":1933,"Ġexact":1934,"Ġetc":1935,"iet":1936,"Ġsusp":1937,"rodu":1938,"OT":1939,"ene":1940,"Ġhorrible":1941,"usband":1942,"hich":1943,"Ġdeli":1944,"Ġdays":1945,"As":1946,"Ġmoment":1947,"ĠQ":1948,"Ġdecent":1949,"Ġsequel":1950,"Ġopp":1951,"Ġlea":1952,"Ġdocument":1953,"Ġ,":1954,"ron":1955,"Ġfinally":1956,"Ġfavorite":1957,"ese":1958,"ajor":1959,"Ġprom":1960,"Ġbehind":1961,"dy":1962,"ĠBrit":1963,"ural":1964,"Ġevil":1965,"Ġbus":1966,"nded":1967,"iculous":1968,"ient":1969,"ĠRobert":1970,"ĠInd":1971,"ches":1972,"ĠThen":1973,"Ġdaughter":1974,"ĠHer":1975,"Ġthinking":1976,"Ġcrit":1977,"ĠWith":1978,"ape":1979,"Ġfig":1980,"Ġamazing":1981,"ĠAlso":1982,"Ġmyself":1983,"Ġeffort":1984,"Ġhilar":1985,"ĠChar":1986,"Ġir":1987,"Ġcost":1988,"Ġfore":1989,"Ġlate":1990,"Ġask":1991,"Ġprof":1992,"ior":1993,"Ġmurder":1994,"ox":1995,"Ġmot":1996,"ering":1997,"Ġsays":1998,"Ġtype":1999,"Ġviolence":2000,"astic":2001,"Ġconst":2002,"Ġperhaps":2003,"ences":2004,"Ġpick":2005,"antly":2006,"lt":2007,"Ġstories":2008,"ator":2009,"Ġintell":2010,"Ġroles":2011,"ives":2012,"What":2013,"Ġhusband":2014,"Ġfoot":2015,"AN":2016,"yp":2017,"Ġsoon":2018,"gs":2019,"ĠWar":2020,"Ġtook":2021,"urt":2022,"Ġconsider":2023,"Ġhappened":2024,"Ġhappens":2025,"Ġhold":2026,"Ġfeeling":2027,"Ġstru":2028,"Ġheard":2029,"Ġexperience":2030,"ann":2031,"Ġgun":2032,"Ġchang":2033,"Ġeyes":2034,"leased":2035,"Ġresult":2036,"ards":2037,"Ġincred":2038,"Ġroom":2039,"Ġridiculous":2040,"Ġspeak":2041,"wards":2042,"Ġinvolved":2043,"Ġdirected":2044,".)":2045,"Ġsol":2046,"Ġsle":2047,"Ġmajor":2048,"ĠMichael":2049,"Ġnon":2050,"aul":2051,"Ġextremely":2052,"Ġvoice":2053,"ĠWhile":2054,"ĠWhy":2055,"Ġhilarious":2056,"ution":2057,"okes":2058,"ĠOf":2059,"Ġesc":2060,"ĠKe":2061,"Ġgirls":2062,"antic":2063,"uge":2064,"Ġlooked":2065,"Ġsn":2066,"ky":2067,"Ġweak":2068,"Ġopin":2069,"ĠBr":2070,"cks":2071,"ĠGod":2072,"urb":2073,"Ġcinemat":2074,"Ġwouldn":2075,"Ġscore":2076,"ĠGe":2077,"Ġage":2078,"side":2079,"Ġleave":2080,"AT":2081,"ovie":2082,"And":2083,"Ġdr":2084,"Ġbring":2085,"rison":2086,"IL":2087,"ield":2088,"Ġtaken":2089,"arth":2090,"Ġste":2091,"Ġdisco":2092,"Ġmet":2093,"Ġallow":2094,"ĠPl":2095,"matic":2096,"ement":2097,"ĠMay":2098,"Ġpredict":2099,"rench":2100,"Ġtold":2101,"Ġcareer":2102,"amed":2103,"nds":2104,"iddle":2105,"Ġuni":2106,"Ġwhite":2107,"Ġquick":2108,"Ġdream":2109,"Ġcoming":2110,"Ġreturn":2111,"ON":2112,"ones":2113,"Ġshoot":2114,"ians":2115,"Ġago":2116,"Ġcool":2117,"bel":2118,"Ġcannot":2119,"Ġfut":2120,"But":2121,"Ġstay":2122,"ĠDan":2123,"Ġknown":2124,"Ġdev":2125,"Ġtele":2126,"Ġchance":2127,"eg":2128,"Ġstre":2129,"Ġhit":2130,"Ġcomed":2131,"Ġswe":2132,"Ġmove":2133,"Ġtechn":2134,"zy":2135,"ph":2136,"Ġcheap":2137,"ats":2138,"Ġstrange":2139,"ST":2140,"Ġpolit":2141,"iety":2142,"arb":2143,"ĠGer":2144,"Ġacross":2145,"ered":2146,"Ġvar":2147,"Ġcrap":2148,"aged":2149,"of":2150,"any":2151,"aid":2152,"Ġsimple":2153,"Ġhours":2154,"Ġwin":2155,"ys":2156,"Ġinde":2157,"Ġparent":2158,"rest":2159,"Ġbuild":2160,"Ġevent":2161,"Ġobviously":2162,"ouble":2163,"ĠEd":2164,"Ġcountry":2165,"...<":2166,"Ġannoying":2167,"ubl":2168,"Ġsimilar":2169,"Ġpay":2170,"ĠTom":2171,"Ġdesc":2172,"Ġ200":2173,"Ġexactly":2174,"Ġfour":2175,"ĠEvery":2176,"Ġproduc":2177,"OR":2178,"ground":2179,"sh":2180,"ean":2181,"Ġfoc":2182,"Ġends":2183,"Ġshock":2184,"ĠPet":2185,"Ġpos":2186,"ĠCon":2187,"Ġfinds":2188,"ichard":2189,"Ġdisc":2190,"ational":2191,"ential":2192,"Ġpolice":2193,"Ġca":2194,"Ġlar":2195,"ury":2196,"Ġwriter":2197,"Ġapparent":2198,"pping":2199,"ĠDavid":2200,"Ġgore":2201,"Ġshown":2202,"aug":2203,"ili":2204,"gan":2205,"Ġpot":2206,"aim":2207,"Ġhighly":2208,"ĠNow":2209,"enty":2210,"Ġtreat":2211,"AR":2212,"Ġdeep":2213,"eng":2214,"Ġgang":2215,"Ġimportant":2216,"Ġprem":2217,"head":2218,"Ġ6":2219,"Ġang":2220,"Ġopinion":2221,"rence":2222,"tra":2223,"mos":2224,"Ġsomewhat":2225,"ĠOr":2226,"Ġfemale":2227,"Ġstraight":2228,"Ġphot":2229,"Ġhonest":2230,"Ġorder":2231,"!!!":2232,"Ġpull":2233,"Ġunc":2234,"iction":2235,"Ġdoub":2236,"ĠPe":2237,"ĠWilliam":2238,"ĠEnglish":2239,"ina":2240,"Ġbody":2241,"Ġpossible":2242,"ĠJust":2243,"che":2244,"Ġhuge":2245,"Ġyourself":2246,"Ġfilmmak":2247,"wise":2248,"Ġhot":2249,"Ġsometimes":2250,"outh":2251,"Ġforget":2252,"hetic":2253,"Ġwhose":2254,"ching":2255,"Ġattention":2256,"Ġstarted":2257,"Ġchange":2258,"Ġnumber":2259,"Ġill":2260,"Ġmoder":2261,"Ġusual":2262,"ĠJames":2263,"Ġdisappointed":2264,"gra":2265,"Ġparticularly":2266,"vision":2267,"Ġve":2268,"itting":2269,"Ġsave":2270,"****":2271,"ĠAd":2272,"Ġdest":2273,"real":2274,"Ġliving":2275,"ichÃ©":2276,"Ġdocumentary":2277,"Ġrunning":2278,"Ġopening":2279,"Ġturned":2280,"Ġsaying":2281,"Ġsingle":2282,"olog":2283,"Ġreality":2284,"Ġmusical":2285,"Ġsuspense":2286,"lling":2287,"ĠNe":2288,"oud":2289,"Ġcolle":2290,"Ġalone":2291,"Ġsubject":2292,"estern":2293,"Ġnear":2294,"Ġsubt":2295,"Ġsilly":2296,"Ġreleased":2297,"Ġjokes":2298,"Ġones":2299,"ald":2300,"Ġfill":2301,"Ġvict":2302,"ral":2303,"Ġair":2304,"Ġcinematography":2305,"Ġhell":2306,"Ġwish":2307,"Ġdespite":2308,"aced":2309,"ĠDo":2310,"unt":2311,"ING":2312,"Ġshots":2313,"Ġtaking":2314,"Ġdetail":2315,"otic":2316,"usion":2317,"Ġmeet":2318,"Ġsent":2319,"Ġplan":2320,"Ġequ":2321,"!\"":2322,"ained":2323,"apan":2324,"ĠclichÃ©":2325,"Ġprot":2326,"Ġlocal":2327,"mosp":2328,"back":2329,"Ġknew":2330,"rely":2331,"Ġmiddle":2332,"Ġproblems":2333,"Ġsets":2334,"ĠPer":2335,"ĠEl":2336,"Ġevents":2337,"Ġremind":2338,"Ġut":2339,"ino":2340,"Ġknows":2341,"Ġtells":2342,"Ġwee":2343,"Ġteam":2344,"Ġinn":2345,"ura":2346,"Ġwords":2347,"ĠSh":2348,"Ġapart":2349,"Ġrespect":2350,"Ġcart":2351,"ĠGra":2352,"Ġincluding":2353,"vol":2354,"Ġsign":2355,"Ġtalking":2356,"yond":2357,"aught":2358,"Ġunf":2359,"ĠBritish":2360,"mm":2361,"Ġusually":2362,"reci":2363,"Ġatmosp":2364,"Ġcompl":2365,"Ġintellig":2366,"ĠYork":2367,"ball":2368,"nding":2369,"Ġ20":2370,"light":2371,"who":2372,"Ġmodern":2373,"EN":2374,"Ġrating":2375,"iod":2376,"uri":2377,"Ġfuture":2378,"oul":2379,"Ġamong":2380,"Ġsurv":2381,"Ġland":2382,"Ġpri":2383,"ira":2384,"Ġquestion":2385,"Ġforg":2386,"which":2387,"ised":2388,"ush":2389,"ĠRichard":2390,"orable":2391,"Ġmist":2392,"Ġant":2393,"Ġsequence":2394,"Ġmark":2395,"Ġprevious":2396,"go":2397,"Ġten":2398,"Ġlad":2399,"ppy":2400,"form":2401,"attle":2402,"lo":2403,"Ġaren":2404,"Ġbro":2405,"Ġcontro":2406,"anger":2407,"Ġhands":2408,"ital":2409,"Ġscary":2410,"key":2411,"Ġhop":2412,"Ġlaug":2413,"Ġdue":2414,"ctor":2415,"Ġcomic":2416,"omp":2417,"Ġult":2418,"Ġaspect":2419,"ances":2420,"Ġappears":2421,"aris":2422,"els":2423,"ĠJapan":2424,"Ġmater":2425,"Ġear":2426,"Ġnone":2427,"Ġeng":2428,"Ġclear":2429,"ires":2430,"Ġeasily":2431,"Ġmostly":2432,"Ġstoryline":2433,"Ġways":2434,"ublic":2435,"where":2436,"Ġromantic":2437,"Ġattack":2438,"Ġparents":2439,"ĠSam":2440,"Ġclearly":2441,"Ġhappy":2442,"ants":2443,"Ġodd":2444,"iel":2445,"irector":2446,"Ġadult":2447,"My":2448,"Ġsexual":2449,"Ġgiving":2450,"Al":2451,"Ġfast":2452,"ival":2453,"ĠGerman":2454,"Ġflaw":2455,"Ġdull":2456,"Ġmaterial":2457,"asc":2458,"Ġhate":2459,"Ġnarr":2460,"orry":2461,"Ġpredictable":2462,"ĠBra":2463,"Ġbox":2464,"rated":2465,"Ġappreci":2466,"Ġabove":2467,"ices":2468,"Ġtwist":2469,"Ġbegins":2470,"ubb":2471,"Ġcamp":2472,"Ġenjoyable":2473,"lin":2474,"Ġpersonal":2475,"Ġfalls":2476,"Ġelements":2477,"Ġhaven":2478,"ĠUS":2479,"Ġadv":2480,"St":2481,"inal":2482,"ĠPaul":2483,"Ġvictim":2484,"orld":2485,"Ġseriously":2486,"Ġsuff":2487,"iest":2488,"ĠOsc":2489,"asy":2490,"Ġthriller":2491,"Ġreve":2492,"ggest":2493,"Ġbunch":2494,"ĠAm":2495,"Ġspoil":2496,"Ġsecret":2497,"ening":2498,"Ġsurprised":2499,"Ġepisodes":2500,"Ġtheme":2501,"Ġeasy":2502,"Ġzomb":2503,"irt":2504,"Ġpoints":2505,"ĠGr":2506,"Ġsetting":2507,"cl":2508,"verage":2509,"Ġnamed":2510,"Ġdru":2511,"Ġperiod":2512,"Ġsuggest":2513,"Ġdoubt":2514,"Ġmessage":2515,"oun":2516,"Ġentertainment":2517,"Ġiss":2518,"Ġtelevision":2519,"Ġmix":2520,"Ġtypical":2521,"Ġmil":2522,"Ġstri":2523,"?<":2524,"Ġbeyond":2525,"Ġslight":2526,"ĠAmerica":2527,"Ġsongs":2528,"Ġsupporting":2529,"work":2530,"Ġeye":2531,"Ġseason":2532,"Ġneeds":2533,"track":2534,"uses":2535,"oor":2536,"ension":2537,"Ġtruth":2538,"Ġpleas":2539,"AL":2540,"Ġfeels":2541,"Ġ80":2542,"ĠAny":2543,"Ġleads":2544,"Ġinsp":2545,"ficult":2546,"Ġkept":2547,"',":2548,"Ġcomb":2549,"Ġmeans":2550,"Ġ197":2551,"Ġviewers":2552,"Ġtried":2553,"Ġworking":2554,"eth":2555,"Ġlarge":2556,"ĠBro":2557,"Ġsold":2558,"Ġcheck":2559,"Ġemb":2560,"ĠAng":2561,"Ġherself":2562,"Ġdifficult":2563,"Ġtheat":2564,"Ġwithin":2565,"ressed":2566,"Ġbar":2567,"Ġfeature":2568,"Ġcreep":2569,"hic":2570,"Ġfree":2571,"Ġrelease":2572,"Ġupon":2573,"ĠFrench":2574,"Ġ198":2575,"bs":2576,"ara":2577,"iment":2578,"Ġaccept":2579,"ĠGeorge":2580,"Ġbrought":2581,"gy":2582,"ĠLee":2583,"ula":2584,"irc":2585,"ows":2586,"Ġcomments":2587,"Ġvisual":2588,"ially":2589,"Ġfilmed":2590,"Ġru":2591,"Ġdecided":2592,"Ġsil":2593,"ously":2594,"Ġthrow":2595,"ĠCol":2596,"Ġshowing":2597,"ford":2598,"Ġsequences":2599,"ĠDis":2600,"king":2601,"Ġsens":2602,"Ġbusiness":2603,"Ġsoundtrack":2604,"OU":2605,"more":2606,"Ġtrag":2607,"Ġclim":2608,"Ġcrime":2609,"Ġcity":2610,"Ġprison":2611,"Ġspir":2612,"Ġnorm":2613,"Ġactual":2614,"Ġviewing":2615,"Ġpsyc":2616,"ĠNOT":2617,"!!!!":2618,"An":2619,"aby":2620,"Ġtale":2621,"Ġpost":2622,"So":2623,"Ġoverall":2624,"ĠIM":2625,"Ġred":2626,"lier":2627,"kay":2628,"ising":2629,"host":2630,"rific":2631,"Ġnearly":2632,"Ġrob":2633,"Ġhear":2634,"ĠBen":2635,"ceed":2636,"ĠMart":2637,"rey":2638,"Ġreviews":2639,"Ġpremise":2640,"Ġintrodu":2641,"Ġusing":2642,"Ġsuperb":2643,"You":2644,"Ġwrit":2645,"Ġbackground":2646,"Ġfigure":2647,"Ġgay":2648,"verall":2649,"Ġbelievable":2650,"?\"":2651,"Ġgrow":2652,"tt":2653,"Ġavoid":2654,"Ġmoving":2655,"esy":2656,"Ġexpected":2657,"Ġdie":2658,"Ġattract":2659,"Ġhar":2660,"!)":2661,"incing":2662,"ring":2663,"RE":2664,"Ġexist":2665,"llow":2666,"Ġediting":2667,"Ġbasically":2668,"Ġbuy":2669,"irlf":2670,"Ġgrand":2671,"ĠFrank":2672,"ĠSm":2673,"Ġrealistic":2674,"Ġkilling":2675,"ĠMor":2676,"bo":2677,"Ġrese":2678,"Ġadapt":2679,"ining":2680,"esome":2681,"ĠWho":2682,"Ġeffective":2683,"Ġsoc":2684,"Ġund":2685,"Ġatmosphere":2686,"arch":2687,"irlfriend":2688,"Ġweird":2689,"Ġwait":2690,"dden":2691,"Ġwit":2692,"ĠItal":2693,"ĠUnfortunately":2694,"Âħ":2695,"mas":2696,"Ġcur":2697,"Ġlim":2698,"Ġstere":2699,"Ġexec":2700,"ĠOK":2701,"ĠMaybe":2702,"Ġfamous":2703,"Ġ/>\"":2704,"Ġforced":2705,"Ġfantastic":2706,"Ġfive":2707,"ĠPr":2708,"Ġlots":2709,"Ġpoorly":2710,"Ġleaves":2711,"Ġcat":2712,"ĠDr":2713,"Ġer":2714,"cted":2715,"icks":2716,"bers":2717,"Ġ*":2718,"Ġlame":2719,"sw":2720,"ills":2721,"ĠQu":2722,"Ġtre":2723,"Ġsurprise":2724,"ĠOscar":2725,"Ġtheater":2726,"Ġstage":2727,"Ġenc":2728,"Ġanimation":2729,"Ġultim":2730,"Ġobs":2731,"Ġaverage":2732,"When":2733,"spect":2734,"Ġparticular":2735,"Ġexplo":2736,"Ġbored":2737,"Ġgone":2738,"Ġbecame":2739,"Ġsituation":2740,"Ġfront":2741,"Ġid":2742,"urther":2743,"Ġmystery":2744,"rid":2745,"ges":2746,"Ġutter":2747,"Ġresp":2748,"Ġmale":2749,"avy":2750,"piece":2751,"Ġsister":2752,"Ġappro":2753,"Ġwood":2754,"aces":2755,"Ġpure":2756,"ĠCan":2757,"aling":2758,"isf":2759,"ĠWood":2760,"Ġsudden":2761,"Ġcrew":2762,"Ġearlier":2763,"Ġstrugg":2764,"ye":2765,"hys":2766,"Ġvillain":2767,"Ġapparently":2768,"ĠGu":2769,"Ġ199":2770,"Ġinterested":2771,"Ġbel":2772,"ĠOh":2773,"iences":2774,"ĠPeter":2775,"hel":2776,"pend":2777,"uro":2778,"Ġlos":2779,"hood":2780,"ĠKing":2781,"ogn":2782,"Ġpublic":2783,"Ġstereot":2784,"erry":2785,"Ġwhether":2786,"Ġmeaning":2787,"fer":2788,"Ġgreatest":2789,"'.":2790,"Ġclever":2791,"Ġcostum":2792,"cing":2793,"Ġfra":2794,"Ġthird":2795,"One":2796,"omin":2797,"akes":2798,"ĠAlthough":2799,"Ġconcept":2800,"Ġfootage":2801,"kn":2802,"Ġstun":2803,"ries":2804,"lly":2805,"Ġworked":2806,"Ġminute":2807,"well":2808,"ius":2809,"Ġdumb":2810,"Ġmemorable":2811,"Ġprofess":2812,"Ġtowards":2813,"Ġsociety":2814,"ding":2815,"ĠJul":2816,"Ġcredits":2817,"bert":2818,"Ġscreenplay":2819,"Ġlaughs":2820,"Ġunique":2821,"Ġinvest":2822,"rif":2823,"Ġran":2824,"Ġpossibly":2825,"Ġrock":2826,"ĠMost":2827,"Ġsomehow":2828,"ager":2829,"Ġgeneral":2830,"Ġquickly":2831,"Ġkeeps":2832,"time":2833,"Ġpowerful":2834,"friend":2835,"Ġcap":2836,"Ġlaw":2837,"Ġdesign":2838,"Ġrealize":2839,"Ġfeatures":2840,"arre":2841,"Ġ30":2842,"cious":2843,"Ġexpress":2844,"Ġliter":2845,"Ġgirlfriend":2846,"ĠSim":2847,"Ġperfectly":2848,"Ġolder":2849,"Ġneeded":2850,"Ġmeant":2851,"Ġcheesy":2852,"Ġtast":2853,"Ġdisturb":2854,"ĠFilm":2855,"angu":2856,"iliar":2857,"kes":2858,"Ġshame":2859,"Ġadvent":2860,"this":2861,"urd":2862,"Ġemotional":2863,"por":2864,"Ġnor":2865,"Ġproject":2866,"Ġreading":2867,"ĠChan":2868,"Ġrich":2869,"Ġhom":2870,"ĠFrom":2871,"Ġwriters":2872,"Ġyes":2873,"min":2874,"Ġcirc":2875,"Ġdam":2876,"Ġemotion":2877,"vern":2878,"Ġromance":2879,"For":2880,"Ġwind":2881,"Ġhistor":2882,"ective":2883,"Ġ70":2884,"Ġdevelopment":2885,"Ġvarious":2886,"Ġdog":2887,"ĠCom":2888,"belie":2889,"su":2890,"ĠCra":2891,"Ġmill":2892,"ĠSu":2893,"cessary":2894,"ĠIMD":2895,"Ġwhom":2896,"ĠJoe":2897,"Ġcover":2898,"Ġnature":2899,"ĠYes":2900,"ĠDisney":2901,"Ġsick":2902,"ĠTw":2903,"Ġpurp":2904,"ĠEx":2905,"Ġbrings":2906,"Ġdramatic":2907,"Ġconne":2908,"Ġcopy":2909,"onic":2910,"roy":2911,"ES":2912,"oof":2913,"andy":2914,"ĠJim":2915,"Ġpopular":2916,"ged":2917,"chie":2918,"Ġimagine":2919,"Ġforward":2920,"ises":2921,"Ġcry":2922,"stead":2923,"look":2924,"\")":2925,"Ġoper":2926,"ett":2927,"arring":2928,"Ġfire":2929,"ĠJapanese":2930,"ĠChe":2931,"Ġbadly":2932,"Ġmeets":2933,"Ġanyway":2934,"Ġtotal":2935,"ĠIts":2936,"Ġdirecting":2937,"Ġwrite":2938,"nel":2939,"ĠBlack":2940,"vin":2941,"Ġbattle":2942,"Ġmanages":2943,"Ġflat":2944,"Ġ193":2945,"erv":2946,"Ġ$":2947,"Ġrepe":2948,"Ġamount":2949,"ĠScott":2950,"ĠThese":2951,"pper":2952,"bor":2953,"unny":2954,"Ġextra":2955,"ived":2956,"Ġaut":2957,"bl":2958,"olf":2959,"reed":2960,"Ġcatch":2961,"Ġfairly":2962,"Ġment":2963,"ĠDra":2964,"ero":2965,"Ġagree":2966,"Ġinnoc":2967,"Ġ90":2968,"Ġadmit":2969,"zz":2970,"ĠPh":2971,"ĠGood":2972,"aked":2973,"Ġbare":2974,"Ġunlike":2975,"Ġcommun":2976,"iny":2977,"Ġneg":2978,"acher":2979,"Ġreasons":2980,"agon":2981,"with":2982,"Ġoccas":2983,"holog":2984,"ague":2985,"?)":2986,"All":2987,"Ġideas":2988,"val":2989,"Ġfasc":2990,"ask":2991,"ĠAnt":2992,"cked":2993,"itty":2994,"ivid":2995,"Ġmonster":2996,"ham":2997,"af":2998,"Ġacted":2999,"udity":3000,"Ġclaim":3001,"ĠLike":3002,"Ġpotential":3003,"berg":3004,"Ġsymp":3005,"eless":3006,"ole":3007,"ips":3008,"Ġeventually":3009,"Ġident":3010,"bit":3011,"Ġcreate":3012,"ĠWorld":3013,"Ġfails":3014,"action":3015,"Ġdanc":3016,"itted":3017,"Ġ195":3018,"Ġformer":3019,"cher":3020,"Ġsleep":3021,"Ġera":3022,"aking":3023,"Ġcartoon":3024,"ze":3025,"Ġsocial":3026,"Ġrecogn":3027,"ĠPat":3028,"Ġremake":3029,"Ġincredibly":3030,"Ġplain":3031,"ĠLu":3032,"ĠBill":3033,"Ġleading":3034,"Ġflash":3035,"Ġmasterpiece":3036,"Ġ...":3037,"Ġspace":3038,"Ġign":3039,"ĠMac":3040,"ĠEn":3041,"Ġmad":3042,"Ġdirectors":3043,"Ġdeserves":3044,"Ġimm":3045,"Ġmissing":3046,"OO":3047,"Ġplease":3048,"Ġoutside":3049,"Ġtelling":3050,"itation":3051,"Ġportrayed":3052,"even":3053,"Ġcond":3054,"Ġ(\"":3055,"Ġcreepy":3056,"arry":3057,"Ġbeha":3058,"Ġstat":3059,"Ġfighting":3060,"writ":3061,"Ġmurd":3062,"Ġindeed":3063,"Ġoffic":3064,"Ġmarried":3065,"ĠBy":3066,"ĠEuro":3067,"mist":3068,"Ġwasted":3069,"ĠMad":3070,"Ġjoke":3071,"Ġlangu":3072,"Ġexpecting":3073,"Ġcreated":3074,"orthy":3075,"pth":3076,"Ġarri":3077,"Ġble":3078,"Ġpolitical":3079,"ele":3080,"ĠFl":3081,"ĠFred":3082,"Ġest":3083,"Ġplenty":3084,"Ġphys":3085,"ĠTra":3086,"Ġlaughing":3087,"Ġfilmmakers":3088,"How":3089,"Ġlat":3090,"Ġsweet":3091,"vered":3092,"een":3093,"imp":3094,"Ġcommon":3095,"Ġtravel":3096,"udd":3097,"Ġband":3098,"ĠAN":3099,"Ġfamiliar":3100,"Ġhair":3101,"arrass":3102,"ging":3103,"Ġnudity":3104,"ĠNight":3105,"boy":3106,"Ġcolor":3107,"aur":3108,"Ġcaught":3109,"Ġwhatever":3110,"Ġinside":3111,"ope":3112,"medi":3113,"Ġintri":3114,"aper":3115,"oman":3116,"Ġ:":3117,"uine":3118,"ĠII":3119,"Ġdesper":3120,"set":3121,"ĠEm":3122,"AD":3123,"cent":3124,"Ġtrad":3125,"Ġended":3126,"Ġexplain":3127,"Ġcrazy":3128,"ĠIMDb":3129,"while":3130,"Ġpositive":3131,"Ġjour":3132,"vil":3133,"ened":3134,"Ġjud":3135,"venge":3136,"Ġclos":3137,"uter":3138,"Ġscient":3139,"iously":3140,"Ġterror":3141,"Ġsounds":3142,"con":3143,"cle":3144,"ĠFirst":3145,"Ġprop":3146,"Ġloo":3147,"Ġstep":3148,"ĠHarry":3149,"Ġtalented":3150,"Ġembarrass":3151,"alth":3152,"acing":3153,"Ġidi":3154,"iller":3155,"Ġrequ":3156,"ĠAust":3157,"IS":3158,"Ġsorry":3159,"Ġmid":3160,"arl":3161,"Ġwater":3162,"cause":3163,"Ġspent":3164,"LY":3165,"ites":3166,"LE":3167,"Ġfurther":3168,"Ġcute":3169,"Ġattempts":3170,"Ġachie":3171,"Ġaccident":3172,"TH":3173,"par":3174,"PO":3175,"Ġdance":3176,"Ġpace":3177,"Ġuses":3178,"Ġvalue":3179,"Ġspirit":3180,"Ġnote":3181,"ned":3182,"asher":3183,"Ġgenuine":3184,"Ġsubtle":3185,"Ġbrief":3186,"Ġrecord":3187,"000":3188,"Ġescape":3189,"ĠMon":3190,"Ġpointless":3191,"izing":3192,"Ġentirely":3193,"ette":3194,"Ġhy":3195,"Ġcomplex":3196,"ased":3197,"Ġunbelie":3198,"oe":3199,"Ġstereotyp":3200,"Ġansw":3201,"Ġaf":3202,"gest":3203,"Ġdepth":3204,"Ġfunn":3205,"lu":3206,"Ġbiz":3207,"lict":3208,"ĠInstead":3209,"Ġdecides":3210,"Ġess":3211,"room":3212,"une":3213,"Ġcredit":3214,"ki":3215,"Ġhardly":3216,"Ġine":3217,"Ġstore":3218,"Ġrad":3219,"fi":3220,"ossible":3221,"ĠDead":3222,"Ġcasting":3223,"rage":3224,"Ġslightly":3225,"over":3226,"ĠSw":3227,"Ġmembers":3228,"Ġmentioned":3229,"Ġmedi":3230,"Ġsolid":3231,"ĠOther":3232,"Ġexciting":3233,"lusion":3234,"Ġporn":3235,"lex":3236,"ĠItalian":3237,"Ġsatisf":3238,"ĠSer":3239,"Ġcontrol":3240,"Ġrece":3241,"Ġmel":3242,"ĠMe":3243,"gend":3244,"Ġ15":3245,"Ġrecently":3246,"Ġtrail":3247,"Ġdelight":3248,"Ġmod":3249,"ĠGreat":3250,"Ġrevol":3251,"Ġchoice":3252,"known":3253,"iving":3254,"Ġimmedi":3255,"Ġviolent":3256,"ĠTr":3257,"Ġmer":3258,"ĠHa":3259,"inger":3260,"Ġconcern":3261,"emy":3262,"ĠEurope":3263,"Ġaff":3264,"ieces":3265,"lying":3266,"Ġdoll":3267,"Ġportrayal":3268,"sen":3269,"Don":3270,"ĠHen":3271,"ĠPro":3272,"sters":3273,"ored":3274,"ĠDes":3275,"Ġwaiting":3276,"ilt":3277,"Ġrelig":3278,"Ġparty":3279,"ashion":3280,"come":3281,"Ġconvincing":3282,"Ġforgot":3283,"Ġbed":3284,"ĠHere":3285,"Ġfit":3286,"Ġwall":3287,"Ġdied":3288,"Ġfollows":3289,"Ġdraw":3290,"AS":3291,"Ġimpro":3292,"ĠLou":3293,"Ġbeauty":3294,"Ġmoves":3295,"ĠBru":3296,"Ġwestern":3297,"Ġintelligent":3298,"Ġmass":3299,"Ġwrote":3300,"Ġfantasy":3301,"Ġotherwise":3302,"Ġremark":3303,"Ġ196":3304,"Ġbrain":3305,"Ġsituations":3306,"no":3307,"men":3308,"Ġamusing":3309,"ĠAf":3310,"ibility":3311,"inary":3312,"ishing":3313,"Ġsees":3314,"ĠJe":3315,"Ġappreciate":3316,"rel":3317,"har":3318,"aging":3319,"Ġfear":3320,"Ġ50":3321,"Ġluck":3322,"irty":3323,"gl":3324,"Ġaccent":3325,"iff":3326,"Ġtrouble":3327,"idden":3328,"Ġlady":3329,"Ġtort":3330,"Ġpu":3331,"Ġsuccessful":3332,"rect":3333,"ĠVan":3334,"Ġlonger":3335,"Ġtension":3336,"Ġghost":3337,"Ġspend":3338,"Ġdecide":3339,"On":3340,"sequ":3341,"appe":3342,"Ġopportun":3343,"Ġcrim":3344,"let":3345,"Ġground":3346,"rian":3347,"ĠMary":3348,"Ġboys":3349,"Ġfollowing":3350,"ĠAct":3351,"standing":3352,"Ġimpressive":3353,"Ġcross":3354,"uted":3355,"Ġpurpose":3356,"Ġbrut":3357,"Ġlanguage":3358,"ED":3359,"Ġscream":3360,"Ġmissed":3361,"ĠBob":3362,"resh":3363,"Ġfol":3364,"Ġsuspect":3365,"ĠRuss":3366,"ĠOF":3367,"ashing":3368,"Ġfocus":3369,"itary":3370,"ĠWh":3371,"Ġwild":3372,"Ġsum":3373,"ĠNor":3374,"ribly":3375,"Ġculture":3376,"Ġball":3377,"Ġbother":3378,"Ġproduced":3379,"Ġhang":3380,"Ġrate":3381,"fort":3382,"ener":3383,"iced":3384,"Ġfilled":3385,"Ġsci":3386,"ization":3387,"Ġtouch":3388,"Ġunfortunately":3389,"Ġruns":3390,"ĠMur":3391,"ĠWatch":3392,"Ġinvestig":3393,"iers":3394,"arily":3395,"ĠStar":3396,"Ġminor":3397,"ensive":3398,"Ġrepres":3399,"Ġ`":3400,"Ġproducers":3401,"Ġbiggest":3402,"Ġinvolving":3403,"Ġregard":3404,"Ġcru":3405,"ille":3406,"Ġquestions":3407,"Ġrecent":3408,"Ġcompet":3409,"mistry":3410,"Ġbooks":3411,"movie":3412,"ĠIndian":3413,"Ġsoul":3414,"Ġstick":3415,"Ġcontri":3416,"Ġexception":3417,"Ġchanged":3418,"Ġdanger":3419,"Ġjump":3420,"Ġinte":3421,"Ġrap":3422,"Ġsqu":3423,"Not":3424,"Ġbreat":3425,"owers":3426,"Ġlaugha":3427,"Ġdoctor":3428,"Ġunin":3429,"Ġ194":3430,"Ġhumour":3431,"Ġtough":3432,"Ġbizarre":3433,"Ġshowed":3434,"Ġfake":3435,"orror":3436,"Ġslasher":3437,"OW":3438,"bb":3439,"Ġnotice":3440,"Ġyounger":3441,"cast":3442,"ĠHol":3443,"elly":3444,"Ġrand":3445,"Ġcollege":3446,"OM":3447,"mes":3448,"ĠCity":3449,"Ġunless":3450,"Ġshar":3451,"Ġcompared":3452,"ĠGold":3453,"Ġawesome":3454,"Ġweren":3455,"Ġcontinu":3456,"Ġrefe":3457,"iding":3458,"ength":3459,"Ġtest":3460,"Ġpract":3461,"Ġfascin":3462,"ateur":3463,"Ġchemistry":3464,"Ġoccur":3465,"ĠLove":3466,"Ġvamp":3467,"rupt":3468,"ĠMovie":3469,"Ġdepict":3470,"Ġsuddenly":3471,"Ġauth":3472,"Ġgovern":3473,"Ġglad":3474,"Ġthinks":3475,"Ġrede":3476,"Ġpathetic":3477,"Ġincredible":3478,"Ġfailed":3479,"Ġanti":3480,"riff":3481,"Ġlikes":3482,"formation":3483,"reg":3484,"Ġproper":3485,"Ġcompany":3486,"Ġbasic":3487,"exic":3488,"Ġrepl":3489,"lect":3490,"ĠStre":3491,"Ġinterview":3492,"Ġconclusion":3493,"Ġbeat":3494,"POIL":3495,"ai":3496,"Well":3497,"Ġbaby":3498,"Ġkick":3499,"Ġproduct":3500,"Ġbarely":3501,"VER":3502,"Ġvalues":3503,"ana":3504,"Ġnormal":3505,"Ġgarb":3506,"Ġthreat":3507,"Ġappearance":3508,"idence":3509,"Ġneither":3510,"Ġissues":3511,"ĠAg":3512,"Ġcritic":3513,"ified":3514,"izes":3515,"***":3516,"Ġassum":3517,"Ġdisturbing":3518,"ĠRed":3519,"Ġroll":3520,"war":3521,"idered":3522,"Ġmatch":3523,"Ġrandom":3524,"Ġdro":3525,"ĠSmith":3526,"riage":3527,"Ġmanner":3528,"POILER":3529,"Ġsuc":3530,"Ġweek":3531,"After":3532,"ĠGo":3533,"Ġfavour":3534,"Ġoffice":3535,"lessly":3536,"Ġinsult":3537,"Ġmood":3538,"ĠMartin":3539,"gress":3540,"Ġunex":3541,"Ġpun":3542,"Ġearth":3543,"Ġbomb":3544,"Ġforce":3545,"chable":3546,"Ġdi":3547,"iring":3548,"Ġcompe":3549,"Ġisland":3550,"Ġtrain":3551,"Ġrare":3552,"Ġkills":3553,"Th":3554,"Ġpers":3555,"Ġgenius":3556,"Ġstudio":3557,"that":3558,"Ġdoor":3559,"Ġaffect":3560,"Ġstate":3561,"Ġpack":3562,"lyn":3563,"Ġreveal":3564,"Ġrevenge":3565,"Ġability":3566,"Ġspot":3567,"Ġtrack":3568,"ĠMexic":3569,"Ġsympat":3570,"ĠSat":3571,"ĠJoan":3572,"Ġleaving":3573,"Ġshooting":3574,"ĠJane":3575,"nie":3576,"Ġheavy":3577,"Ġ!":3578,"ĠBoy":3579,"Ġimpossible":3580,"ĠGrant":3581,"ĠMat":3582,"Ġconsidered":3583,"Ġcarry":3584,"ottom":3585,"alt":3586,"Ġsmart":3587,"Ġdeliver":3588,"Ġpresence":3589,"Ġredeem":3590,"Ġalien":3591,"ify":3592,"Ġmagic":3593,"Ġtaste":3594,"ĠBig":3595,"stit":3596,"Ġcomputer":3597,"Ġsuit":3598,"Ġcause":3599,"Ġamateur":3600,"Ġultimately":3601,"Ġflashback":3602,"Ġadventure":3603,"str":3604,"Ġjo":3605,"Ġcold":3606,"Jo":3607,"cer":3608,"Ġimages":3609,"Ġship":3610,"ĠAngel":3611,"ken":3612,"Ġdef":3613,"ĠBruce":3614,"Ġindust":3615,"Ġplaces":3616,"ĠJones":3617,"Ġrespons":3618,"Ġsucceed":3619,"Ġappeal":3620,"ressing":3621,"Ġnatural":3622,"Ġfat":3623,"Ġfresh":3624,"Ġimmediately":3625,"Ġavail":3626,"now":3627,"Ġleg":3628,"Ġbought":3629,"vert":3630,"Ġride":3631,"Ġdrink":3632,"verse":3633,"ondon":3634,"Ġroad":3635,"ĠMiss":3636,"Ġclot":3637,"Ġspect":3638,"ĠCor":3639,"ĠPark":3640,"Ġutterly":3641,"We":3642,"yle":3643,"Ġprogra":3644,"Ġstandard":3645,"ĠAllen":3646,"Ġconsidering":3647,"making":3648,"Ġcomedies":3649,"ades":3650,"LL":3651,"ĠX":3652,"Ġgarbage":3653,"estival":3654,"Ġaudiences":3655,"Ġtrash":3656,"Ġsinging":3657,"Ġuns":3658,"icated":3659,"Ġdrug":3660,"ropri":3661,"ĠDu":3662,"Ġgrap":3663,"ented":3664,"ini":3665,"Ġloud":3666,"ĠTim":3667,"Ġmult":3668,"uts":3669,"hant":3670,"Ġbull":3671,"Ġintrigu":3672,"Ġfashion":3673,"Ġstarring":3674,"Ġneigh":3675,"Ġconflict":3676,"ĠAfric":3677,"erm":3678,"just":3679,"Ġbuilding":3680,"ront":3681,"Ġobsess":3682,"\".<":3683,"ras":3684,"Ġsix":3685,"vey":3686,"aining":3687,"Ġmanaged":3688,"Be":3689,"Ġpil":3690,"Ġdig":3691,"Ġemp":3692,"Ġstreet":3693,"Ġclimax":3694,"ses":3695,"Ġauthor":3696,"Ġlog":3697,"Ġlikely":3698,"ĠRobin":3699,"Ġgenerally":3700,"face":3701,"yl":3702,"amb":3703,"ares":3704,"ature":3705,"Ġtwists":3706,"ĠPerhaps":3707,"played":3708,"Ġdin":3709,"Ġgod":3710,"Ġsexy":3711,"Ġur":3712,"unting":3713,"Ġzombie":3714,"uster":3715,"iche":3716,"Ġtrip":3717,"ĠChristmas":3718,"Ġmysterious":3719,"Ġlab":3720,"ales":3721,"Ġchanges":3722,"Ġthrown":3723,"Ġchall":3724,"Ġindivid":3725,"ĠCharlie":3726,"Ġalive":3727,"ĠLau":3728,"Ġmonth":3729,"Ġadded":3730,"Ġaddition":3731,"ĠAdam":3732,"awn":3733,"Ġterms":3734,"ĠRo":3735,"Ġloves":3736,"irth":3737,"stem":3738,"ĠSand":3739,"Ġokay":3740,"Ġhost":3741,"you":3742,"ively":3743,"rences":3744,"ĠWay":3745,"Ġstunning":3746,"ID":3747,"iven":3748,"ĠEarth":3749,"Ġnowhere":3750,"Ġtone":3751,"ĠHigh":3752,"Ġapproach":3753,"Ġhistorical":3754,"kin":3755,"That":3756,"Ġwitness":3757,"Ġdrive":3758,"Ġmilitary":3759,"ĠAlex":3760,"Ġboyfriend":3761,"rick":3762,"ĠLondon":3763,"ĠCharles":3764,"Ġdestroy":3765,"Ġliterally":3766,"house":3767,"Ġimpression":3768,"gue":3769,"ĠGl":3770,"Ġ100":3771,"Ġplus":3772,"Ġgovernment":3773,"Ġteacher":3774,"itude":3775,"mon":3776,"night":3777,"Ġtouching":3778,"esides":3779,"elling":3780,"Ġcostumes":3781,"aine":3782,"Ġmakers":3783,"Ġdetective":3784,"Ġdemon":3785,"Ġmach":3786,"ĠHard":3787,"Ġdiscuss":3788,"To":3789,"aff":3790,"Ġboss":3791,"Ġcuri":3792,"illing":3793,"Ġscience":3794,"Ġterrific":3795,"Ġcinematic":3796,"Ġcharm":3797,"Ġsilent":3798,"Ġpainful":3799,"Ġconstantly":3800,"ples":3801,"Ġsurprisingly":3802,"Ġmarriage":3803,"Ġanimated":3804,"Ġinflu":3805,"Ġdetails":3806,"ĠHenry":3807,"oned":3808,"Ġdad":3809,"ĠSci":3810,"Ġlegend":3811,"ĠStill":3812,"Ġinnocent":3813,"Ġhappening":3814,"Ġcharming":3815,"First":3816,"He":3817,"ĠMel":3818,"ĠCG":3819,"ĠDou":3820,"Ġremains":3821,"Ġsuppose":3822,"Ġfully":3823,"illa":3824,"opher":3825,"Ġunbelievable":3826,"Ġavailable":3827,"Ġgem":3828,"Ġbeautifully":3829,"Ġescap":3830,"IT":3831,"Ġgag":3832,"Ġknowing":3833,"Ġkey":3834,"part":3835,"ĠRock":3836,"ĠLet":3837,"Ġprep":3838,"Ġintern":3839,"ĠCo":3840,"Ġprotagon":3841,"Ġpsycholog":3842,"wart":3843,"uel":3844,"iles":3845,"Ġrace":3846,"Ġputs":3847,"Ġdancing":3848,"Ġindividual":3849,"Ġcommer":3850,"ĠSec":3851,"Ġemotions":3852,"Ġoffer":3853,"ĠYe":3854,"down":3855,"Ġpresented":3856,"uit":3857,"ĠHall":3858,"Ġbrothers":3859,"Ġdim":3860,"ability":3861,"oking":3862,"Ġsystem":3863,"Ġhoping":3864,"Ġlaughable":3865,"Ġinit":3866,"Ġsto":3867,"Ġsomewhere":3868,"cock":3869,"ĠSch":3870,"Ġabsurd":3871,"aus":3872,"ĠST":3873,"ĠBur":3874,"ĠBer":3875,"Some":3876,"ste":3877,"Ġdisg":3878,"Ġsurround":3879,"ĠNic":3880,"Ġnarrative":3881,"Ġsitting":3882,"ĠHam":3883,"Ġspec":3884,"aries":3885,"ĠThom":3886,"Ġslowly":3887,"Ġloose":3888,"ĠRay":3889,"ploy":3890,"Ġopportunity":3891,"Ġimpl":3892,"ĠSteve":3893,"ribe":3894,"Ġdrunk":3895,"Ġaspects":3896,"Ġlength":3897,"Ġlovely":3898,"sing":3899,"Ġnames":3900,"ĠMoo":3901,"Now":3902,"ĠRE":3903,"Ġscenery":3904,"Ġexpectations":3905,"Ġpictures":3906,"Ġfaith":3907,"Ġphotography":3908,"what":3909,"itor":3910,"Ġdefe":3911,"Ġdisappointing":3912,"ĠPol":3913,"Ġdescrib":3914,"ĠDirector":3915,"Ġvictims":3916,"Ġdiscover":3917,"Ġthemes":3918,"Ġlikable":3919,"Ġmistake":3920,"Ġintended":3921,"Ġoffe":3922,"Ġdiv":3923,"Ġacts":3924,"asty":3925,"Ġcontr":3926,"Ġdisappointment":3927,"Ġjourney":3928,"Ġmedioc":3929,"AC":3930,"Ġserial":3931,"Ġstands":3932,"Ġelement":3933,"ift":3934,"Ġgold":3935,"Ġflicks":3936,"ology":3937,"Ġfeelings":3938,"Ġequally":3939,"Ġlacks":3940,"ĠRog":3941,"ivil":3942,"Ġfinish":3943,"Ġrecommended":3944,"ĠBad":3945,"ictor":3946,"ĠStan":3947,"enny":3948,"ĠBest":3949,"Ġartist":3950,"Ġstudent":3951,"ĠOnly":3952,"pro":3953,"Ġoutstanding":3954,"nat":3955,"Ġast":3956,"Ġburn":3957,"Ġlif":3958,"ency":3959,"Ġdies":3960,"entially":3961,"Ġ18":3962,"inese":3963,"budget":3964,"ands":3965,"Ġdate":3966,"Ġcentury":3967,"Ġrip":3968,"Ġpassion":3969,"ĠBel":3970,"ĠHitch":3971,"Ġserv":3972,"Ġexcuse":3973,"cra":3974,"sed":3975,"Ġstuck":3976,"Ġmoral":3977,"aint":3978,"dered":3979,"Ġwalking":3980,"Ġfilming":3981,"text":3982,"aches":3983,"Ġfright":3984,"Ġdeveloped":3985,"ĠCanad":3986,"Ġaffair":3987,"ĠHouse":3988,"Ġvirt":3989,"Ġbehav":3990,"Ġpieces":3991,"ilities":3992,"Ġadaptation":3993,".....":3994,"Ġtradition":3995,"heart":3996,"oph":3997,"ĠNat":3998,"ĠPeople":3999,"Ġtired":4000,"Un":4001,"ĠTony":4002,"Ġpsych":4003,"Ġfreak":4004,"rad":4005,"Ġmillion":4006,"IG":4007,"ĠJean":4008,"?!":4009,"Ġfascinating":4010,"ached":4011,"ision":4012,"Ġcell":4013,"Ġnumb":4014,"OV":4015,"ĠSure":4016,"Ġremote":4017,"Ġadds":4018,"ĠAnother":4019,"Ġinclude":4020,"ĠMcC":4021,"Ġspl":4022,"Ġnaked":4023,"Ġintense":4024,"Ġlover":4025,"Ġdisappe":4026,"ĠStep":4027,"Ġmouth":4028,"Ġlived":4029,"Ġ40":4030,"Ġsoldiers":4031,"table":4032,"ander":4033,"ĠBecause":4034,"Ġfiction":4035,"ĠCal":4036,"Ġdisaster":4037,"Ġrelationships":4038,"At":4039,"Ġqual":4040,"Ġcas":4041,"ĠParis":4042,"gged":4043,"aire":4044,"Ġener":4045,"Ġnegative":4046,"Ġamb":4047,"orts":4048,"Ġdread":4049,"ica":4050,"lled":4051,"Ġdisgust":4052,"ĠYet":4053,"Ġcommercial":4054,"Ġunus":4055,"ena":4056,"Ġprocess":4057,"pendent":4058,"Ġfolks":4059,"ĠSad":4060,"Ġsoft":4061,"Ġfalling":4062,"While":4063,"field":4064,"Ġprim":4065,"Ġmagn":4066,"Ġmelod":4067,"rem":4068,"ĠJeff":4069,"onna":4070,"Ġnews":4071,"ĠWhere":4072,"Ġdrawn":4073,"Ġconfused":4074,"ĠWilliams":4075,"ban":4076,"erous":4077,"Ġresc":4078,"gly":4079,"ĠThan":4080,"ĠDay":4081,"ĠDun":4082,"Ġord":4083,"Ġconfusing":4084,"ĠDavis":4085,"ĠLo":4086,"see":4087,"Ġfell":4088,"ĠChristian":4089,"With":4090,"ka":4091,"Ġproducer":4092,"uous":4093,"Ġhosp":4094,"Ġseg":4095,"Ġobject":4096,"Ġbreath":4097,"Ġindustry":4098,"ĠTe":4099,"Ġdelivers":4100,"Ġ60":4101,"ĠBilly":4102,"Ġcontains":4103,"ĠBrother":4104,"elebr":4105,"Ġinspired":4106,"Ġ****":4107,"Ġimpressed":4108,"Ġallowed":4109,"Ġhasn":4110,"Ġquiet":4111,"Ġbecoming":4112,"ĠSpe":4113,"Ġrout":4114,"Ġactresses":4115,"ipp":4116,"mat":4117,"ĠSee":4118,"Ġfaces":4119,"Ġfault":4120,"Ġshare":4121,"Ġstudents":4122,"aven":4123,"IC":4124,"Ġthank":4125,"Ġseemingly":4126,"ledge":4127,"Ġzombies":4128,"rend":4129,"Ġworthy":4130,"Oh":4131,"owing":4132,"ĠJason":4133,"Ġmerely":4134,"Ġhighlight":4135,"Ġkidn":4136,"Ġflaws":4137,"ison":4138,"ĠAmericans":4139,"Ġedge":4140,"Ġfinding":4141,"orgeous":4142,"Ġmulti":4143,"wr":4144,"Ġmart":4145,"ĠIr":4146,"ĠChinese":4147,"Ġlaughed":4148,"ops":4149,"Ġdifference":4150,"xual":4151,"Ġpaid":4152,"itions":4153,"ĠAb":4154,"ĠEr":4155,"Ġapartment":4156,"ĠMoore":4157,"Ġconvers":4158,"Americ":4159,"Ġoffers":4160,"Ġden":4161,"hop":4162,"Ġcurrent":4163,"ĠSuper":4164,"ĠOverall":4165,"Ġaccur":4166,"Ch":4167,"icide":4168,"writer":4169,"ita":4170,"icious":4171,"Ġchase":4172,"Ġoppos":4173,"ĠWest":4174,"ishes":4175,"ĠMag":4176,"Ġslap":4177,"ĠGar":4178,"odies":4179,"Ġwondering":4180,"Ġhonestly":4181,"Ġgiant":4182,"Ġahead":4183,"ĠMore":4184,"ustr":4185,"Overall":4186,"Ġfood":4187,"sey":4188,"Ġfort":4189,"Ġhig":4190,"ĠMus":4191,"aud":4192,"omething":4193,"Ġcontent":4194,"Ġcompelling":4195,"pret":4196,"ĠSouth":4197,"Ġ13":4198,"pected":4199,"IE":4200,"ĠBat":4201,"ĠChris":4202,"Ġjoy":4203,"anda":4204,"ĠThough":4205,"Ġtragic":4206,"under":4207,"Ġprovides":4208,"ĠPal":4209,"Ġirrit":4210,"Ġphotograp":4211,"Ġsight":4212,"Ġcelebr":4213,"Ġimpact":4214,"orter":4215,"Ġheld":4216,"agger":4217,"ĠNothing":4218,"lor":4219,"Ġanymore":4220,"Ġunne":4221,"ĠVictor":4222,"Ġclean":4223,"Ġadults":4224,"Ġgri":4225,"Ġcorrect":4226,"Ġforgotten":4227,"ivers":4228,"ĠMike":4229,"ĠLew":4230,"Ġaccom":4231,"raid":4232,"Ġhide":4233,"inct":4234,"Ġstation":4235,"ĠCr":4236,"Ġappeared":4237,"Ġcritics":4238,"board":4239,"Ġpersonality":4240,"mbol":4241,"ĠTwo":4242,"inally":4243,"Ġshouldn":4244,"Ġmainly":4245,"Ġreminded":4246,"Ġweap":4247,"Ġmurders":4248,"Ġhospital":4249,"Ġdrag":4250,"ĠMark":4251,"eper":4252,"Ġbase":4253,"Ġgorgeous":4254,"Ġspectac":4255,"Ġdouble":4256,"Ġcomparis":4257,"Ġdreams":4258,"ĠWW":4259,"Ġlighting":4260,"Ġattractive":4261,"Ġthin":4262,"oughly":4263,"ode":4264,"tend":4265,"Ġwilling":4266,"Ġholes":4267,"Ġinformation":4268,"Ġyouth":4269,"Ġrented":4270,"do":4271,"ium":4272,"owell":4273,"ĠNaz":4274,"ennis":4275,"Ġforever":4276,"ĠHitchcock":4277,"istent":4278,"Ġeverybody":4279,"John":4280,"arant":4281,"Ġmelodra":4282,"Any":4283,"requ":4284,"aly":4285,"ĠShow":4286,"ique":4287,"oted":4288,"abl":4289,"Ġagent":4290,"Ġfunniest":4291,"Ġmediocre":4292,"ta":4293,"Ġhelps":4294,"Ġunw":4295,"Ġnobody":4296,"No":4297,"ddie":4298,"ĠCGI":4299,"enge":4300,"ĠHell":4301,"thur":4302,"ĠTheir":4303,"Ġformula":4304,"Ġprovide":4305,"ĠIS":4306,"good":4307,"Ġwise":4308,"ĠVery":4309,"Ġputting":4310,"Ġprogram":4311,"anic":4312,"Ġnasty":4313,"illed":4314,"Ġimagination":4315,"ĠRy":4316,"win":4317,"ament":4318,"Ġnons":4319,"ĠBoth":4320,"urch":4321,"Ġarea":4322,"Ġimage":4323,"Ġangry":4324,"ffe":4325,"Ġfellow":4326,"Ġknock":4327,"Ġturning":4328,"Ġmotion":4329,"Bl":4330,"eal":4331,"ĠSteven":4332,"Ġexplan":4333,"Ġmarket":4334,"Ġbi":4335,"Ġgames":4336,"Ġanswer":4337,"Ġpra":4338,"ĠPart":4339,"Ġround":4340,"Ġnoir":4341,"Ġcentral":4342,"ĠWestern":4343,"Ġsurprising":4344,"Ġeat":4345,"Ġeight":4346,"apped":4347,"Ġsuperior":4348,"Ġmember":4349,"ĠTer":4350,"Ġencoun":4351,"BC":4352,"uk":4353,"Ġoh":4354,"Ġcrow":4355,"lev":4356,"Ġaside":4357,"Ġfollowed":4358,"agers":4359,"Ġready":4360,"chan":4361,"Ġbright":4362,"Ġunreal":4363,"Ġblond":4364,"Ġcomedic":4365,"Ġachieve":4366,".,":4367,"De":4368,"iro":4369,"Ġonto":4370,"ĠHel":4371,"Ġexplos":4372,"Ġlocation":4373,"ĠSl":4374,"Ġunknown":4375,"Ġcontinue":4376,"Ġbene":4377,"ĠYoung":4378,"Ġreach":4379,"Ġsumm":4380,"Ġactions":4381,"ĠJew":4382,"Ġdescribe":4383,"ĠMs":4384,"Ġunderst":4385,"Ġoccasion":4386,"she":4387,"AY":4388,"gar":4389,"ifer":4390,"Ġlatter":4391,"ropriate":4392,"mark":4393,"anish":4394,"ĠMatt":4395,"Ġproves":4396,"Ġstandards":4397,"ators":4398,"ules":4399,"ĠHoward":4400,"Ġtrailer":4401,"ĠCat":4402,"ushed":4403,"Ġlose":4404,"Ġunusual":4405,"oses":4406,"Ġmut":4407,"Ġboard":4408,"Ġsour":4409,"Ġdubb":4410,"ancy":4411,"asure":4412,"Ġcoun":4413,"Ġcreative":4414,"Ġsupposedly":4415,"Ġcollection":4416,"inn":4417,"Ġmoved":4418,"entional":4419,"Ġcommentary":4420,"Ġtragedy":4421,"ĠBo":4422,"Ġfavourite":4423,"stal":4424,"rance":4425,"ĠLind":4426,"ĠGreen":4427,"Ġjustice":4428,"Ġthanks":4429,"Ġresemb":4430,"ooper":4431,"AM":4432,"glas":4433,"iac":4434,"Ġaim":4435,"Ġsearch":4436,"Ġwearing":4437,"year":4438,"bad":4439,"zen":4440,"omen":4441,"Ġchildhood":4442,"Ġsymbol":4443,"Ġled":4444,"Ġaware":4445,"Ġemploy":4446,"ĠWil":4447,"Ġtrust":4448,"port":4449,"Ġrelative":4450,"life":4451,"Ġnecessary":4452,"Ġseconds":4453,"Ġshocking":4454,"ĠAustral":4455,"Ġ12":4456,"Ġpossess":4457,"ĠKevin":4458,"Ġintroduced":4459,"father":4460,"ĠEast":4461,"Ġblind":4462,"Ġblame":4463,"Ġaccompl":4464,"ios":4465,"ĠDark":4466,"Ġdu":4467,"Ġcreature":4468,"azy":4469,"ĠAnn":4470,"urally":4471,"TV":4472,"otes":4473,"ady":4474,"ĠJes":4475,"Ġintriguing":4476,"Ġmob":4477,"ĠFe":4478,"rors":4479,"ĠDid":4480,"Ġplane":4481,"Ġtwice":4482,"Ġwarm":4483,"Ġheroes":4484,"Ġafraid":4485,"Ġunexpected":4486,"Ġtour":4487,"Ġhelped":4488,"Ġasked":4489,"Ġpicked":4490,"iens":4491,"ET":4492,"arget":4493,"sell":4494,"ĠSil":4495,"Ġwooden":4496,"Ġthus":4497,"Ġplanet":4498,"Ġbroad":4499,"Ġsell":4500,"Ġdesert":4501,"azz":4502,"Ġinsight":4503,"Ġspeaking":4504,"ĠclichÃ©s":4505,"Ġbank":4506,"Ġloss":4507,"Ġasks":4508,"Ġthor":4509,"Ġprofessional":4510,"Ġsac":4511,"Ġheads":4512,"Ġbelong":4513,"Ġskin":4514,"Ġteenage":4515,"Ġbal":4516,"empor":4517,"ĠOl":4518,"Ġaccount":4519,"Ġborn":4520,"Ġscientist":4521,"erk":4522,"has":4523,"anna":4524,"Ġbegan":4525,"Ġhook":4526,"Ġempt":4527,"ĠRussian":4528,"Ġclothes":4529,"CH":4530,"miss":4531,"Ġbottom":4532,"ĠBond":4533,"Ġshad":4534,"Ġintelligence":4535,"ĠFar":4536,"Ġprogress":4537,"Ġperform":4538,"Ġsurely":4539,"herent":4540,"ĠTre":4541,"ĠKelly":4542,"ĠChristopher":4543,"Ġmartial":4544,"roc":4545,"ĠGirl":4546,"arded":4547,"Ġrepeated":4548,"Ġphysical":4549,"Ġredeeming":4550,"Ġbur":4551,"ĠLuc":4552,"soever":4553,"acy":4554,"ech":4555,"mi":4556,"ĠPres":4557,"Ġsubst":4558,"Ġcal":4559,"ek":4560,"Ġdamn":4561,"Ġnumbers":4562,"Ġwide":4563,"Ġpair":4564,"Ġham":4565,"Ġhint":4566,"ĠLittle":4567,"Ġrealized":4568,"Ġincludes":4569,"Ġhated":4570,"itz":4571,"pective":4572,"Ġwanting":4573,"cho":4574,"ja":4575,"Ġwhatsoever":4576,"hony":4577,"Ġpen":4578,"Ġdying":4579,"ĠToo":4580,"entious":4581,"Ġugly":4582,"Ġfights":4583,"Ġfilmmaker":4584,"ario":4585,"urity":4586,"Ġbrutal":4587,"stein":4588,"Ġver":4589,"Ġvir":4590,"ĠNick":4591,"irk":4592,"Ġprefer":4593,"esb":4594,"ilos":4595,"Ġdistract":4596,"Ġrac":4597,"Ġstreng":4598,"hod":4599,"asts":4600,"Ġmemory":4601,"ĠAND":4602,"ĠSar":4603,"Ġpartner":4604,"rog":4605,"ĠBas":4606,"ĠDick":4607,"Ġpriv":4608,")<":4609,"anced":4610,"ovies":4611,"kins":4612,"lock":4613,"hern":4614,"kward":4615,"ĠON":4616,"Ġvillains":4617,"Ġwatchable":4618,"Ġcourt":4619,"Ġepic":4620,"Ġmission":4621,"ĠAnyway":4622,"Ġstruggle":4623,"ĠApp":4624,"Ġchannel":4625,"osh":4626,"abe":4627,"Ġanimals":4628,"Ġmotiv":4629,"Ġindependent":4630,"Ġgangster":4631,"Ġhotel":4632,"ĠLyn":4633,"Ġsadly":4634,"cture":4635,"Ġdeb":4636,"plot":4637,"Ġblock":4638,"ueen":4639,"oons":4640,"ugg":4641,"Ġbits":4642,"Ġcraft":4643,"Ġrelie":4644,"Ġtears":4645,"ĠJerry":4646,"film":4647,"undred":4648,"ateg":4649,"abor":4650,"aps":4651,"Ġissue":4652,"Ġbirth":4653,"ĠEddie":4654,"II":4655,"Ġtend":4656,"Ġphone":4657,"gn":4658,"Ġder":4659,"Ġ1970":4660,"ĠDouglas":4661,"lle":4662,"leep":4663,"ĠRom":4664,"Ġrubb":4665,"Ġfinished":4666,"ĠMany":4667,"Ġla":4668,"aded":4669,"unted":4670,"Ġstink":4671,"ĠSus":4672,"Ġunderstanding":4673,"Ġcrowd":4674,"Ġcivil":4675,"cking":4676,"Ġanywhere":4677,"ĠIN":4678,"Ġknowledge":4679,"Ġdrugs":4680,"Ġpilot":4681,"Ġris":4682,"plic":4683,"Ġguns":4684,"Ġvehic":4685,"Ġmixed":4686,"Ġhyp":4687,"Ġdebut":4688,"ĠJackson":4689,"alled":4690,"ĠAp":4691,"Ġawkward":4692,"Ġholds":4693,"Ġreact":4694,"ĠRus":4695,"Ġclub":4696,"Ġarts":4697,"Ġreturns":4698,"ĠPhil":4699,"aving":4700,"Ġrated":4701,"soci":4702,"Ġrarely":4703,"Ġdepart":4704,"Ġdeeply":4705,"oring":4706,"anity":4707,"rical":4708,"Ġted":4709,"Ġenv":4710,"Ġge":4711,"teen":4712,"tered":4713,"Ġhorse":4714,"Ġvision":4715,"Ġradio":4716,"Ġpersonally":4717,"Ġleader":4718,"Ġresponsible":4719,"Ġhits":4720,"ĠBar":4721,"Ġlets":4722,"Ġlimited":4723,"ĠNever":4724,"Ġstock":4725,"ĠEs":4726,"Ġenergy":4727,"gent":4728,"ville":4729,"iance":4730,"Ġpacing":4731,"Ġconfront":4732,"Ġconstant":4733,"Ġhurt":4734,"Ġplayers":4735,"Ġelect":4736,"Ġdeg":4737,"ĠRos":4738,"aton":4739,"ĠBrown":4740,"Ġvampire":4741,"Ġaband":4742,"Ġarmy":4743,"Ġsmile":4744,"ĠDaniel":4745,"Ġunnecessary":4746,"mar":4747,"Ġsepar":4748,"ĠBet":4749,"ĠDeath":4750,"Ġdeserve":4751,"Ġtight":4752,"Ġcars":4753,"ache":4754,"Ġbloody":4755,"natural":4756,"UT":4757,"hero":4758,"ĠEll":4759,"Ġfloor":4760,"ensional":4761,"bered":4762,"Ġexplained":4763,"Ġnicely":4764,"Ġ1950":4765,"ĠMal":4766,"Ġsuicide":4767,"Ġcommunity":4768,"Ġexplanation":4769,"Ġgoof":4770,"Ġsignific":4771,"etic":4772,"They":4773,"ivity":4774,"Ġthats":4775,"Ġmurdered":4776,"ĠEngland":4777,"Ġtorture":4778,"Ġhundred":4779,"ulation":4780,"Ġreligious":4781,"American":4782,"edding":4783,"ĠFord":4784,"ruction":4785,"ĠOnce":4786,"Ġmonths":4787,"terest":4788,"Ġgrat":4789,"Ġfool":4790,"Ġtwenty":4791,"ÂĹ":4792,"asm":4793,"they":4794,"Ġconcerned":4795,"ousy":4796,"Ġincre":4797,"Ġdeserved":4798,"Ġdeterm":4799,"Ġcriminal":4800,"Ġboo":4801,"ĠVH":4802,"Ġforeign":4803,"rs":4804,"arently":4805,"Although":4806,"cula":4807,"especially":4808,"ĠDel":4809,"anned":4810,"Ġtarget":4811,"star":4812,"ĠDen":4813,"Ġpleasure":4814,"Ġban":4815,"ĠSn":4816,"Ġscared":4817,"Ġcontext":4818,"Ġlacking":4819,"Ġskills":4820,"Ġdesperate":4821,"Rob":4822,".'":4823,"Ġprove":4824,"Ġrape":4825,"ores":4826,"Ġmount":4827,"ĠWild":4828,"althy":4829,"Ġaccurate":4830,"ĠLewis":4831,"Ġthoroughly":4832,"anted":4833,"fortable":4834,"Ġmild":4835,"Ġdress":4836,"unter":4837,"ording":4838,"Ġna":4839,"ading":4840,"ano":4841,"ugs":4842,"Ġtechnical":4843,":<":4844,"yes":4845,"stick":4846,"hered":4847,"Ġopt":4848,"Ġresults":4849,"oks":4850,"phy":4851,"esh":4852,"Ġlovers":4853,"ĠBlood":4854,"Ġvisit":4855,"Ġcops":4856,"Ġcircum":4857,"ĠWhite":4858,"Ġstrength":4859,"wolf":4860,"Ġwitty":4861,"Ġinstance":4862,"Ġphilos":4863,"Ġneighbor":4864,"break":4865,"hold":4866,"Ġbland":4867,"ĠStory":4868,"Ġowner":4869,"ĠEverything":4870,"ĠDespite":4871,"bur":4872,"Ġlies":4873,"ĠWin":4874,"ĠJr":4875,"Ġloving":4876,"uct":4877,"ĠVal":4878,"Ġpark":4879,"Ġlay":4880,"Ġcomparison":4881,"Ġforces":4882,"ĠHay":4883,"Ġinsane":4884,"Ġ1980":4885,"Ġhumans":4886,"Ġcreating":4887,"ĠJud":4888,"Ġmachine":4889,"ĠStephen":4890,"roll":4891,"oop":4892,"ĠWars":4893,"Ġmental":4894,"Re":4895,"ser":4896,"Ġsucks":4897,"Ġprostit":4898,"Ġflying":4899,"Ġner":4900,"Ġsubtit":4901,"Ġsurvive":4902,"Ġcard":4903,"Ġremain":4904,"Ġsword":4905,"ĠCraw":4906,"het":4907,"Ġfield":4908,"Ġpaper":4909,"ĠBarb":4910,"Ġproceed":4911,"Ġplots":4912,"Ġmarry":4913,"Ġopera":4914,"Ġrepresent":4915,"iful":4916,"Ġuncom":4917,"Ġcalls":4918,"Ġempty":4919,"mo":4920,"mare":4921,"Ġfriendship":4922,"Even":4923,"vit":4924,"Ġ?":4925,"ĠLi":4926,"ĠFox":4927,"ĠStewart":4928,"cis":4929,"ilst":4930,"Ġlocations":4931,"Ġengaging":4932,"Ġhidden":4933,"Ġwonderfully":4934,"Ġmine":4935,"Ġcow":4936,"ĠMen":4937,"Ġgotten":4938,"Ġefforts":4939,"Ġprotect":4940,"Ġwond":4941,"ĠDam":4942,"ĠAlan":4943,"........":4944,"Ġdriving":4945,"Ġhopes":4946,"Ġcontrast":4947,"200":4948,"ember":4949,"elle":4950,"Ġcompare":4951,"Ġartistic":4952,"Ġbelow":4953,"POILERS":4954,"rous":4955,"Ġsal":4956,"Ġearn":4957,"uddy":4958,"Ġmanage":4959,"Ġopens":4960,"Ġuncon":4961,"sec":4962,"Ġcharis":4963,"ĠLes":4964,"Ġmiser":4965,"director":4966,"Ġlesb":4967,"Ġ/>-":4968,"eman":4969,"Ġsurreal":4970,"Ġbelief":4971,"holic":4972,"there":4973,"Ġnumerous":4974,"Sc":4975,"Ġtoward":4976,"ĠAv":4977,"Ġchick":4978,"Ġhumanity":4979,"ĠJon":4980,"Ġoverly":4981,"Ġbigger":4982,"Ġparody":4983,"ĠWal":4984,"rue":4985,"Ġbehavior":4986,"ennifer":4987,"ĠWayne":4988,"Ġthous":4989,"Ġrubbish":4990,"iron":4991,"ĠWalk":4992,"ĠStone":4993,"Ġincluded":4994,"Ġregret":4995,"Ġstret":4996,"Ġstreets":4997,"Ġdangerous":4998,"Ġing":4999,"Ġofficer":5000,"Ġremarkable":5001,"ademy":5002,"ĠWas":5003,"Ġassist":5004,"Ġlearned":5005,"Ġtreated":5006,"Ġrevealed":5007,"ĠVHS":5008,"Ġcorrupt":5009,"top":5010,"ounds":5011,"ĠBrothers":5012,"ĠAc":5013,"ĠPlease":5014,"ĠLaw":5015,"Ġsafe":5016,"Ġcircumst":5017,"aylor":5018,"Ġorgan":5019,"cient":5020,"Ġkeeping":5021,"ĠSpanish":5022,"Ġconvin":5023,"Ġtur":5024,"Ġpress":5025,"Ġcaptured":5026,"ĠThomas":5027,"aybe":5028,"Ġmemories":5029,"ication":5030,"aker":5031,"ĠRon":5032,"ĠRod":5033,"ĠJan":5034,"Ġshallow":5035,"Ġanimal":5036,"pless":5037,"Ġwoods":5038,"Ġrealism":5039,"Ġeduc":5040,"Ġrefres":5041,"Ġreminds":5042,"ĠCrawford":5043,"Why":5044,"hent":5045,"Ġdated":5046,"Ġassoci":5047,"Ġhadn":5048,"Ġprec":5049,"Ġenth":5050,"Ġbreaks":5051,"Ġperspective":5052,"entions":5053,"Ġdesp":5054,"Ġfinale":5055,"Ġlisten":5056,"rat":5057,"ĠMax":5058,"ulf":5059,"Ġresol":5060,"ĠArthur":5061,"Ġframe":5062,"ĠCapt":5063,"ĠDennis":5064,"Ġunint":5065,"ĠEuropean":5066,"Ġmagnific":5067,"Sp":5068,"ĠHorror":5069,"osexual":5070,"Ġbuff":5071,"Ġcameo":5072,"ĠMrs":5073,"Ġveter":5074,"Ġgrowing":5075,"Ġdisplay":5076,"abb":5077,"OK":5078,"sion":5079,"ued":5080,"Ġfrequ":5081,"ĠSant":5082,"oom":5083,"Ġgas":5084,"add":5085,"Ġobsc":5086,"Ġinterpret":5087,"Ġregular":5088,"Ġpulled":5089,"rate":5090,"away":5091,"Ġtalents":5092,"Ġsentiment":5093,"ĠMurphy":5094,"Ġscrew":5095,"Ġens":5096,"Ġmedia":5097,"Ġtick":5098,"ushing":5099,"ĠLife":5100,"Ġplayer":5101,"ĠCarl":5102,"However":5103,"Ġfrank":5104,"Ġvol":5105,"Ġanybody":5106,"Ġexperien":5107,"looking":5108,"Ġcontrived":5109,"Ġopposite":5110,"Ġgonna":5111,"Ġtrib":5112,"aust":5113,"arc":5114,"although":5115,"rol":5116,"ĠCle":5117,"ruct":5118,"Ġtrick":5119,"reck":5120,"Ġcateg":5121,"imal":5122,"Ġnoticed":5123,"Ġblue":5124,"Ġtape":5125,"ĠLast":5126,"yal":5127,"Ġcable":5128,"achel":5129,"Ġchore":5130,"Ġrefreshing":5131,"eed":5132,"Ġloses":5133,"atory":5134,"Ġsheer":5135,"Ġrelate":5136,"Ġwindow":5137,"ometimes":5138,"screen":5139,"Ġfate":5140,"Ġreviewers":5141,"Ġsequels":5142,"Just":5143,"Ġsed":5144,"ĠRose":5145,"Ġpretentious":5146,"Ġteenagers":5147,"Ġpsychological":5148,"OL":5149,"spe":5150,"Ġpet":5151,"irm":5152,"ums":5153,"umps":5154,"Ġtherefore":5155,"ĠViet":5156,"mble":5157,"ogy":5158,"Ġheroine":5159,"Ġwinning":5160,"Yes":5161,"fl":5162,"wo":5163,"isters":5164,"Ġaliens":5165,"ĠAnderson":5166,"Ġspeech":5167,"50":5168,"Ġtack":5169,"Ġsoap":5170,"Ġterribly":5171,"Ġfeaturing":5172,"Ġhumorous":5173,"lla":5174,"ga":5175,"Ġsin":5176,"Ġnet":5177,"ĠBE":5178,"ulous":5179,"Ġdiscovers":5180,"Ġhigher":5181,"Ġvillage":5182,"Ġpriest":5183,"Ġreceived":5184,"iling":5185,"Ġdealing":5186,"Ġadvice":5187,"Ġidentity":5188,"Ġmodel":5189,"Ġaltern":5190,"ĠLa":5191,"Ġnonsense":5192,"ola":5193,"Ġmanip":5194,"Ġdecade":5195,"Ġcontinues":5196,"Ġgags":5197,"ĠWhich":5198,"Ġstereotypes":5199,"Ġchalleng":5200,");":5201,"bell":5202,"ĠCam":5203,"Ġstarting":5204,"Ġfinest":5205,"Ġdepressing":5206,"ominated":5207,"gen":5208,"Ġbot":5209,"Ġking":5210,"Ġrecall":5211,"olds":5212,"Ġprotagonist":5213,"ads":5214,"Ġjunk":5215,"ques":5216,"Ġsomebody":5217,"Ġdesire":5218,"Ġexperiment":5219,"Ġgeneration":5220,"Ġunfunny":5221,"Ġjudge":5222,"ĠMer":5223,"iser":5224,"orious":5225,"ĠCent":5226,"ĠDor":5227,"Ġsuck":5228,"Ġarm":5229,"theless":5230,"Ġprint":5231,"Ġstudy":5232,"Ġtransl":5233,"hentic":5234,"Ġpowers":5235,"Ġanime":5236,"Ġaward":5237,"Ġboat":5238,"Ġbroken":5239,"Ġrelief":5240,"ĠDean":5241,"Ġlevels":5242,"Ġgory":5243,"ĠBrian":5244,"Ġscare":5245,"Ġdeals":5246,"dra":5247,"ĠBog":5248,"outs":5249,"acting":5250,"Ġconsist":5251,"Ġgrace":5252,"Ġmeeting":5253,"ĠWat":5254,"aret":5255,"ĠSean":5256,"Ġsatire":5257,"Ġfif":5258,"lear":5259,"ĠMa":5260,"Ġattitude":5261,"Ġevidence":5262,"Ġinvolves":5263,"Ġreferences":5264,"some":5265,"Ġring":5266,"Ġtroub":5267,"ĠFrancis":5268,"Ġcares":5269,"ĠWoody":5270,"reedom":5271,"ĠBarry":5272,"Ġobl":5273,"Ġtreatment":5274,"point":5275,".\"<":5276,"ĠJohnny":5277,"rifying":5278,"ĠStreet":5279,"ĠDO":5280,"Ġvote":5281,"Ġpassed":5282,"Ġcapable":5283,"Ġsun":5284,"ids":5285,"Ġseven":5286,"ĠWH":5287,"ĠRam":5288,"ordon":5289,"Ġflashbacks":5290,"ĠTaylor":5291,"ĠColl":5292,"ĠGener":5293,"ĠJose":5294,"luding":5295,"Ġmajority":5296,"riday":5297,"Ġbodies":5298,"Ġemer":5299,"Ġkinda":5300,"Ġdiscovered":5301,"ĠThose":5302,"ribut":5303,"ĠDE":5304,"Ġvul":5305,"ivered":5306,"Ġsaved":5307,"Ġunrealistic":5308,"ners":5309,"Ġdisp":5310,"Ġfacts":5311,"Ġcapture":5312,"ĠAnthony":5313,"Ġbat":5314,"histic":5315,"ĠKong":5316,"Ġfamil":5317,"Ġremembered":5318,"Ġordinary":5319,"ĠRyan":5320,"Ġedited":5321,"Ġrescue":5322,"Ġtor":5323,"icate":5324,"Ġspeed":5325,"Ġoriginally":5326,"Ġmarvel":5327,"oh":5328,"Ġtun":5329,"Ġgru":5330,"Ġhall":5331,"Ġproved":5332,"Ġrange":5333,"ĠDracula":5334,"Ġgenuinely":5335,"oting":5336,"Ġbear":5337,"ĠVer":5338,"ĠHolmes":5339,"Ġgraphic":5340,"Ġincomp":5341,"ĠSpace":5342,"nox":5343,"Ġfailure":5344,"ĠColumb":5345,"Ġultimate":5346,"Ġenviron":5347,"RA":5348,"isa":5349,"Ġspoof":5350,"Ġsteal":5351,"Ġtheatre":5352,"Ġsummer":5353,"Ġunconv":5354,"anks":5355,"Ġgent":5356,"Ġmini":5357,"Ġstanding":5358,"Ġexpert":5359,"Ġintellect":5360,"za":5361,"ĠRoy":5362,"ĠTurn":5363,"ĠSince":5364,"Ġhur":5365,"tering":5366,"Ġunable":5367,"oken":5368,"Ġexploitation":5369,"kespe":5370,"Ġcruel":5371,"Ġfund":5372,"ashed":5373,"Ġgross":5374,"Ġportrays":5375,"ĠRussell":5376,"core":5377,"ether":5378,"Ġseat":5379,"Ġtypes":5380,"Ġsoldier":5381,"rang":5382,"Ġfame":5383,"Ġinex":5384,"ĠTex":5385,"Ġredu":5386,"Ġreaction":5387,"Ġvac":5388,"Ġexecuted":5389,"Ġproud":5390,"ails":5391,"don":5392,"Ġsear":5393,"Ġdelivered":5394,"Ġcrappy":5395,"Ġcombination":5396,"Ġfal":5397,"arian":5398,"iforn":5399,"Ġdecision":5400,"ĠEveryone":5401,"Ġvisuals":5402,"cies":5403,"tle":5404,"Ġsite":5405,"ĠTod":5406,"ĠBern":5407,"uns":5408,"???":5409,"Ġconnect":5410,"ĠPatrick":5411,"ups":5412,"yer":5413,"ĠTime":5414,"ĠAndrew":5415,"Ġdreadful":5416,"ĠSan":5417,"ĠKu":5418,"ĠBatman":5419,"imate":5420,"ĠDog":5421,"ĠAndy":5422,"Ġspectacular":5423,"SE":5424,"inis":5425,"Ġgrew":5426,"Ġinept":5427,"aa":5428,"Ġconnection":5429,"ĠGene":5430,"Ġ11":5431,"Ġimagin":5432,"ĠMexican":5433,"Let":5434,"Ġpeace":5435,"Ġsuffering":5436,"Ġhyster":5437,"stream":5438,"Ġguest":5439,"Ġprinc":5440,"Ġgratuit":5441,"Ġfly":5442,"Ġpath":5443,"Ġcuts":5444,"Ġallows":5445,"BI":5446,"Ġsides":5447,"ama":5448,"ĠLord":5449,"uman":5450,"Ġadvert":5451,"Ġteach":5452,"entionally":5453,"Ġmurdere":5454,"Ġcounter":5455,"Ġsake":5456,"Ġfeet":5457,"Ġunderrated":5458,"eanwhile":5459,"telling":5460,"Ġdry":5461,"ĠIm":5462,"ĠFrance":5463,"abeth":5464,"ĠAfrican":5465,"Ġcyn":5466,"Ġbrilliantly":5467,"Ġexistence":5468,"iver":5469,"ked":5470,"Ġgreen":5471,"Ġtalks":5472,"ynam":5473,"Ġcircumstances":5474,"nam":5475,"Ġsend":5476,"Ġsole":5477,"usive":5478,"orted":5479,"Ġirritating":5480,"Ġcab":5481,"ĠIT":5482,"aph":5483,"Ġtheaters":5484,"hearted":5485,"emporary":5486,"!).":5487,"Of":5488,"ĠPar":5489,"acc":5490,"Ġcash":5491,"Ġkiss":5492,"Then":5493,"finitely":5494,"Ġmorning":5495,"Ġtedious":5496,"ĠEric":5497,"Ġhandsome":5498,"Ġsympathetic":5499,"Ġlone":5500,"ĠSE":5501,"Ġnecess":5502,"Ġmonsters":5503,"Ġdescribed":5504,"Ġpit":5505,"Ġju":5506,"Ġclassics":5507,"Ġauthentic":5508,"Ġnaive":5509,"ĠLong":5510,"ĠGary":5511,"Ġoccasionally":5512,"Ġtem":5513,"omed":5514,"ĠJennifer":5515,"Ġskill":5516,"Ġvehicle":5517,"oyd":5518,"ĠAsian":5519,"Ġpainfully":5520,"Ġreflect":5521,"Ġemotionally":5522,"Ġbath":5523,"ĠPac":5524,"osaur":5525,"ĠYOU":5526,"incent":5527,"ĠGordon":5528,"Ġtext":5529,"Ġasking":5530,"Ġcartoons":5531,"Ġfamilies":5532,"She":5533,"ped":5534,"Ġic":5535,"ĠSy":5536,"zo":5537,"idge":5538,"ĠSun":5539,"Ġsucked":5540,"umm":5541,"Ġthoughts":5542,"Ġmaint":5543,"ĠPrince":5544,"ĠSecond":5545,"ĠOut":5546,"Ġbuilt":5547,"levant":5548,"ashes":5549,"ĠSund":5550,"Ġsaving":5551,"Ġteens":5552,"ĠFestival":5553,"ĠUnivers":5554,"Ġteenager":5555,"Ġ1930":5556,"ĠOld":5557,"Ġchoose":5558,"Ġsinger":5559,"Ġpsycho":5560,"Another":5561,"Ġsatisfying":5562,"Ġassume":5563,"\"),":5564,"Ar":5565,"Ġsea":5566,"agney":5567,"arden":5568,"Ġcompan":5569,"ILL":5570,"Also":5571,"done":5572,"fit":5573,"Ġproduce":5574,"Ġlogic":5575,"law":5576,"Ġgrown":5577,"Ġeating":5578,"ĠFer":5579,"Ġassass":5580,"Ġtechnology":5581,"Ġladies":5582,"ĠREAL":5583,"Ġblonde":5584,"ĠLA":5585,"ĠBeat":5586,"Ġgrade":5587,"ĠTHIS":5588,"Ġwedding":5589,"Ġbag":5590,"ago":5591,"ĠEVER":5592,"ĠLynch":5593,"ĠLook":5594,"tended":5595,"Ġlaughter":5596,"Ġlesson":5597,"ĠDanny":5598,"craft":5599,"UN":5600,"Ġembarrassing":5601,"IGH":5602,"Ġsegment":5603,"fortunate":5604,"Ġexecution":5605,"Ġestabl":5606,"ifornia":5607,"RI":5608,"lim":5609,"ĠShakespe":5610,"Ġlargely":5611,"Ġvirtually":5612,"ĠKeaton":5613,"upt":5614,"Ġforth":5615,"ĠCamp":5616,"Ġblow":5617,"ĠChuck":5618,"Ġappropriate":5619,"ĠComm":5620,"lynn":5621,"ĠKarl":5622,"Ġbelieves":5623,"ibal":5624,"Ġnormally":5625,"GE":5626,"espite":5627,"Ġda":5628,"ĠCinem":5629,"Ġfrustr":5630,"ĠNO":5631,"Ġspin":5632,"Ġhorribly":5633,"Ġexcited":5634,"Ġresearch":5635,"Ġpropag":5636,"teresting":5637,"lder":5638,"Ġwarning":5639,"Ġcreates":5640,"ights":5641,"Ġgratuitous":5642,"ĠSho":5643,"ĠCass":5644,"ummy":5645,"Ġcann":5646,"----":5647,"Ġexcit":5648,"Every":5649,"Ġbre":5650,"Ġweeks":5651,"Ġerotic":5652,"nal":5653,"upp":5654,"Ġpal":5655,"iration":5656,"Ġwel":5657,"outhern":5658,"Ġvan":5659,"Ġpromise":5660,"ube":5661,"Ġwhenever":5662,"ighter":5663,"col":5664,"ĠHo":5665,"ante":5666,"Ġslapstick":5667,"Ġmagnificent":5668,"Ġtill":5669,"Ġheav":5670,"Ġrental":5671,"ĠPlus":5672,"ĠBrad":5673,"Ġdelightful":5674,"ĠIre":5675,"Ġshop":5676,"Ġexpression":5677,"ĠSher":5678,"ours":5679,"ugos":5680,"Ġtheatrical":5681,"Ġqualities":5682,"Ġfle":5683,"Ġalco":5684,"itiz":5685,"Ġpunch":5686,"Ġlower":5687,"urday":5688,"iano":5689,"Ġzero":5690,"Ġpractically":5691,"Ġhearing":5692,"Ġplans":5693,"Ġvide":5694,"ume":5695,"Ġsteals":5696,"ĠAgain":5697,"Ġstopped":5698,"Ġenvironment":5699,"hal":5700,"Ġdressed":5701,"ilty":5702,"ĠSin":5703,"Ġlearns":5704,"ĠRoger":5705,"Ġsubtitles":5706,"Ġlesbian":5707,"olen":5708,"Ġoffensive":5709,"Ġdeaths":5710,"Ġshocked":5711,"ausible":5712,"olph":5713,"ĠPowell":5714,"Ġchurch":5715,"197":5716,"Ġwalks":5717,"Ġsch":5718,"Ġnin":5719,"ĠAdd":5720,"199":5721,"Ġinevit":5722,"cul":5723,"ona":5724,"ĠSH":5725,"ĠKore":5726,"ĠJulie":5727,"Ġscreaming":5728,"Le":5729,"uh":5730,"ĠCagney":5731,"Ġvs":5732,"Ġcollect":5733,"Ġessentially":5734,"Cl":5735,"made":5736,"erie":5737,"Ġfict":5738,"Ġcaused":5739,"Ġlucky":5740,"Ġbatt":5741,"acre":5742,"Ġpleasant":5743,"rie":5744,"vy":5745,"Ġunfortunate":5746,"iger":5747,"ĠAnna":5748,"Ġlosing":5749,"Ġsource":5750,"ĠZomb":5751,"ĠSimon":5752,"ĠCaptain":5753,"Fi":5754,"Ġfreedom":5755,"Ġyeah":5756,"Ġhol":5757,"Ġmatters":5758,"Ġversions":5759,"Ġexcitement":5760,"ĠMars":5761,"ĠKat":5762,"Ġviewed":5763,"ĠHarris":5764,"Ġsharp":5765,"Ġtable":5766,"ĠThing":5767,"amily":5768,"ĠCount":5769,"Ġscar":5770,"Ġconvey":5771,"udes":5772,"Ġ16":5773,"beat":5774,"Ġinvolve":5775,"Pl":5776,"Ġcant":5777,"Ġquir":5778,"Ġappl":5779,"ENT":5780,"From":5781,"Ġcook":5782,"Ġendless":5783,"Ġterm":5784,"Ġcenter":5785,"Ġrevolution":5786,"Ġamateurish":5787,"icit":5788,"Ġrealizes":5789,"Ġholding":5790,"Ġcurious":5791,"ĠAst":5792,"ĠMi":5793,"Ġsop":5794,"Ġwhilst":5795,"ĠJess":5796,"ĠKenn":5797,"Ġruined":5798,"Ġhomosexual":5799,"pass":5800,"ĠTor":5801,"Ġhaunting":5802,"ĠKate":5803,"Ġcompos":5804,"aken":5805,"ĠNorth":5806,"Ġarrest":5807,"Ġmakeup":5808,"Ġcorny":5809,"Ġbringing":5810,"Ġdollars":5811,"ĠPo":5812,"Ġpregn":5813,"ungle":5814,"Ġpurcha":5815,"ĠQueen":5816,"Ġsubstance":5817,"):":5818,"Ġdirty":5819,"ĠInt":5820,"othy":5821,"ĠCast":5822,"ĠWhe":5823,"Ġjail":5824,"Ġages":5825,"Ġsurface":5826,"Ġcreatures":5827,"Ġsurviv":5828,"ĠBroad":5829,"ĠLouis":5830,"mond":5831,"otion":5832,"Ġportraying":5833,"Ġspeaks":5834,"class":5835,"Ġharsh":5836,"Ġdisgusting":5837,"Ġrelatively":5838,"Ġincreas":5839,"Ġfrankly":5840,"Do":5841,"ĠMiche":5842,"ĠHor":5843,"ĠKim":5844,"ĠKhan":5845,"198":5846,"Ġroutine":5847,"dom":5848,"wing":5849,"yr":5850,"Ġdrop":5851,"Ġcommand":5852,"ĠHaw":5853,"ĠRen":5854,"Ġexperiences":5855,"Ġreput":5856,"umph":5857,"Ġprovided":5858,"hise":5859,"Ġrevel":5860,"urse":5861,"ĠHope":5862,"Ġreminis":5863,"ĠUp":5864,"ault":5865,"ker":5866,"ĠMin":5867,"ĠHit":5868,"ulp":5869,"Ġconce":5870,"Ġpoign":5871,"ĠClark":5872,"ĠEliz":5873,"ĠLady":5874,"ogether":5875,"formed":5876,"ĠJackie":5877,"ĠIndia":5878,"ĠTexas":5879,"ĠSal":5880,"Ġforgettable":5881,"Ġextraord":5882,"Ġtraditional":5883,"ĠShakespeare":5884,"Ġfits":5885,"Ġlie":5886,"ression":5887,"reek":5888,"Ġfeatured":5889,"ĠUSA":5890,"Ġconvinced":5891,"Ġmask":5892,"Ġlink":5893,"ĠMic":5894,"Ġsche":5895,"Ġconsequ":5896,"Ġende":5897,"ĠVER":5898,"Ġsupernatural":5899,"Ġreviewer":5900,"Ġrefer":5901,"Ġfalse":5902,"ship":5903,"ĠMass":5904,"Ġunp":5905,"Ġspends":5906,"Ġprice":5907,"Ġbelieved":5908,"ĠTHAT":5909,"Ġstrongly":5910,"Ġpulls":5911,"Ġmanipul":5912,"bly":5913,"vest":5914,"ĠFlynn":5915,"ĠUK":5916,"Ġfactor":5917,"ĠNazi":5918,"nda":5919,"plin":5920,"Ġentertained":5921,"Ġexpos":5922,"ĠMcG":5923,"than":5924,"whel":5925,"Ġrules":5926,"ĠStates":5927,"Ġpresents":5928,"ĠLeon":5929,"Ġtwisted":5930,"Ġmultiple":5931,"ĠWilson":5932,"ixt":5933,"ĠPre":5934,"viously":5935,"Ġglass":5936,"Ġtouches":5937,"written":5938,"ĠPresident":5939,"pet":5940,"eds":5941,"Ġwear":5942,"Ġconsp":5943,"Ġpaced":5944,"ari":5945,"Ġancient":5946,"VE":5947,"Ġhey":5948,"Ġaccomp":5949,"ĠIsland":5950,"Ġcosts":5951,"Ġstayed":5952,"long":5953,"Ġmir":5954,"Ġoverlook":5955,"Ġhandled":5956,"Ġcostume":5957,"ĠCalifornia":5958,"gon":5959,"girl":5960,"ĠMil":5961,"ĠRing":5962,"Ġcrash":5963,"mother":5964,"Ġlousy":5965,"Ġreporter":5966,"Ġclaims":5967,"Ġidiot":5968,"Ġdepicted":5969,"ĠAcademy":5970,"ij":5971,"Ġinner":5972,"Ġexagger":5973,"Ġstructure":5974,"Ġsuffers":5975,"Ġsensitive":5976,"Ġdemonstr":5977,"Ġconversation":5978,"ls":5979,"Ġdynam":5980,"Ġasleep":5981,"ĠAra":5982,"âĢ":5983,"isc":5984,"ĠMaster":5985,"ĠHill":5986,"usi":5987,"Ġvague":5988,"Ġfare":5989,"Ġevening":5990,"Ġcommitted":5991,"Ġpursu":5992,"ĠThank":5993,"Ġpropaganda":5994,"gie":5995,"ĠMarie":5996,"ĠHaving":5997,"Ġbond":5998,"ĠRem":5999,"Ġacqu":6000,"Ġdevice":6001,"Ġexperienced":6002,"Ste":6003,"Ġcro":6004,"Ġneat":6005,"Ġpromising":6006,"ĠTO":6007,"ĠEvil":6008,"Ġpartic":6009,"Ġstrang":6010,"20":6011,"Ġclue":6012,"Ġcring":6013,"ĠUnited":6014,"produ":6015,"iled":6016,"ĠDem":6017,"aren":6018,"Ġserves":6019,"Ġcommit":6020,"ĠDoes":6021,"Ġcomplain":6022,"Ġhanging":6023,"ĠNichol":6024,"buster":6025,"rix":6026,"ĠDian":6027,"ĠEv":6028,"ĠEve":6029,"Ġguard":6030,"Ġappealing":6031,"Ġvoices":6032,"Ġcloser":6033,"Ġpuzz":6034,"mind":6035,"ss":6036,"arning":6037,"amous":6038,"ĠBu":6039,"orting":6040,"Ġinfluence":6041,"ION":6042,"Ġabr":6043,"Ġpile":6044,"ĠVincent":6045,"Ġfrightening":6046,"ĠCanadian":6047,"ĠApparently":6048,"Ġcust":6049,"ĠDar":6050,"Ġbetray":6051,"Ġflesh":6052,"ĠAsh":6053,"Ġsyn":6054,"Ġpolitics":6055,"Ġpraise":6056,"Like":6057,"vo":6058,"ora":6059,"iday":6060,"Ġcutting":6061,"Ġdinner":6062,"Ġfestival":6063,"ĠComp":6064,"Ġrival":6065,"ĠEdward":6066,"Ġdescript":6067,"ĠMorgan":6068,"Ġveteran":6069,"loyd":6070,"Ġwitch":6071,"ioned":6072,"Ġstolen":6073,"ĠHong":6074,"Ġunfor":6075,"ĠWarner":6076,"Ġsnow":6077,"Ġdestroyed":6078,"ston":6079,"Ġarms":6080,"Ġfocuses":6081,"ipped":6082,"Ġgig":6083,"Ġbitter":6084,"ĠCost":6085,"ĠFBI":6086,"Ġadop":6087,"oster":6088,"Ġmethod":6089,"ĠALL":6090,"Ġchosen":6091,"Ġgentle":6092,"Ġ)":6093,"Ġstom":6094,"rocious":6095,"ummer":6096,"Ġunse":6097,"Ġinvent":6098,"ĠAnne":6099,"Ġconcent":6100,"Ġlatest":6101,"Ġreligion":6102,"Ġinitial":6103,"ĠBarbara":6104,"!),":6105,"ĠBor":6106,"udic":6107,"Ġ14":6108,"ĠActually":6109,"Ġlegendary":6110,"Ġremotely":6111,"ya":6112,"hob":6113,"ĠFriday":6114,"apping":6115,"including":6116,"Ġprior":6117,"Ġstereotypical":6118,"Ġrough":6119,"icked":6120,"Ġexcess":6121,"Ġrepet":6122,"Ġstatement":6123,"ients":6124,"Ġabuse":6125,"Ġarg":6126,"Ġabandoned":6127,"Ġbeach":6128,"Ġhen":6129,"Ġskip":6130,"Ġmovement":6131,"ĠBrand":6132,"ww":6133,"ĠRoman":6134,"Ġshut":6135,"Ġsheriff":6136,"Ġflo":6137,"ĠJohnson":6138,"Man":6139,"Ne":6140,"iat":6141,"imm":6142,"Ġideal":6143,"Ġsuffer":6144,"Ġtap":6145,"Ġtrapped":6146,"Ġcamer":6147,"Ġpolic":6148,"11":6149,"dim":6150,"world":6151,"anny":6152,"Ġgritty":6153,"Ġsuspenseful":6154,"ashington":6155,"Ġgoofy":6156,"Ġmurderer":6157,"abr":6158,"ration":6159,"rees":6160,"ĠEach":6161,"ĠGrand":6162,"Ġweapons":6163,"__":6164,"Ġbound":6165,"ĠSk":6166,"Ġrise":6167,"Ġworry":6168,"Ġdirectly":6169,"Ġspark":6170,"liver":6171,"Ġvisually":6172,"Ġencounter":6173,"Ġprivate":6174,"Ġreputation":6175,"UR":6176,"phan":6177,"Â´":6178,"eral":6179,"Ġwalked":6180,"Ġvariety":6181,"Ġdrinking":6182,"Ġwound":6183,"ils":6184,"Ġlift":6185,"Ġenemy":6186,"Ġperformed":6187,"Ġmainstream":6188,"Ġdriver":6189,"Ġuninteresting":6190,"Ġdegree":6191,"GM":6192,"Ġpity":6193,"Ġliber":6194,"umber":6195,"Ġdriven":6196,"Ġcrying":6197,"Ġstatus":6198,"Ġheck":6199,"ĠCurt":6200,"Ġoutrage":6201,"onda":6202,"Ġdisag":6203,"Ġbothered":6204,"eness":6205,"ĠCooper":6206,"unning":6207,"Ġgreater":6208,"ĠAlbert":6209,"ĠMexico":6210,"Ġdubbed":6211,"BO":6212,"zan":6213,"zil":6214,"Ġspite":6215,"Ġcontact":6216,"Ġcontemporary":6217,"umbling":6218,"ĠCarol":6219,"ĠVietnam":6220,"ĠJoseph":6221,"ani":6222,"asp":6223,"Ġstalk":6224,"Ġspoilers":6225,"Ġseasons":6226,"ĠJesus":6227,"Ġsophistic":6228,"Ġfix":6229,"Ġsemi":6230,"Ġeverywhere":6231,"Ġrights":6232,"Ġcomplicated":6233,"Ġdivor":6234,"hand":6235,"Ġcris":6236,"kend":6237,"ĠAre":6238,"Ġhired":6239,"aming":6240,"ĠLand":6241,"Ġscenario":6242,"Ġade":6243,"ocal":6244,"ĠBefore":6245,"ĠJimmy":6246,"Ġatrocious":6247,"Ġfranc":6248,"Ġangles":6249,"inals":6250,"omer":6251,"Ġenter":6252,"rett":6253,"uclear":6254,"Ġisol":6255,"ĠHal":6256,"Ġscale":6257,"ĠChaplin":6258,"Ġconvince":6259,"Ġposition":6260,"ĠSusan":6261,"kind":6262,"ĠFre":6263,"Ġcourage":6264,"Ġexplains":6265,"Ġ1960":6266,"ĠIrish":6267,"mal":6268,"Ġsne":6269,"asant":6270,"utch":6271,"ĠWashington":6272,"Ġnostal":6273,"Ġsurprises":6274,"ĠReally":6275,"atching":6276,"Ġcaptures":6277,"ĠclichÃ©d":6278,"Ġrequired":6279,"Ġimprove":6280,"ĠSandler":6281,"Ġcategory":6282,"ĠVERY":6283,"ait":6284,"antage":6285,"Ġfab":6286,"Ġkinds":6287,"Ġoccasional":6288,"Ġsympathy":6289,"Is":6290,"fess":6291,"Ġtoler":6292,"Ġludic":6293,"Ġreun":6294,"Ġguilty":6295,"Ġincident":6296,"Ġamazed":6297,"Ġpreviously":6298,"ĠGermany":6299,"Ġnostalg":6300,"orig":6301,"ĠVir":6302,"oche":6303,"Ġcovered":6304,"Ġworthwhile":6305,"Ġcaptiv":6306,"Ġstruggling":6307,"ĠLucy":6308,"ĠEspecially":6309,"oween":6310,"ems":6311,"Ġdeeper":6312,"Ġaccents":6313,"IM":6314,"Ġcore":6315,"ĠSon":6316,"ĠNone":6317,"Ġchoices":6318,"Ġfootball":6319,"Ġarrives":6320,"ĠSaturday":6321,"Ġmelodrama":6322,"Ġparticip":6323,"low":6324,"rant":6325,"ule":6326,"ilogy":6327,"ĠLater":6328,"Ġraised":6329,"Ġharm":6330,"Ġaccidentally":6331,"Ġfunnier":6332,"Ġemphas":6333,"Ġ0":6334,"Ġbab":6335,"Ġevol":6336,"Ġobsessed":6337,"Ġheavily":6338,"hard":6339,"etime":6340,"Ġwealthy":6341,"Ġenjoying":6342,"Ġlandsc":6343,"Ġgraph":6344,"Ġquirky":6345,"die":6346,"hib":6347,"omination":6348,"Ġhaunted":6349,"ĠArt":6350,"Ġpainting":6351,"Ġmetal":6352,"Ġnude":6353,"Ġsection":6354,"ĠMeanwhile":6355,"ĠLloyd":6356,"Ġkillers":6357,"Ġobnox":6358,"Ġservice":6359,"Ġdogs":6360,"spired":6361,"Ġdistribut":6362,"coming":6363,"Ġunivers":6364,"Ġruin":6365,",'":6366,"after":6367,"gun":6368,"Ġpan":6369,"Ġrend":6370,"Ġdownright":6371,"ĠDonald":6372,"Ġdelivery":6373,"Ġstomach":6374,"fall":6375,"ooth":6376,"zed":6377,"Ġain":6378,"ethe":6379,"ĠBurn":6380,"Ġfigured":6381,"ĠSarah":6382,"had":6383,"urs":6384,"ĠRick":6385,"Ġunif":6386,"Ġminds":6387,"Ġwand":6388,"Ġhack":6389,"ĠBell":6390,"Ġcampy":6391,"\").":6392,"uty":6393,"ĠNE":6394,"igned":6395,"Ġscreening":6396,"Ġchanging":6397,"Ġcontrovers":6398,"Ġinterviews":6399,"Ġunconvincing":6400,"Ġfictional":6401,"By":6402,"bing":6403,"osity":6404,"Ġspell":6405,"Ġdecades":6406,"Ġtruck":6407,"Ġsubsequ":6408,"Ġoriginality":6409,"Ġsorts":6410,"mber":6411,"sm":6412,"rehen":6413,"atives":6414,"ĠTed":6415,"ĠPri":6416,"ĠLat":6417,"Ġrot":6418,"Ġlights":6419,"Who":6420,"Ġice":6421,"hem":6422,"Ġinha":6423,"Ġwerewolf":6424,"Ġambit":6425,"Ġserve":6426,"pson":6427,"Ġformat":6428,"Ġbesides":6429,"Ġ/>*":6430,"owed":6431,"ĠCandy":6432,"Ġplaced":6433,"beit":6434,"ucky":6435,"Ġunlikely":6436,"Ġchose":6437,"uls":6438,"ĠLam":6439,"Ġtitles":6440,"Ġenthusi":6441,"ugosi":6442,"ease":6443,"Ġantic":6444,"Ġscares":6445,"Ġbreaking":6446,"ĠBroadway":6447,"Ġvast":6448,"ĠFair":6449,"onsider":6450,"Ġforest":6451,"ĠSadly":6452,"arable":6453,"ĠCH":6454,"ĠAustralian":6455,"Ġtax":6456,"atra":6457,"ĠTri":6458,"ĠThrough":6459,"ĠParker":6460,"bed":6461,"wen":6462,"stone":6463,"ĠPitt":6464,"ĠNY":6465,"Ġcarries":6466,"ronic":6467,"Ġlawyer":6468,"Ġpupp":6469,"Ġjoin":6470,"Ġ25":6471,"Ġconcert":6472,"Michael":6473,"onest":6474,"ĠMiller":6475,"Ġwears":6476,"ĠDet":6477,"ĠLost":6478,"Ġsports":6479,"Ġchuck":6480,"Ġmagical":6481,"Ġpaying":6482,"ĠAnyone":6483,"Ġclosing":6484,"Ġmassive":6485,"Ġcriminals":6486,"dimensional":6487,"AA":6488,"ĠBack":6489,"Ġcheer":6490,"Ġsket":6491,"Ġexamples":6492,"Ġcritical":6493,"ĠFreddy":6494,"Ġsucceeds":6495,"Ġoffered":6496,"ĠHelen":6497,"CK":6498,"tw":6499,"Ġsink":6500,"onel":6501,"ashy":6502,"ĠMet":6503,"Ġremo":6504,"Ġextras":6505,"belief":6506,"Ġdesperately":6507,"IR":6508,"horror":6509,"hist":6510,"Ġarch":6511,"ĠAndre":6512,"ĠElizabeth":6513,"etheless":6514,"mod":6515,"erc":6516,"Ġfish":6517,"Ġgre":6518,"idents":6519,"ĠWall":6520,"Ġstorytelling":6521,"plays":6522,"Ġattacked":6523,"ĠJulia":6524,"Ġanswers":6525,"ĠYour":6526,"Ġcontest":6527,"Ġwinner":6528,"Ġrecognize":6529,"isher":6530,"hamed":6531,"ĠAfrica":6532,"fun":6533,"ĠMGM":6534,"ĠWes":6535,"Ġloyal":6536,"ĠOver":6537,"ĠBeaut":6538,"Ġfavorites":6539,"Ġdemand":6540,"Ġthrows":6541,"Ġreference":6542,"Ġinj":6543,"oms":6544,"Ġnominated":6545,"Ġjeal":6546,"ĠKill":6547,"Ġprevent":6548,"Ġtear":6549,"Ġhole":6550,"Ġjobs":6551,"Ġdistinct":6552,"Ġstarred":6553,"Ġcontribut":6554,"Ġcontinuity":6555,"Ġunderstood":6556,"ĠTrek":6557,"Ġlonely":6558,"Here":6559,"Ġanger":6560,"Ġdozen":6561,"Ġblat":6562,"atherine":6563,"Ġbuying":6564,"loved":6565,"Ġnarration":6566,"ĠSwed":6567,"Ġsearching":6568,"zilla":6569,"Ġdeliber":6570,"ĠWithout":6571,"Ġmistakes":6572,"ĠAmaz":6573,"IGHT":6574,"lected":6575,"style":6576,"ĠSO":6577,"ĠFinally":6578,"ĠOb":6579,"icted":6580,"Ġcharge":6581,"Ġuncle":6582,"ĠTurner":6583,"called":6584,"Ġtong":6585,"Ġpool":6586,"Ġrev":6587,"eter":6588,"Ġoverwhel":6589,"Ġreminiscent":6590,"Ġobnoxious":6591,"Ġmas":6592,"Ġseve":6593,"Ġinteg":6594,"ĠGet":6595,"actic":6596,"Ġnecessarily":6597,"ĠHitler":6598,"Ġstates":6599,"ety":6600,"ada":6601,"ĠDream":6602,"ĠOur":6603,"ianc":6604,"Ġprime":6605,"Ġsky":6606,"Ġnaturally":6607,"Ġencou":6608,"Will":6609,"can":6610,"Ġwid":6611,"Ġfu":6612,"enced":6613,"aude":6614,"Ġtraining":6615,"ĠThree":6616,"Ġdesigned":6617,"Ġdepartment":6618,"Ġupset":6619,"Ġsav":6620,"Ġserved":6621,"ĠGuy":6622,"Ġcondition":6623,"laim":6624,"nes":6625,"Ġped":6626,"Ġded":6627,"ĠWor":6628,"ĠWind":6629,"ĠFull":6630,"Ġgrim":6631,"ibilities":6632,"Ġproperly":6633,"Ġdetermined":6634,"Ġ#":6635,"Ġtask":6636,"iner":6637,"Ġblown":6638,"Ġeffectively":6639,"ĠGeneral":6640,"Ġtiny":6641,"alling":6642,"ĠSometimes":6643,"ĠMont":6644,"Ġpassing":6645,"Ġcauses":6646,"Ġgar":6647,"ĠMoon":6648,"Ġtiming":6649,"appy":6650,"retty":6651,"ĠSuperman":6652,"case":6653,"noon":6654,"ĠSid":6655,"Ġrelated":6656,"Ġsecurity":6657,"Ġconfess":6658,"Ġprofound":6659,"ĠSur":6660,"ĠCru":6661,"assion":6662,"except":6663,"Ġcombined":6664,"Ġ1940":6665,"lection":6666,"ĠHE":6667,"Ġseek":6668,"Ġcontain":6669,"Ġpaint":6670,"ĠWelles":6671,"Anyway":6672,"ĠTur":6673,"Ġraw":6674,"Ġsimpl":6675,"Ġwarn":6676,"Ġmature":6677,"Ġbrave":6678,"Ġrobot":6679,"ĠAvoid":6680,"hh":6681,"Ġbore":6682,"ĠLugosi":6683,"Ġmere":6684,"Ġhorrific":6685,"aze":6686,"Ġfarm":6687,"Ġstylish":6688,"ĠLaura":6689,"BS":6690,"esc":6691,"Ġnuclear":6692,"uther":6693,"ams":6694,"Ġhandle":6695,"Ġirre":6696,"Ġreveals":6697,"Ex":6698,"Per":6699,"Ġbill":6700,"ĠDuring":6701,"Ġadmire":6702,"ĠJewish":6703,"breaking":6704,"Ġuncomfortable":6705,"erved":6706,"amor":6707,"ĠMuch":6708,"Ġdisbelief":6709,"Ġfocused":6710,"ĠChannel":6711,"Ġignor":6712,"Ġsignificant":6713,"Ġgruesome":6714,"Ġintellectual":6715,"Ġaccompan":6716,"taking":6717,"ype":6718,"enstein":6719,"Ġshape":6720,"Ġextent":6721,"Ġpresentation":6722,"Ġuniverse":6723,"Ġregarding":6724,"ĠGreg":6725,"tending":6726,"Ġstops":6727,"Ġrule":6728,"Ġtremend":6729,"ection":6730,"wor":6731,"itter":6732,"Ġcarried":6733,"Ġpregnant":6734,"aves":6735,"chen":6736,"ĠMOV":6737,"Ġnewsp":6738,"Ġbasis":6739,"Ġwarned":6740,"ĠBritain":6741,"Ġcapital":6742,"ym":6743,"Ġcand":6744,"ĠKen":6745,"Ġstrict":6746,"Ġattempting":6747,"Ġprofessor":6748,"Ġcriticism":6749,"lance":6750,"Ġyell":6751,"ĠCap":6752,"Ġchair":6753,"Ġvia":6754,"Ġ17":6755,"Ġaccording":6756,"Ġfigures":6757,"ielberg":6758,"ĠPhill":6759,"Ġchallenge":6760,"Ġsinister":6761,"rim":6762,"Ġfond":6763,"ĠPlay":6764,"Ġstays":6765,"ĠOliver":6766,"plend":6767,"Ġswim":6768,"Ġcolors":6769,"ĠOtherwise":6770,"Ġextraordinary":6771,"Ġludicrous":6772,"UL":6773,"walk":6774,"ĠHop":6775,"awa":6776,"Ġcrude":6777,"Ġsitcom":6778,"Ġfranchise":6779,"Dav":6780,"tes":6781,"vably":6782,"oooo":6783,"Ġsurf":6784,"Ġdepiction":6785,"Ġnovels":6786,"Ad":6787,"pent":6788,"ĠSol":6789,"ĠMill":6790,"irected":6791,"Ġcorpor":6792,"Ġspoiler":6793,"ĠAL":6794,"ĠHart":6795,"Ġjungle":6796,"ĠJu":6797,"Ġevident":6798,"ĠChina":6799,"Ġaccess":6800,"prise":6801,"ĠRoberts":6802,"ĠBrooks":6803,"OOD":6804,"Despite":6805,"Ġcomical":6806,"Ġincor":6807,"Ġadding":6808,"ĠMarc":6809,"chell":6810,"ĠWalter":6811,"ĠPa":6812,"Ġteeth":6813,"Ġsounded":6814,"Ġrestaur":6815,"Ġappreciated":6816,"Ġthrowing":6817,"Ġmildly":6818,"Ġcynical":6819,"Good":6820,"something":6821,"Ġsisters":6822,"Ġcous":6823,"agal":6824,"ĠPower":6825,"Ġdiss":6826,"Ġcoinc":6827,"Ġcalling":6828,"Ġimagery":6829,"ĠUnlike":6830,"Ġ2000":6831,"iveness":6832,"Ġsummary":6833,"Ġreject":6834,"chy":6835,"ĠCann":6836,"ĠDep":6837,"Ġrank":6838,"Ġblah":6839,"Ġviews":6840,"Ġcountries":6841,"Ġfaithful":6842,"Ġbaseball":6843,"Con":6844,"from":6845,"ipping":6846,"iques":6847,"Ġton":6848,"Ġtree":6849,"orrow":6850,"ila":6851,"Ġbutt":6852,"ĠPenn":6853,"aws":6854,"Ġborder":6855,"Ġattacks":6856,"Ġshark":6857,"Ġproductions":6858,"Mar":6859,"Okay":6860,"iable":6861,"ux":6862,"Ġoil":6863,"Ġnu":6864,"ĠRachel":6865,"Ġfacial":6866,"Ġdisgu":6867,"Ġraise":6868,"---":6869,"Ġprepared":6870,"Ġinitially":6871,"Ġpoignant":6872,"ĠIra":6873,"adays":6874,"ifies":6875,"ĠPict":6876,"ĠFonda":6877,"weet":6878,"Ġracist":6879,"Ġdescription":6880,"Director":6881,"cut":6882,"umble":6883,"nery":6884,"Ġartists":6885,"Ġcrack":6886,"Ġtouched":6887,"Ġpicks":6888,"ields":6889,"ĠBasically":6890,"Ġwelcome":6891,"Bra":6892,"list":6893,"Ġske":6894,"Ġmansion":6895,"airs":6896,"Ġdeadly":6897,"Ġintroduction":6898,"Ġbuddy":6899,"ĠArn":6900,"ĠFranco":6901,"Ġinternational":6902,"Ġnative":6903,"ĠTy":6904,"Ġenhan":6905,"forward":6906,"Ġeveryday":6907,"ĠShar":6908,"Ġadvantage":6909,"Ġsettings":6910,"ĠANY":6911,"wl":6912,"ĠBaby":6913,"Ġgreatly":6914,"Ġrain":6915,"cover":6916,"ĠDevil":6917,"Ġfairy":6918,"Ġamongst":6919,"Ġexpressions":6920,"Ġequal":6921,"Ġreward":6922,"Ġstated":6923,"ĠRand":6924,"Ġlearning":6925,"ĠOff":6926,"Ġinteract":6927,"Ġconfusion":6928,"ught":6929,"Ġalleg":6930,"ographer":6931,"Ġmindless":6932,"ĠClass":6933,".)<":6934,"Ġignore":6935,"ĠLinda":6936,"ĠSunday":6937,"Ġdisagree":6938,"Ġwins":6939,"Ġgro":6940,"Ġelev":6941,"Ġanticip":6942,"nan":6943,"Ġpage":6944,"Ġactiv":6945,"ĠJac":6946,"Ġmyth":6947,"Ġclown":6948,"Ġcultural":6949,"Ġurban":6950,"IA":6951,"fest":6952,"Ġgain":6953,"ĠLos":6954,"Ġoccup":6955,"Ġatmospher":6956,"inging":6957,"Ġphen":6958,"story":6959,"ĠKirk":6960,"mentioned":6961,"Ġborrow":6962,"Ġfet":6963,"ĠSir":6964,"Ġnotable":6965,"ĠDie":6966,"Ġflow":6967,"gging":6968,"Ġgrad":6969,"ception":6970,"ĠMaria":6971,"Ġamazingly":6972,"Ġflawed":6973,"Ġrobber":6974,"ĠEnter":6975,"ĠSanta":6976,"oration":6977,"iders":6978,"Ġashamed":6979,"ĠDi":6980,"Ġplastic":6981,"Ġqueen":6982,"Ġpresident":6983,"ĠSpielberg":6984,"Ġjournal":6985,"Ġmac":6986,"Ġhip":6987,"rig":6988,"ĠJay":6989,"Ġhelping":6990,"Ġsleazy":6991,"ĠSatan":6992,"den":6993,"kick":6994,"lot":6995,"ingu":6996,"asion":6997,"Ġsevent":6998,"ĠMid":6999,"Ġembarrassed":7000,"ĠDunne":7001,"bour":7002,"Ġelder":7003,"Ġthro":7004,"ĠBesides":7005,"Ġvivid":7006,"onscious":7007,"stery":7008,"ĠPlan":7009,"Ġinspiration":7010,"Christ":7011,"ĠOliv":7012,"Most":7013,"seud":7014,"Ġasp":7015,"ĠMovies":7016,"Ġentry":7017,"Ġchief":7018,"ĠWatching":7019,"Ġadequ":7020,"bid":7021,"hi":7022,"oes":7023,"Ġlaid":7024,"Ġnation":7025,"Ġslo":7026,"thew":7027,"ĠChic":7028,"Ġcolour":7029,"Ġcases":7030,"Robert":7031,"rich":7032,"Ġlibr":7033,"Ġexists":7034,"Ġfac":7035,"ĠSchool":7036,"Ġweekend":7037,"ĠCanada":7038,"Ġbalance":7039,"ĠLeslie":7040,"Char":7041,"El":7042,"fits":7043,"Ġstunt":7044,"Ġrub":7045,"Ġtechnique":7046,"Ġstruggles":7047,"Ġrevolves":7048,"Ġdinosaur":7049,"ĠWWII":7050,"Ġfabulous":7051,"wh":7052,"itchell":7053,"Ġ/>(":7054,"ĠCind":7055,"ĠRain":7056,"Ġunbe":7057,"Ġpreview":7058,"Ġcheese":7059,"arzan":7060,"Ġgut":7061,"ĠIce":7062,"semble":7063,"ĠBollywood":7064,"ĠMST":7065,"Ġneck":7066,"Ġclips":7067,"Ġargu":7068,"ĠVin":7069,"Ġinstall":7070,"Ġrisk":7071,"\"?":7072,"ange":7073,"ĠTake":7074,"ĠMort":7075,"ĠInc":7076,"Ġrenting":7077,"Ġparall":7078,"Ġangle":7079,"going":7080,"Ġassistant":7081,"ĠKarloff":7082,"80":7083,"Ġwanna":7084,"Ġnational":7085,"Ġweight":7086,"empl":7087,"ela":7088,"ĠRa":7089,"oding":7090,"Ġtrilogy":7091,"Ġcastle":7092,"ĠBeing":7093,"Ġlesser":7094,"Ġescapes":7095,"Ġkidnapped":7096,"original":7097,"Ġgraphics":7098,"Ġtro":7099,"Ġafternoon":7100,"Ġnightmare":7101,"ancing":7102,"ĠHalloween":7103,"Ġdisappear":7104,"CT":7105,"jud":7106,"wy":7107,"Ġbow":7108,"eturn":7109,"ĠShan":7110,"Ġscr":7111,"ĠGi":7112,"Ġaged":7113,"Ġexchan":7114,"orc":7115,"ĠHad":7116,"...\"":7117,"Ġawards":7118,"Ġterrit":7119,"ĠBlue":7120,"ĠYeah":7121,"Ġgripping":7122,"Ġmarvelous":7123,"iation":7124,"mate":7125,"mates":7126,"Ġdude":7127,"Ġstiff":7128,"ĠCry":7129,"ĠKid":7130,"Ġhalfway":7131,"ĠArmy":7132,"Ġbelongs":7133,"Ġturkey":7134,"iments":7135,"ĠStud":7136,"ĠChild":7137,"Ġpersonalities":7138,"Ġmerc":7139,"Ġprotagonists":7140,"Ġaston":7141,"Ġfrequently":7142,"Ġtongue":7143,"LD":7144,"fire":7145,"Ġhiding":7146,"Ġpoet":7147,"Ġelabor":7148,"Ġpurely":7149,"Unfortunately":7150,"ĠLucas":7151,"ĠBogart":7152,"cellent":7153,"ĠCare":7154,"Ġmeat":7155,"ella":7156,"Ġcontract":7157,"Ġscripts":7158,"ĠMarg":7159,"Ġinnov":7160,"Ġofficial":7161,"Ġcarrying":7162,"Ġsurrounding":7163,"Ġweapon":7164,"Ġfirm":7165,"Ġbik":7166,"entric":7167,"ĠHA":7168,"ustrated":7169,"ĠProdu":7170,"Ġguarant":7171,"Ġglimp":7172,"Ġstupidity":7173,"Ġguessing":7174,"Ġratings":7175,"Ġestablished":7176,"arm":7177,"bra":7178,"Ġintens":7179,"Ġrat":7180,"ounding":7181,"Ġresist":7182,"Ġportra":7183,"Ġinnocence":7184,"conom":7185,"Ġglimpse":7186,"Ġtorn":7187,"Ġlust":7188,"Ġwasting":7189,"Ġalt":7190,"Ġspy":7191,"Ġripped":7192,"ĠArgent":7193,"iamond":7194,"Ġsuccessfully":7195,"Ġexecut":7196,"ĠAbout":7197,"Ġshadow":7198,"Ġoblig":7199,"Maybe":7200,"Ġbon":7201,"ĠRoss":7202,"Ġgoal":7203,"Ġsmooth":7204,"Ġretarded":7205,"Ġcredibility":7206,"Ġstruck":7207,"Ġatmospheric":7208,"Am":7209,"mitted":7210,"hall":7211,"Ġdign":7212,"ĠCas":7213,"Ġjumps":7214,"ĠGriff":7215,"Ġlocked":7216,"ĠKnight":7217,"Ġscreenwriter":7218,"Ġcrimes":7219,"Ġperfection":7220,"Ġcredible":7221,"Ġstriking":7222,"Ġtense":7223,"ĠTarant":7224,"ader":7225,"ĠBette":7226,"ĠJer":7227,"ĠEnd":7228,"ooky":7229,"ello":7230,"Ġflight":7231,"Ġfinan":7232,"avor":7233,"Ġletting":7234,"Ġlistening":7235,"Ġweakness":7236,"Ġdevil":7237,"Ġspoiled":7238,"Ġsplend":7239,"Ġeth":7240,"Ġexerc":7241,"Ġknife":7242,"ĠUnder":7243,"Ġidiotic":7244,"Ġfil":7245,"Ġpseud":7246,"athan":7247,"Ġchap":7248,"Ġmechan":7249,"Ġdislike":7250,"Ġgrave":7251,"comedy":7252,"Ġsuggests":7253,"Ġsophisticated":7254,"ĠMOVIE":7255,"UST":7256,"uper":7257,"handed":7258,"arter":7259,"Ġnoted":7260,"Ġenorm":7261,"Ġtricks":7262,"ĠAlice":7263,"Ġtopic":7264,"ONE":7265,"ĠAnton":7266,"Ġcolorful":7267,"Ġcharisma":7268,"Ġbeloved":7269,"ĠAir":7270,"ĠBon":7271,"ĠWonder":7272,"Ġminimal":7273,"ification":7274,"AND":7275,"Ġultra":7276,"afia":7277,"bu":7278,"when":7279,"ĠBAD":7280,"ĠHunter":7281,"ogical":7282,"Ġrolling":7283,"Ġshoots":7284,"Ġexceptional":7285,"Ġdestro":7286,"Ġbroke":7287,"ĠBBC":7288,"ulk":7289,"ĠDa":7290,"Ġcaring":7291,"Ġindie":7292,"ĠNeil":7293,"Ġconnected":7294,"THE":7295,"Ġperformers":7296,"imately":7297,"ĠAud":7298,"Ġarrog":7299,"Ġspending":7300,"Ġsolve":7301,"iracy":7302,"Ġfest":7303,"Ġheaven":7304,"ĠBL":7305,"ĠLarry":7306,"ĠVamp":7307,"Ġseparate":7308,"rehens":7309,"Sh":7310,"Ġfeed":7311,"Ġovercome":7312,"Ġstunts":7313,"?).":7314,"Ġtempt":7315,"Ġcy":7316,"Ġdump":7317,"Ġlazy":7318,"Ġthirty":7319,"ĠCro":7320,"eline":7321,"Ġune":7322,"gettable":7323,"SPOILERS":7324,"Ġjack":7325,"Ġplant":7326,"Ġshines":7327,"Ġbackd":7328,"ĠBlair":7329,"Ġirony":7330,"Ġterrorist":7331,"Ġexplosions":7332,"erior":7333,"Ġpiano":7334,"Ġeconom":7335,"ĠLOV":7336,"Ġsleeping":7337,"Ġpsychiat":7338,"Ġsentimental":7339,"TER":7340,"US":7341,"Ġtune":7342,"hew":7343,"isms":7344,"Ġcave":7345,"Ġpa":7346,"alph":7347,"ishment":7348,"ĠTommy":7349,"Ġsexuality":7350,"Ġspiritual":7351,"Ġthousands":7352,"Ġmirror":7353,"ĠRep":7354,"osing":7355,"Ġfallen":7356,"Ġrefuses":7357,"ĠLuke":7358,"Ġtribute":7359,"Ġfulf":7360,"Ġbird":7361,"Ġpig":7362,"ĠHome":7363,"cker":7364,"Ġseeking":7365,"Ġspread":7366,"vised":7367,"Ġdrives":7368,"Ġgrows":7369,"Ġimmense":7370,"Ġessential":7371,"Ġnetwork":7372,"Ġprincip":7373,"Ġbattles":7374,"Ġrestaurant":7375,"ba":7376,"ingers":7377,"ĠMitchell":7378,"cket":7379,"ĠLI":7380,"Ġdramat":7381,"Ġhandful":7382,"Ġexpensive":7383,"Ġmiscast":7384,"Ġadventures":7385,"Ġrepeat":7386,"ĠPhilip":7387,"Ġobscure":7388,"ugh":7389,"rep":7390,"Ġwrest":7391,"ĠTit":7392,"Ġabilities":7393,"Ġvent":7394,"ĠRuth":7395,"ĠKiller":7396,"ĠTodd":7397,"ĠPacino":7398,"70":7399,"Having":7400,"Ġpray":7401,"Ġeerie":7402,"oose":7403,"Ġlegs":7404,"Ġmagaz":7405,"Ġphysically":7406,"Ġobsession":7407,"Ġtheory":7408,"Ġcandy":7409,"Ġsuffe":7410,"redict":7411,"ogue":7412,"orses":7413,"ersonally":7414,"Ġconsists":7415,"Ġannoun":7416,"Ġironic":7417,"Ġmetaph":7418,"Ġneighborhood":7419,"Ġinterpretation":7420,"book":7421,"amie":7422,"ĠCome":7423,"ulated":7424,"Ġquote":7425,"Ġboredom":7426,"Ġarrive":7427,"Ġcuriosity":7428,"hill":7429,"Ġdomin":7430,"ĠSomething":7431,"aughters":7432,"Ġcock":7433,"Ġelsewhere":7434,"Ġrepetitive":7435,"ĠTarantino":7436,"icop":7437,"ctions":7438,"Ġbeating":7439,"ĠLion":7440,"ĠIntern":7441,"Ġuseless":7442,"Ġthrilling":7443,"Ġimaginative":7444,"ĠUniversal":7445,"Wow":7446,"Ġtied":7447,"Ġdece":7448,"ĠRee":7449,"Ġguilt":7450,"Ġpresum":7451,"emption":7452,"Ġshorts":7453,"Ġlarger":7454,"liners":7455,"Ġreplaced":7456,"ĠDuke":7457,"ĠVirgin":7458,"Gra":7459,"tan":7460,"Ġensemble":7461,"Ġspoken":7462,"Ġexplore":7463,"Ġexplicit":7464,"umbs":7465,"ANT":7466,"Ġunfold":7467,"rifice":7468,"Ġmillions":7469,"Ġautom":7470,"Ġprostitute":7471,"ĠMassacre":7472,"oked":7473,"Ġattempted":7474,"Ġmentally":7475,"Ġcabin":7476,"iently":7477,"ida":7478,"rial":7479,"ĠBa":7480,"Ġjerk":7481,"Ġproof":7482,"Ġkillings":7483,"Ġhappily":7484,"ivan":7485,"Ġpersona":7486,"ords":7487,"Ġcarefully":7488,"ointed":7489,"ĠGodzilla":7490,"Ġconcerns":7491,"ĠRogers":7492,"Ġinexplic":7493,"ĠThings":7494,"Ġincreasingly":7495,"ĠMitch":7496,"ĠMeg":7497,"Ġchases":7498,"ĠGhost":7499,"ptic":7500,"Ġeditor":7501,"Ġimportance":7502,"Ġilleg":7503,"Ġabrupt":7504,"Ġafore":7505,"atisf":7506,"Ġhes":7507,"ĠHoff":7508,"ouses":7509,"ĠNancy":7510,"Ġinvestigation":7511,"ĠKennedy":7512,"Ġnewspaper":7513,"inist":7514,"Ġhill":7515,"udge":7516,"place":7517,"resses":7518,"Ġworkers":7519,"ĠUs":7520,"Ġchildish":7521,"Ġdevelops":7522,"Ġclosely":7523,"Ġselfish":7524,"Ġhomage":7525,"ĠSecret":7526,"Ġinevitable":7527,"CE":7528,"rust":7529,"sl":7530,"via":7531,"hai":7532,"Ġconven":7533,"riller":7534,"Ġopened":7535,"ĠConn":7536,"!!!!!!!!":7537,"Ġtreasure":7538,"Ġpacked":7539,"Ġinternet":7540,"Ġvacation":7541,"OD":7542,"Ġlying":7543,"Ġgee":7544,"ĠTob":7545,"ĠWoman":7546,"ĠDad":7547,"Ġintentions":7548,"Ġunderground":7549,"Ġtrite":7550,"Ġsuperfic":7551,"Ġeleg":7552,"Ġinsulting":7553,"ĠEastwood":7554,"13":7555,"Ġaired":7556,"Ġthick":7557,"ĠHug":7558,"ulate":7559,"Ġvicious":7560,"plete":7561,"Ġsubplot":7562,"Ġfriendly":7563,"ĠSeagal":7564,"ĠIndians":7565,"Ġlifest":7566,"Ġmiserably":7567,"Ġtroubled":7568,"iancÃ©":7569,"ĠCage":7570,"ĠHot":7571,"ĠHave":7572,"Ġplague":7573,"ĠFin":7574,"Ġcance":7575,"ĠKane":7576,"Ġenjoyment":7577,"Ġriding":7578,"Ġtechniques":7579,"writers":7580,"Ġreplace":7581,"ĠMusic":7582,"Where":7583,"why":7584,"ndy":7585,"Ġmira":7586,"Ġtoile":7587,"ĠAlf":7588,"ĠCary":7589,"ĠCub":7590,"Ġkung":7591,"ushes":7592,"new":7593,"orsese":7594,"Ġhorrend":7595,"Ġriver":7596,"ocaust":7597,"Ġdragged":7598,"Ġnowadays":7599,"Ġinfamous":7600,"ĠItaly":7601,"Ġterritory":7602,"Ġmock":7603,"Ġstumb":7604,"ĠFamily":7605,"ĠOkay":7606,"ĠStr":7607,"ĠSoon":7608,"Ġmiles":7609,"Ġaccepted":7610,"ĠKorean":7611,"ĠMichelle":7612,"David":7613,"Ġphenomen":7614,"Jack":7615,"Two":7616,"ĠBros":7617,"ĠMo":7618,"ĠRun":7619,"Ġdecl":7620,"Ġboot":7621,"Ġacceptable":7622,"Ġ1990":7623,"Ġuninspired":7624,"Ġdropped":7625,"ĠAngeles":7626,"Ġvirgin":7627,"BLE":7628,"Ġtag":7629,"hey":7630,"Ġgal":7631,"ĠMAN":7632,"ĠFore":7633,"ĠGen":7634,"ĠCharact":7635,"ĠScar":7636,"30":7637,"60":7638,"Great":7639,"OP":7640,"ĠWOR":7641,"Ġdepe":7642,"Ġantics":7643,"Ġvirus":7644,"ĠREALLY":7645,"wyck":7646,"Fran":7647,"Ġwreck":7648,"imag":7649,"allo":7650,"ĠAward":7651,"Ġshy":7652,"Ġchilling":7653,"Ġtrial":7654,"Ġcoach":7655,"Ġcaric":7656,"ĠRec":7657,"ĠClaire":7658,"rified":7659,"Ġcompetent":7660,"Ġvampires":7661,"Ġsplit":7662,"En":7663,"Ġcig":7664,"ĠMom":7665,"iffe":7666,"Ġchamp":7667,"quis":7668,"ructed":7669,"Ġtraum":7670,"pses":7671,"Ġthrillers":7672,"Ġhooked":7673,"Ġphilosoph":7674,"imum":7675,"ĠCont":7676,"ĠDri":7677,"ĠFle":7678,"ĠGreek":7679,"Ġposter":7680,"Ġrelax":7681,"ĠCarter":7682,"Ġstrike":7683,"Ġambig":7684,"Ġvideos":7685,"Ġoverlooked":7686,"Ġsuffered":7687,"Mr":7688,"rink":7689,"too":7690,"Ġwishes":7691,"ĠBull":7692,"ĠPG":7693,"ĠPhant":7694,"pleasant":7695,"Ġinstantly":7696,"Ġmedical":7697,"Ġprofession":7698,"Ġbroadcast":7699,"bal":7700,"hest":7701,"Ġcitiz":7702,"ilton":7703,"Ġanal":7704,"Ġhelicop":7705,"Ġallowing":7706,"Ġcomedian":7707,"ĠFrankenstein":7708,"Ġidentify":7709,"Ġsteps":7710,"ĠZombie":7711,"Ġambitious":7712,"AK":7713,"Ġecc":7714,"Ġintention":7715,"ĠGun":7716,"Ġburied":7717,"Ġappearances":7718,"Ġprisoners":7719,"Ġcrafted":7720,"onse":7721,"Ġdub":7722,"Ġhealth":7723,"Ġlovable":7724,"Ġperpet":7725,"Ġ24":7726,"Ġdarkness":7727,"ĠHardy":7728,"Ġrepeatedly":7729,"Ġhundreds":7730,"Ġhysterical":7731,"Ġsurvivors":7732,"Ġsize":7733,"Ġpush":7734,"icing":7735,"Ġstood":7736,"Ġkicks":7737,"Ġvi":7738,"Ġshout":7739,"ĠKurt":7740,"ographic":7741,"Ġghosts":7742,"ĠIraq":7743,"Ġintensity":7744,"ĠHoffman":7745,"Ġeager":7746,"ĠBart":7747,"Ġglob":7748,"Ġhonor":7749,"Ġcaptain":7750,"Ġopposed":7751,"ological":7752,"Ġpleasantly":7753,"Ġessence":7754,"Ġspecific":7755,"ĠThanks":7756,"Ġmountain":7757,"Ġdaily":7758,"AIN":7759,"Ġtow":7760,"ĠBall":7761,"ĠBuck":7762,"Ġjew":7763,"Ġpreach":7764,"Ġsexually":7765,"Ġafford":7766,"Ġdubbing":7767,"lers":7768,"Ġ***":7769,"athy":7770,"ĠLake":7771,"Ġenem":7772,"Ġhappiness":7773,"Ġcountless":7774,"Ġstealing":7775,"Ġstrangely":7776,"Ġprojects":7777,"Ġassociated":7778,"ĠSinatra":7779,"Ġoutrageous":7780,"?),":7781,"box":7782,"iar":7783,"isions":7784,"Ġgather":7785,"verty":7786,"ĠSU":7787,"ĠSqu":7788,"Ġnotch":7789,"eling":7790,"ĠLisa":7791,"ĠKrist":7792,"erek":7793,"Ġsaves":7794,"type":7795,"wered":7796,"ĠNext":7797,"hett":7798,"rer":7799,"atchable":7800,"Ġupper":7801,"Ġhipp":7802,"ĠLane":7803,"ertainly":7804,"Ġpointed":7805,"Ġourselves":7806,"Ġcringe":7807,"EL":7808,"Ġwra":7809,"Ġincons":7810,"Ġreasonably":7811,"Ġstronger":7812,"ĠConnery":7813,"Ġachieved":7814,"Ġvulner":7815,"Ġunforgettable":7816,"Ġbeast":7817,"ĠBus":7818,"ĠWould":7819,"ĠWere":7820,"ĠWitch":7821,"Ġreturned":7822,"Ġdestruction":7823,"ĠIII":7824,"Ġsuspects":7825,"Ġsedu":7826,"Ġconsequences":7827,"Ġdrown":7828,"Ġguts":7829,"Ġalright":7830,"ellar":7831,"Ġbeings":7832,"ĠHarold":7833,"oiler":7834,"Ġimportantly":7835,"Ġstereotype":7836,"ĠChaney":7837,"Ġburst":7838,"iber":7839,"Ġwann":7840,"Ġlur":7841,"ĠBurt":7842,"eller":7843,"erella":7844,"Ġhood":7845,"Ġramp":7846,"Ġreasonable":7847,"ograph":7848,"ĠMcD":7849,"Ġbeaten":7850,"ket":7851,"happy":7852,"stop":7853,"aste":7854,"Ġruth":7855,"ĠDefinitely":7856,"......":7857,"Ġsadistic":7858,"Ġaccomplished":7859,"ĠColumbo":7860,"ĠMickey":7861,"ata":7862,"ements":7863,"Ġsuits":7864,"Ġmanager":7865,"think":7866,"ĠVeg":7867,"Ġremaining":7868,"Its":7869,"oilers":7870,"Ġbusy":7871,"Ġmotor":7872,"ĠBrid":7873,"Ġmeaningful":7874,"Ġbleak":7875,"Ġwalls":7876,"ĠMiike":7877,"cr":7878,"van":7879,"Ġbeer":7880,"ĠTarzan":7881,"rien":7882,"Ġunpleasant":7883,"ĠScorsese":7884,"insaw":7885,"ventually":7886,"Ġswitch":7887,"Ġtransfer":7888,"ĠHopkins":7889,"eron":7890,"ĠHud":7891,"agn":7892,"ĠGill":7893,"igan":7894,"Ġshel":7895,"plo":7896,"Ġshower":7897,"Ġoffering":7898,"Ġtalked":7899,"ĠClint":7900,"Ġhopefully":7901,"Ġnonetheless":7902,"Ġhoped":7903,"Ġmedium":7904,"Ġoccurs":7905,"Ġindividuals":7906,"Ġbreathtaking":7907,"Ġmotivation":7908,"ĠArnold":7909,"ĠChicago":7910,"fact":7911,"hil":7912,"yc":7913,"inent":7914,"order":7915,"aning":7916,"Ġwebs":7917,"ĠQuaid":7918,"Ġignored":7919,"Ġmadness":7920,"ĠStanwyck":7921,"Ġunintentionally":7922,"Ġeccentric":7923,"va":7924,"ĠfiancÃ©":7925,"ĠSuch":7926,"agan":7927,"Ġpoverty":7928,"Ġchest":7929,"Ġlessons":7930,"ierce":7931,"Ġranks":7932,"Ġtortured":7933,"Ġcousin":7934,"Paul":7935,"ĠAk":7936,"ĠSorry":7937,"ĠCur":7938,"Ġvenge":7939,"ĠPot":7940,"Ġwatches":7941,"....<":7942,"ullivan":7943,"Ġlimit":7944,"Ġdollar":7945,"ĠAustralia":7946,"Ġassassin":7947,"Ġexercise":7948,"Se":7949,"nels":7950,"Ġpin":7951,"ĠSPOILERS":7952,"ĠRalph":7953,"uments":7954,"ĠJosh":7955,"ĠNin":7956,"Ġimit":7957,"Ġresour":7958,"Ġappearing":7959,"Ġgrandfather":7960,"Ke":7961,"Ġmaid":7962,"Ġinfect":7963,"Ġsends":7964,"Ġthread":7965,"ĠHood":7966,"Ġattend":7967,"Ġflu":7968,"Ġgradu":7969,"Ġcreation":7970,"ĠWillis":7971,"Ġforgive":7972,"Ġhype":7973,"Ġlogical":7974,"Ġmelodramatic":7975,"ipe":7976,"Ġsings":7977,"only":7978,"ĠLiving":7979,"Ġspots":7980,"Ġinco":7981,"Ġdramas":7982,"Ġresponse":7983,"penter":7984,"Ġportrait":7985,"pse":7986,"ito":7987,"itar":7988,"Ġgift":7989,"ĠBay":7990,"ĠDrew":7991,"Ġcomfort":7992,"Ġterrifying":7993,"Ġcreators":7994,"Ġdrivel":7995,"Ġannoyed":7996,"Ġfourth":7997,"Ġplanning":7998,"Ġjudg":7999,"ĠMatthew":8000,"pieces":8001,"rity":8002,"wife":8003,"amin":8004,"ĠLem":8005,"eping":8006,"Ġblows":8007,"Ġfarce":8008,"Ġtransport":8009,"Ġsubsequent":8010,"Qu":8011,"Tom":8012,"idal":8013,"elson":8014,"aka":8015,"Ġwheel":8016,"Ġrushed":8017,"oren":8018,"plane":8019,"Ġcharacterization":8020,"weight":8021,"Ġscientists":8022,"Ġfortun":8023,"Ġprecise":8024,"ĠCinema":8025,"Ġrevelation":8026,"aver":8027,"eder":8028,"ĠCall":8029,"ĠWoo":8030,"ifting":8031,"aga":8032,"ophy":8033,"Ġagents":8034,"Ġinsist":8035,"ĠReal":8036,"Ġengine":8037,"Ġ:)":8038,"Ġrequire":8039,"Ġfortune":8040,"Ġbreasts":8041,"Ġalcohol":8042,"ĠObviously":8043,"nic":8044,"Ġhung":8045,"Ġhorses":8046,"ĠFather":8047,"plots":8048,"Ġtales":8049,"unky":8050,"ĠIndeed":8051,"ĠGeor":8052,"Ġattraction":8053,"Ġcardboard":8054,"Ġremoved":8055,"such":8056,"water":8057,"Ġsons":8058,"Ġdom":8059,"ieu":8060,"Ġalbeit":8061,"ĠPort":8062,"Ġrow":8063,"Ġrealise":8064,"onym":8065,"Ġpatient":8066,"Ġstrip":8067,"Ġresembles":8068,"Ġthousand":8069,"ĠJessica":8070,"Ġlibrary":8071,"Ġaforementioned":8072,"Ġsuperficial":8073,"Finally":8074,"video":8075,"Ġwack":8076,"Ġpir":8077,"ota":8078,"Ġnut":8079,"ĠDays":8080,"usions":8081,"udos":8082,"Ġmyst":8083,"acted":8084,"Ġwondered":8085,"Pe":8086,"idel":8087,"ĠMed":8088,"ĠBerg":8089,"Ġincompet":8090,"bet":8091,"Ġwicked":8092,"Ġbust":8093,"Ġreleas":8094,"Ġrhy":8095,"Ġblank":8096,"oubted":8097,"ĠGrace":8098,"Ġcombat":8099,"Though":8100,"utherland":8101,"Com":8102,"corn":8103,"fight":8104,"run":8105,"Ġcere":8106,"Ġnail":8107,"ĠTen":8108,"ĠCould":8109,"ĠCaine":8110,"elve":8111,"ogan":8112,"Ġdisease":8113,"Ġcameos":8114,"Ġbrilliance":8115,"Ġbriefly":8116,"Ġencounters":8117,"Ġcontroversial":8118,"dated":8119,"la":8120,"put":8121,"isation":8122,"Ġdust":8123,"Ġetern":8124,"cend":8125,"Ġplanned":8126,"ortion":8127,"Ġpretend":8128,"Ġdialogs":8129,"ERE":8130,"Ġpopulation":8131,"Ġinvestigate":8132,"Ġcharismatic":8133,"Ġstretch":8134,"ĠCurtis":8135,"Ġpseudo":8136,"Ġtool":8137,"Ġrelevant":8138,"ĠSing":8139,"Ġalb":8140,"Ġalike":8141,"Ġmaker":8142,"Ġsmoking":8143,"Ġstranger":8144,"Ġrestra":8145,"ĠMarch":8146,"ĠReg":8147,"Ġmenacing":8148,"Ġthrills":8149,"Ġsurvival":8150,"Ġrevealing":8151,"minute":8152,"ĠActing":8153,"Ġfolk":8154,"Ġtorment":8155,"Act":8156,"end":8157,"inci":8158,"Ġmont":8159,"194":8160,"Ġdocumentaries":8161,"Ġflawless":8162,"Still":8163,"ĠCheck":8164,"Ġmerit":8165,"ĠStanley":8166,"Ġsacrifice":8167,"Ġracism":8168,"Ġfifteen":8169,"Ġcannibal":8170,"Perhaps":8171,"Ġtremendous":8172,"Ġsplendid":8173,"Ġtoilet":8174,"Ġfinger":8175,"verted":8176,"Ġselling":8177,"ĠSa":8178,"Ġnose":8179,"Ġfears":8180,"Ġblast":8181,"ĠUN":8182,"Ġgenerous":8183,"Ġsidekick":8184,"Ġgroups":8185,"Ġillustr":8186,"Ġerrors":8187,"Ġjumping":8188,"Ġreactions":8189,"Ġconspiracy":8190,"sho":8191,"oric":8192,"Ġheight":8193,"ĠCole":8194,"ĠHBO":8195,"Ġtender":8196,"Ġdrags":8197,"Ġembr":8198,"hology":8199,"Ġrepresents":8200,"Ġoccurred":8201,"Ġhighlights":8202,"Ġuniform":8203,"works":8204,"Ġstorm":8205,"ĠCher":8206,"ĠPoor":8207,"ĠRaj":8208,"istically":8209,"ggy":8210,"urious":8211,"Ġimmig":8212,"Ġunbelievably":8213,"ĠMuslim":8214,"Ġwonders":8215,"Ġenemies":8216,"ĠHudson":8217,"say":8218,"tr":8219,"Ġdaughters":8220,"ĠTerry":8221,"alley":8222,"rior":8223,"ifically":8224,"elli":8225,"Ġtriumph":8226,"Ġbasement":8227,"'.<":8228,"burn":8229,"ias":8230,"ns":8231,"Ġfired":8232,"atter":8233,"pel":8234,"Ġmaniac":8235,"Ġload":8236,"Ġ21":8237,"Ġcompassion":8238,"gger":8239,"Ġdifferences":8240,"olden":8241,"Ġobser":8242,"Ġcompetition":8243,"ĠRomero":8244,"Ġcowboy":8245,"Ġmiserable":8246,"Ġlandscape":8247,"onestly":8248,"Ġbackdrop":8249,"Tit":8250,"erning":8251,"ĠHas":8252,"Ġwhoever":8253,"ĠRome":8254,"ĠRight":8255,"Ġfaced":8256,"eps":8257,"izz":8258,"angers":8259,"Ġshoes":8260,"Ġsatir":8261,"193":8262,"Ġproducing":8263,"Ġmusicals":8264,"gypt":8265,"Ġbullet":8266,"ĠPolice":8267,"Ġreduced":8268,"Ġfro":8269,"Ġgif":8270,"Ġnuts":8271,"Ġstaff":8272,"ĠBac":8273,"ĠBush":8274,"uristic":8275,"ĠDerek":8276,"Ġchasing":8277,"ĠGib":8278,"Ġreluct":8279,"Ġbucks":8280,"Ġcarn":8281,"Ġletter":8282,"Ġpatri":8283,"shot":8284,"Ġmistaken":8285,"Ġadvance":8286,"Ġrequires":8287,"ĠBobby":8288,"Ġdrunken":8289,"ĠWilder":8290,"oubtedly":8291,"Ġfoo":8292,"lli":8293,"Ġstead":8294,"ĠGive":8295,"ĠGRE":8296,"ipes":8297,"Ġattached":8298,"ĠAlong":8299,"Ġdirectorial":8300,"ibl":8301,"Ġconscious":8302,"ĠBeck":8303,"ĠDragon":8304,"Ġsurrounded":8305,"series":8306,"Ġargument":8307,"Ġelderly":8308,"James":8309,"tain":8310,"Ġdiff":8311,"Ġharder":8312,"Ġcareers":8313,"Ġmessages":8314,"Ġreturning":8315,"Ġnarrator":8316,"ĠEmma":8317,"Ġholiday":8318,"CM":8319,"ees":8320,"rase":8321,"Ġtons":8322,"enes":8323,"ato":8324,"Ġlit":8325,"ĠGro":8326,"Ġmeasure":8327,"Ġslick":8328,"Ġsuburb":8329,"veloped":8330,"Ġadmitted":8331,"Ġ2006":8332,"Ġadapted":8333,"ĠPrinc":8334,"ĠEmily":8335,"Ġidiots":8336,"Ġsacrific":8337,"Ġticket":8338,"iors":8339,"Ġinher":8340,"Ġmoon":8341,"ĠTrue":8342,"ifying":8343,"aki":8344,"Ġnoble":8345,"Ġrive":8346,"angle":8347,"Ġbelieving":8348,"Ġstyl":8349,"Ġcollabor":8350,"ĠSomeone":8351,"Ġridiculously":8352,"Star":8353,"OME":8354,"ĠFrancisco":8355,"ĠCampbell":8356,"Ġendearing":8357,"Sha":8358,"ds":8359,"gain":8360,"Ġ=":8361,"leading":8362,"ado":8363,"Ġasse":8364,"ĠSex":8365,"ĠCa":8366,"Ġextended":8367,"ĠPan":8368,"ĠFOR":8369,"ablish":8370,"because":8371,"Ġshall":8372,"Ġstring":8373,"Ġpossibility":8374,"ĠUncle":8375,"Ġlacked":8376,"Ġcorner":8377,"ecess":8378,"Ġsecrets":8379,"Ġloser":8380,"ĠFreeman":8381,"See":8382,"Very":8383,"itchen":8384,"Ġhitting":8385,"Ġhorrid":8386,"Ġcausing":8387,"Ġchecking":8388,"Ġattracted":8389,"Ġcontinued":8390,"hobic":8391,"cont":8392,"des":8393,"Ġmes":8394,"itches":8395,"hattan":8396,"Ġnerv":8397,"cean":8398,"Ġfrustrated":8399,"ĠKaren":8400,"ovich":8401,"Ġgeneric":8402,"Ġpasses":8403,"Ġproviding":8404,"Ġbuilds":8405,"Ġterrorists":8406,"Ġraped":8407,"ĠSpecial":8408,"Ge":8409,"ĠPam":8410,"Ġunre":8411,"ĠYu":8412,"Ġnevertheless":8413,"Ġconsum":8414,"Ġabsence":8415,"Ġmisunder":8416,"Ġdealt":8417,"Ġmeaningless":8418,"Ġofficers":8419,"minded":8420,"Ġhorrendous":8421,"Other":8422,"ez":8423,"ĠSky":8424,"ĠHind":8425,"ĠWy":8426,"aks":8427,"Ġworried":8428,"Ġspooky":8429,"ĠAlien":8430,"Ġscripted":8431,"Ġsteam":8432,"Ġcomplaint":8433,"tte":8434,"Ġinacc":8435,"Ġreaches":8436,"ĠSutherland":8437,"ĠWow":8438,"ĠFire":8439,"Ġprecious":8440,"Ġdecisions":8441,"ĠClub":8442,"ĠMcK":8443,"Ġengaged":8444,"Donald":8445,"Ġbullets":8446,"ĠTechn":8447,"ffee":8448,"ĠBarrymore":8449,"redictable":8450,"jo":8451,"Ġtall":8452,"Ġmic":8453,"leg":8454,"rael":8455,"rier":8456,"ĠHack":8457,"ĠNob":8458,"ĠKar":8459,"Ġclues":8460,"abs":8461,"izard":8462,"ĠMorris":8463,"ACK":8464,"Ġphotographed":8465,"Ġexaggerated":8466,"Ġruthless":8467,"Ġdire":8468,"brick":8469,"hos":8470,"sex":8471,"ĠSav":8472,"ĠMother":8473,"Ġareas":8474,"ĠWI":8475,"ĠRes":8476,"Ġprops":8477,"Ġargue":8478,"Ġabsor":8479,"Ġstudios":8480,"Ġpicking":8481,"Ġblend":8482,"Ġrapid":8483,"Ġconversations":8484,"Ġcaptivating":8485,"maybe":8486,"Ġsam":8487,"enberg":8488,"Ġpubl":8489,"ĠAw":8490,"Ġhun":8491,"ĠPretty":8492,"ĠFant":8493,"ĠGal":8494,"Ġcovers":8495,"ortunately":8496,"Ġindul":8497,"umentary":8498,"Ġlisted":8499,"Ġpolitic":8500,"Ġmarks":8501,"bsolute":8502,"Ġsympath":8503,"Ġwesterns":8504,"Ġingred":8505,"AST":8506,"Ġwrap":8507,"Ġcared":8508,"Ġtoy":8509,"Ġreli":8510,"ĠHills":8511,"ĠWard":8512,"Ġorphan":8513,"Ġhorrors":8514,"Ġgenres":8515,"Ġworthless":8516,"ĠScience":8517,"Ġtail":8518,"Ġcorn":8519,"Ġinform":8520,"Ġ/>'":8521,"lee":8522,"ĠWater":8523,"ĠDave":8524,"ĠRoth":8525,"ĠNik":8526,"Ġdisplays":8527,"eremy":8528,"anson":8529,"Ġeasier":8530,"196":8531,"Ġestate":8532,"ĠNazis":8533,"Ġingen":8534,"Ġarrested":8535,"Too":8536,"cas":8537,"rict":8538,"Ġwake":8539,"Ġbott":8540,"oral":8541,"ĠWolf":8542,"emark":8543,"ortal":8544,"ĠFR":8545,"umsy":8546,"ĠEN":8547,"Ġaging":8548,"Ġexposed":8549,"Ġelectric":8550,"Ġlifestyle":8551,"Ġhunting":8552,"ĠEgypt":8553,"Ġconserv":8554,"Ġ2001":8555,"ĠFlor":8556,"ĠSeriously":8557,"ĠProbably":8558,"Ġphotographer":8559,"Ġdeliberately":8560,"Ġgradually":8561,"Ġadequate":8562,"Ġfinancial":8563,"onne":8564,"ĠWr":8565,"Ġabys":8566,"Ġ45":8567,"makers":8568,"ormal":8569,"Ġdarker":8570,"ĠWoods":8571,"Ġdynamic":8572,"Ġcameras":8573,"God":8574,"bie":8575,"gr":8576,"Ġfart":8577,"Ġfoul":8578,"Ġmal":8579,"Ġnine":8580,"ram":8581,"ĠCow":8582,"ĠReturn":8583,"Ġintent":8584,"Ġracial":8585,"ĠAlt":8586,"ĠAlmost":8587,"Ġsmoke":8588,"Ġdialogues":8589,"school":8590,"Ġsadness":8591,"Ġtraveling":8592,"warf":8593,"Ġaffection":8594,"Ġresolution":8595,"ĠIrene":8596,"Ġinstallment":8597,"lest":8598,"po":8599,"Ġfrench":8600,"itudes":8601,"Ġdoomed":8602,"ĠNet":8603,"Ġclic":8604,"Ġperforming":8605,"othic":8606,"ĠSeason":8607,"Ġhatred":8608,"Ġiron":8609,"Ġstrikes":8610,"Ġredemption":8611,"Ġrobots":8612,"ĠComedy":8613,"Ġurge":8614,"Ġjealous":8615,"ĠBergman":8616,"(..":8617,"human":8618,"love":8619,"Ġgimm":8620,"icient":8621,"uloid":8622,"agine":8623,"ĠNelson":8624,"Ġtwin":8625,"Ġafterwards":8626,"Ġenters":8627,"ĠThink":8628,"Ġtypically":8629,"ĠHammer":8630,"Ġcasual":8631,"Ġunwatchable":8632,"Ġresemblance":8633,"Ġcrisis":8634,"ĠSwedish":8635,"!.":8636,"Ġsill":8637,"Ġsand":8638,"Ġfed":8639,"Ġfitting":8640,"Ġbang":8641,"Ġnotes":8642,"Ġoutcome":8643,"ĠFall":8644,"arer":8645,"Ġoverdone":8646,"Ġdisj":8647,"Ġenjoys":8648,"onson":8649,"Ġliking":8650,"ĠWhatever":8651,"Ġpredecess":8652,"ĠDoctor":8653,"Ġoddly":8654,"Ġinspiring":8655,"Ġtravels":8656,"Ġdigital":8657,"Ġoffended":8658,"Ġcommercials":8659,"Ġachievement":8660,"Ġunsett":8661,"onsidering":8662,"Ġincoherent":8663,"worth":8664,"Ġbog":8665,"ali":8666,"ilted":8667,"Ġstone":8668,"ĠHann":8669,"ĠPage":8670,"Ġtwins":8671,"Ġsett":8672,"grade":8673,"Ġintrigue":8674,"ĠLouise":8675,"ĠBurton":8676,"ĠCatholic":8677,"ulsive":8678,"Ġastonishing":8679,"Ġdignity":8680,"Che":8681,"watch":8682,"aled":8683,"quer":8684,"force":8685,"Ġfuneral":8686,"izable":8687,"Ġunfair":8688,"ĠRobinson":8689,"Ġburning":8690,"Ġliberal":8691,"Ġisolated":8692,"Ġrobbery":8693,"La":8694,"Ġtie":8695,"Ġpleased":8696,"Ġinject":8697,"Ġbew":8698,"ĠSouthern":8699,"Ġnotorious":8700,"Ġtimeless":8701,"Ġtrade":8702,"ocative":8703,"icularly":8704,"Ġgrab":8705,"Ġswear":8706,"ĠFilms":8707,"Ġscreams":8708,"Ġdiscussion":8709,"Ġsymbolism":8710,"ĠCameron":8711,"Ġbathroom":8712,"Ġsloppy":8713,"Ġelaborate":8714,"Ġwannabe":8715,"ploitation":8716,"paced":8717,"Ġtires":8718,"Ġgall":8719,"ĠId":8720,"Ġstaged":8721,"Ġhumili":8722,"aware":8723,"ĠBlock":8724,"uffy":8725,"Ġdistance":8726,"ĠArm":8727,"ĠCarpenter":8728,"Ġfrag":8729,"ĠCraig":8730,"Ġproceedings":8731,"Hey":8732,"movies":8733,"asha":8734,"ieve":8735,"ĠAT":8736,"ĠBaker":8737,"ables":8738,"Ġcoffee":8739,"Ġdetract":8740,"Ġadmira":8741,"Ġpolitically":8742,"ARD":8743,"Ġillness":8744,"Ġdancer":8745,"ĠGolden":8746,"Ġprogresses":8747,"Ġcalm":8748,"ĠLeonard":8749,"HING":8750,"dri":8751,"uity":8752,"Ġlake":8753,"Ġbears":8754,"Ġdear":8755,"acked":8756,"oyle":8757,"Ġrelent":8758,"ĠBeast":8759,"ĠDev":8760,"club":8761,"Ġlabel":8762,"ĠVictoria":8763,"ixture":8764,"born":8765,"ril":8766,"Ġwhis":8767,"Ġdare":8768,"Ġdaring":8769,"icol":8770,"Ġhunter":8771,"ĠBald":8772,"ĠMod":8773,"ĠJake":8774,"ĠGray":8775,"Ġshine":8776,"Ġfunction":8777,"Ġconclud":8778,"Ġconventional":8779,"Ġsubjects":8780,"Ġslightest":8781,"Ġescaped":8782,"Ġimplausible":8783,"lines":8784,"Ġwont":8785,"entin":8786,"Ġnotion":8787,"ĠCold":8788,"essed":8789,"ĠRow":8790,"ĠKay":8791,"cia":8792,"Ġcontrib":8793,"Ġresur":8794,"Ġappalling":8795,"Ġinsert":8796,"Ġaddict":8797,"Ġinteraction":8798,"ĠForce":8799,"maker":8800,"Ġcorpse":8801,"mission":8802,"Than":8803,"inate":8804,"Ġcomfortable":8805,"Ġclumsy":8806,"Ġrocks":8807,"Ġgotta":8808,"Ġbold":8809,"ographed":8810,"Ġdefinite":8811,"Ġdemands":8812,"Ġmorality":8813,"ĠIsrael":8814,"Ġdevast":8815,"Ġ2005":8816,"********":8817,"ĠShort":8818,"Ġunfolds":8819,"Ġrespond":8820,"Ġstinker":8821,"Ġphilosophy":8822,"Ġstrictly":8823,"ĠAlfred":8824,"Pro":8825,"got":8826,"Ã¨":8827,"llo":8828,"Ġdre":8829,"Ġinapp":8830,"Ġstole":8831,"ĠDutch":8832,"Ġouts":8833,"Ġkidding":8834,"ERS":8835,"existent":8836,"ĠSpain":8837,"Ġpopcorn":8838,"195":8839,"Ġbrand":8840,"ĠJuliet":8841,"chers":8842,"Ġaunt":8843,"Ġsou":8844,"Ġwha":8845,"Ġwet":8846,"Ġnurse":8847,"Ġhire":8848,"Ġthrew":8849,"Ġaccused":8850,"ucker":8851,"Ġsmaller":8852,"ĠChristie":8853,"Ġsigns":8854,"Ġaffected":8855,"Ġlabor":8856,"ĠHighly":8857,"ĠElli":8858,"Ġscheme":8859,"Ġdivorce":8860,"Ġack":8861,"Ġexhib":8862,"ĠOz":8863,"!!!!!":8864,"Ġtrio":8865,"Ġglamor":8866,"orky":8867,"ONG":8868,"Ġhonesty":8869,"Ġgrandmother":8870,"Ġundoubtedly":8871,"Ġbirthday":8872,"ĠReno":8873,"Ġnervous":8874,"sur":8875,"Ġcried":8876,"arrow":8877,"ĠIan":8878,"Ġrural":8879,"inda":8880,"Ġamuse":8881,"Ġdepressed":8882,"Ġsentence":8883,"blood":8884,"Ġpsychotic":8885,"Ġsegments":8886,"ĠJonathan":8887,"Ġinhabit":8888,"Ġacknow":8889,"Bad":8890,"hum":8891,"mit":8892,"zel":8893,"Ġpushed":8894,"ications":8895,"Ġbeats":8896,"ĠTimes":8897,"ĠDawn":8898,"Ġdoz":8899,"Ġcomics":8900,"ĠJenny":8901,"ĠNational":8902,"Ġhates":8903,"ĠWarren":8904,"Ġgangsters":8905,"Ġtrademark":8906,"Ġintrigued":8907,"Before":8908,"Ġdisjointed":8909,"great":8910,"escent":8911,"ĠCatherine":8912,"ĠDoll":8913,"ĠFu":8914,"venile":8915,"ĠNiro":8916,"Ġdismiss":8917,"Ġgrasp":8918,"Ġsadd":8919,"Ġdraws":8920,"ĠStreep":8921,"ĠMatrix":8922,"Ġclothing":8923,"Ġenormous":8924,"rehensible":8925,"Ġmetaphor":8926,"Richard":8927,"Ġsouth":8928,"eric":8929,"atically":8930,"ĠFurther":8931,"ĠFoster":8932,"Ġuneven":8933,"ĠEventually":8934,"Ġclock":8935,"ĠHeaven":8936,"Ġcoherent":8937,"Ġheaded":8938,"Ġhearts":8939,"Ġheroic":8940,"ĠConf":8941,"Ġpulling":8942,"Ġnearby":8943,"Ġdetailed":8944,"Ġsilence":8945,"ĠDamme":8946,"ĠWalken":8947,"ĠLawrence":8948,"Ġvulgar":8949,"ĠArab":8950,"Ġencoura":8951,"Ġpsychiatrist":8952,"Ang":8953,"rint":8954,"ucc":8955,"Ġ..":8956,"Ġward":8957,"Ġpitch":8958,"Ġego":8959,"also":8960,"ĠTR":8961,"ĠMade":8962,"ularly":8963,"ĠEX":8964,"Ġfacing":8965,"Ġimpe":8966,"Ġgrotes":8967,"Ġhardcore":8968,"oviet":8969,"fined":8970,"Ġmisses":8971,"Ġdetect":8972,"Ġdeveloping":8973,"Ġmotives":8974,"Ġdevoid":8975,"Ġdevoted":8976,"Ġreceive":8977,"ĠBoys":8978,"Ġcelluloid":8979,"Ġaltogether":8980,"Ġwebsite":8981,"SS":8982,"Ye":8983,"Ġought":8984,"Ġbes":8985,"terday":8986,"icking":8987,"anged":8988,"Ġsimilarities":8989,"headed":8990,"Ġodds":8991,"Ġsilver":8992,"Ġduo":8993,"Ġthroat":8994,"')":8995,"gers":8996,"Ġegg":8997,"ilarly":8998,"ĠKnow":8999,"Ġendings":9000,"eyed":9001,"Ġsuperbly":9002,"onica":9003,"Ġprimarily":9004,"Ġorders":9005,"ef":9006,"ĠSullivan":9007,"Ġthief":9008,"ĠCop":9009,"ĠRoll":9010,"inding":9011,"Ġadol":9012,"ĠHeart":9013,"ĠReyn":9014,"ĠAtl":9015,"ĠNeed":9016,"ĠPrice":9017,"Ġdisturbed":9018,"Ġrecognition":9019,"Ġrecorded":9020,"ĠJesse":9021,"Ġdistracting":9022,"ĠBurns":9023,"Ġblatant":9024,"\"...":9025,"Ġtaught":9026,"Ġreached":9027,"Ġsticks":9028,"ĠRather":9029,"ĠFriend":9030,"Ġleague":9031,"Ġroot":9032,"never":9033,"Ġpartly":9034,"Ġflag":9035,"Ġrage":9036,"Ġcouples":9037,"Ġthoughtful":9038,"Ġgloss":9039,"ĠOscars":9040,"Ġexploit":9041,"Ġexplaining":9042,"ambi":9043,"Ġbenefit":9044,"Ġhelicopter":9045,"High":9046,"fast":9047,"Ġtad":9048,"oner":9049,"otal":9050,"Ġbefriend":9051,"ĠTru":9052,"Ġrebel":9053,"ĠHung":9054,"ĠRic":9055,"Ġunoriginal":9056,"Ġovers":9057,"Ġartific":9058,"Ġfancy":9059,"ĠScream":9060,"Ġstaying":9061,"Ġsubtlety":9062,"Ġlifetime":9063,"Ġprimary":9064,"ĠDaniels":9065,"Ġchoreography":9066,"Ġinvolvement":9067,"ĠNEVER":9068,"ĠPrincess":9069,"\";":9070,"uable":9071,"hau":9072,"ĠMas":9073,"ĠRub":9074,"ige":9075,"Ġglory":9076,"Ġconcerning":9077,"ĠHarvey":9078,"Ġpotentially":9079,"Ġengross":9080,"ivalent":9081,"ĠGermans":9082,"Ġscientific":9083,"hopath":9084,"Ġblockbuster":9085,"ĠNevertheless":9086,"ĠGriffith":9087,"Go":9088,"Look":9089,"Night":9090,"bar":9091,"gle":9092,"vall":9093,"Ġsarc":9094,"Ġinane":9095,"athetic":9096,"stars":9097,"ĠCIA":9098,"ĠHist":9099,"ĠPay":9100,"thriller":9101,"Ġagreed":9102,"cience":9103,"Ġbridge":9104,"Ġtracks":9105,"ĠChurch":9106,"Ġportion":9107,"ĠAtt":9108,"Ġbrains":9109,"Ġprompt":9110,"ĠKubrick":9111,"Ġmagazine":9112,"Watch":9113,"ko":9114,"ĠTCM":9115,"Ġstabb":9116,"ĠSub":9117,"ĠSyl":9118,"Ġhunt":9119,"Ġnoise":9120,"ĠKer":9121,"Ġagrees":9122,"Ġwhereas":9123,"Ġcreativity":9124,"Ġconvol":9125,"Ġcollap":9126,"Ġdemons":9127,"iko":9128,"Ġmurderous":9129,"Ġtechnically":9130,"shine":9131,"ĠGrade":9132,"Ġarrival":9133,"ĠIreland":9134,"Ġinventive":9135,"Ġinnovative":9136,"kel":9137,"ĠCy":9138,"ĠNol":9139,"ĠOwen":9140,"everly":9141,"Ġslave":9142,"uddies":9143,"Ġimproved":9144,"Once":9145,"Ġdelivering":9146,"ĠMaggie":9147,"ĠWalker":9148,"Ġmaintain":9149,"lotte":9150,"Ġphilosophical":9151,"Many":9152,"hs":9153,"lam":9154,"Ġmixture":9155,"orney":9156,"Ġpants":9157,"ava":9158,"Ġchances":9159,"Ġfailing":9160,"Ġtransformation":9161,"Ġpremie":9162,"Ġrecognized":9163,"Ġremarkably":9164,"Ġdefend":9165,"Ġhypnot":9166,"Ġ_":9167,"Ġ**":9168,"Ġsales":9169,"Ġduty":9170,"stra":9171,"Ġweb":9172,"ĠCook":9173,"ĠWomen":9174,"olves":9175,"ĠRud":9176,"ĠRoche":9177,"andal":9178,"ĠKap":9179,"Ġendure":9180,"Ġdisli":9181,"Ġspare":9182,"Ġ192":9183,"ossibly":9184,"Ġmovements":9185,"Ġutil":9186,"udden":9187,"opsis":9188,"ĠCentury":9189,"ĠMitchum":9190,"every":9191,"Ġ;":9192,"Ġax":9193,"Ġwest":9194,"Ġcards":9195,"orse":9196,"ĠDirect":9197,"ĠJamie":9198,"Ġshirt":9199,"Ġshelf":9200,"Ġinvis":9201,"Ġleaders":9202,"rowing":9203,"ommended":9204,"Ġhopeless":9205,"ĠHarrison":9206,"ĠPeck":9207,"Ġcurse":9208,"ĠWhit":9209,"Ġunexpl":9210,"Death":9211,"ĠCinderella":9212,"gal":9213,"nest":9214,"zer":9215,"Ġnause":9216,"ĠSen":9217,"irley":9218,"ĠDown":9219,"Ġchain":9220,"ĠPersonally":9221,"ĠGay":9222,"pled":9223,"Ġarrang":9224,"Ġsaf":9225,"Ġacclaim":9226,"aneously":9227,"ĠLeigh":9228,"Ġcommented":9229,"Ġhilariously":9230,"Ġaimed":9231,"Ġconsistently":9232,"ĠLOVE":9233,"Ġwave":9234,"urance":9235,"ĠCus":9236,"ĠPy":9237,"Ġdisplayed":9238,"Ġsail":9239,"izations":9240,"ĠHey":9241,"ciating":9242,"ocr":9243,"astern":9244,"Ġmonot":9245,"Ġuseful":9246,"ĠManhattan":9247,"urai":9248,"Ġcampa":9249,"ĠBenj":9250,"ĠNorman":9251,"Ġpractice":9252,"Ġkicked":9253,"Ġthreatening":9254,"Ġdimensional":9255,"Ġchallenging":9256,"ĠWatson":9257,"gling":9258,"jection":9259,"ouch":9260,"Ġgamb":9261,"ĠHy":9262,"cca":9263,"Ġsettle":9264,"Ġhanded":9265,"Ġdistant":9266,"Ġtitled":9267,"Ġpsychopath":9268,"Ġobserv":9269,"Ġsucceeded":9270,"Ġexplosion":9271,"Ġpossessed":9272,"ĠGirls":9273,"ĠEllen":9274,"ĠWaters":9275,"ĠEVERY":9276,"Ġfrustrating":9277,"Ġunbearable":9278,"Ġillegal":9279,"Sec":9280,"Ġsits":9281,"itual":9282,"Ġje":9283,"Ġplausible":9284,"arrie":9285,"Ġtransition":9286,"ĠBrook":9287,"Ġthankfully":9288,"Ġbeneath":9289,"William":9290,"Ġconvoluted":9291,"SPOILER":9292,"Ġsen":9293,"ĠImp":9294,"ĠAcc":9295,"ĠCase":9296,"ĠPur":9297,"redator":9298,"ĠNort":9299,"ĠNavy":9300,"Ġcontained":9301,"mares":9302,"Ġhomeless":9303,"Ġinfluenced":9304,"Ġloosely":9305,"Ġgolden":9306,"Ġburned":9307,"ĠGregory":9308,"Ġgrotesque":9309,"Bas":9310,"Dan":9311,"Ġstro":9312,"ĠSally":9313,"ĠSoviet":9314,"aman":9315,"Ġwhim":9316,"ĠPink":9317,"ruciating":9318,"Ġprejud":9319,"Ġguide":9320,"Ġperformer":9321,"Ġprince":9322,"Ġreads":9323,"Ġunderstandable":9324,"ĠScot":9325,"ĠCarrey":9326,"Ġestablish":9327,"atures":9328,"pered":9329,"Ġparties":9330,"Ġslice":9331,"ddy":9332,"Ġopinions":9333,"Ġcurrently":9334,"Ġsolely":9335,"Ġoverwhelming":9336,"ĠHughes":9337,"Ġunsettling":9338,"Please":9339,"Ã¡":9340,"isha":9341,"itled":9342,"Ġears":9343,"oto":9344,"ĠWong":9345,"ĠFell":9346,"Ġcontrad":9347,"Ġsurpass":9348,"Ġcomposed":9349,"Ġpersons":9350,"Ġmonolog":9351,"Ġtransp":9352,"Ġsuspicious":9353,"lover":9354,"Ġexplored":9355,"Ġcircus":9356,"ĠProfess":9357,"Ġbedroom":9358,"Ġformulaic":9359,"function":9360,"ĠSidney":9361,"oni":9362,"ĠMu":9363,"Ġnotably":9364,"elic":9365,"quel":9366,"ĠEp":9367,"ĠEver":9368,"Ġinstant":9369,"Ġshortly":9370,"Ġassault":9371,"Ġequip":9372,"Ġamounts":9373,"uddled":9374,"ĠMurray":9375,"Ġneighb":9376,"ĠSilver":9377,"ĠReynolds":9378,"Ġtame":9379,"Ġdent":9380,"ĠPen":9381,"Ġclosed":9382,"...)":9383,"then":9384,"Ġpride":9385,"Ġdownhill":9386,"Ġclassical":9387,"Ġaudio":9388,"Ġinstit":9389,"ĠReed":9390,"ĠBronson":9391,"Ġtrailers":9392,"ĠBetty":9393,"Ġjuvenile":9394,"Ġarrogant":9395,"Ġmesmer":9396,"Ser":9397,"kish":9398,"heim":9399,"Ġwig":9400,"itched":9401,"ĠIng":9402,"ĠTal":9403,"Ġanx":9404,"ĠCho":9405,"Ġscores":9406,"Ġkitchen":9407,"Ġconve":9408,"Ġpartners":9409,"ĠUlt":9410,"ĠShep":9411,"incingly":9412,"ĠMyers":9413,"check":9414,"Ġsuggested":9415,"Ġmodels":9416,"Ġbrutally":9417,"Ġdefense":9418,"ĠWallace":9419,"Ġirrelevant":9420,"OST":9421,"conscious":9422,"Ġforms":9423,"keys":9424,"Ġnep":9425,"ĠFinal":9426,"ourt":9427,"ourne":9428,"forms":9429,"Ġblowing":9430,"ressive":9431,"riter":9432,"charact":9433,"Ġphoto":9434,"Ġtrees":9435,"Ġdimension":9436,"ĠBerlin":9437,"ĠBernard":9438,"ĠMargaret":9439,"bsolutely":9440,"hour":9441,"met":9442,"pre":9443,"ping":9444,"Ġbanned":9445,"Ġcake":9446,"Ġcup":9447,"Ġpays":9448,"Ġstir":9449,"Ġexotic":9450,"ĠPR":9451,"ĠJune":9452,"ĠGinger":9453,"Ġarc":9454,"Ġaggress":9455,"apes":9456,"Ġsurvived":9457,"Ġdamage":9458,"Ġpassionate":9459,"Ġeighties":9460,"sky":9461,"encies":9462,"alo":9463,"ĠLive":9464,"ĠFX":9465,"Ġdisgra":9466,"Ġtrap":9467,"ivable":9468,"ypse":9469,"Ġexisted":9470,"spector":9471,"Ġproceeds":9472,"Ġpurchase":9473,"Ġdozens":9474,"och":9475,"pes":9476,"Ġsouthern":9477,"ĠTem":9478,"Ġheat":9479,"ĠAmy":9480,"ĠBow":9481,"ĠMira":9482,"ĠCox":9483,"Ġdoors":9484,"again":9485,"Ġvoy":9486,"Ġawe":9487,"Ġimperson":9488,"ango":9489,"issa":9490,"Ġinferior":9491,"Ġlegal":9492,"Ġshadows":9493,"ocalypse":9494,"Ġfighter":9495,"Ġgest":9496,"rah":9497,"ĠWalt":9498,"icken":9499,"Ġcliff":9500,"abel":9501,"tends":9502,"rosawa":9503,"Ġconstructed":9504,"Ġarrived":9505,"Ġregardless":9506,"Ġcustom":9507,"Ġsimplistic":9508,"Ġrubber":9509,"Peter":9510,"master":9511,"was":9512,"Ġaid":9513,"ĠTry":9514,"Ġstellar":9515,"Ġabdu":9516,"ĠPL":9517,"ĠPoint":9518,"ĠLow":9519,"Ġups":9520,"Ġadorable":9521,"Ġtea":9522,"ensions":9523,"Ġriot":9524,"Ġelim":9525,"Ġexcruciating":9526,"Ġimagined":9527,"Ġbuildings":9528,"ĠExcept":9529,"related":9530,"Ġunsatisf":9531,"Ġguests":9532,"Ġcompanion":9533,"ĠDiana":9534,"==":9535,"Can":9536,"Te":9537,"based":9538,"cop":9539,"enger":9540,"atched":9541,"Ġthugs":9542,"ĠDoc":9543,"Ġjaw":9544,"ĠJord":9545,"Ġrum":9546,"ĠNice":9547,"Ġovert":9548,"obi":9549,"Ġcountryside":9550,"ĠGraham":9551,"Ġsatisfied":9552,"Ġwitnessed":9553,"ĠThompson":9554,"Ġdescribes":9555,"Ġhints":9556,"ĠWhether":9557,"bby":9558,"non":9559,"reet":9560,"ĠTown":9561,"Ġjustify":9562,"Ġquit":9563,"Ġpretending":9564,"Ġnewly":9565,"ĠChase":9566,"Ġdistingu":9567,"ĠMystery":9568,"Ġsuspic":9569,"ĠRocky":9570,"banks":9571,"ĠJudy":9572,"Ġpressure":9573,"âĢĻ":9574,"Ġcampaign":9575,"Ant":9576,"pha":9577,"ctors":9578,"ĠAW":9579,"ĠBUT":9580,"ĠLy":9581,"Ġtrashy":9582,"lik":9583,"ĠBlake":9584,"ugust":9585,"????":9586,"Ġsolution":9587,"uracy":9588,"Ġavoided":9589,"Ġclaimed":9590,"Ġunintentional":9591,"Ġignorant":9592,"free":9593,"lon":9594,"rum":9595,"isy":9596,"Ġdict":9597,"Ġnomination":9598,"eston":9599,"ĠNed":9600,"Ġuser":9601,"Ġdesired":9602,"Ġrelies":9603,"Ġinterrupt":9604,"Ġcopies":9605,"Ġintroduces":9606,"Ġsouls":9607,"yrics":9608,"ĠLatin":9609,"Ġpoetry":9610,"Ġcitizens":9611,"Int":9612,"worthy":9613,"ĠTop":9614,"ione":9615,"ĠDin":9616,"Ġintr":9617,"oder":9618,"Ġspoke":9619,"ĠVideo":9620,"Ġfactory":9621,"ĠThird":9622,"Ġlackl":9623,"ĠShaw":9624,"Ġsatisfy":9625,"Ġfatal":9626,"Ġhence":9627,"ĠBrando":9628,"Ġequipment":9629,"foot":9630,"funny":9631,"gia":9632,"Ġaka":9633,"aser":9634,"ceived":9635,"ellers":9636,"perfect":9637,"Ġflop":9638,"Ġcenters":9639,"Ġresulting":9640,"ĠGodfather":9641,"ĠMagn":9642,"Ġhideous":9643,"Ġfundament":9644,"white":9645,"Ġfooled":9646,"Ġinappropriate":9647,"40":9648,"AG":9649,"pin":9650,"town":9651,"Ġ[":9652,"ĠIran":9653,"ĠBett":9654,"Ġbutton":9655,"ĠHoll":9656,"ĠDal":9657,"Ġexter":9658,"Ġupl":9659,"arson":9660,"Ġsport":9661,"ĠZone":9662,"Ġparan":9663,"ĠShah":9664,"Ġresponsibility":9665,"ĠRoad":9666,"ĠErrol":9667,"Ġhighest":9668,"Ġunderstated":9669,"Ġsalv":9670,"Ġearned":9671,"ĠAndrews":9672,"Ġparallel":9673,"Ġriveting":9674,"Ġtiresome":9675,"Or":9676,"gio":9677,"esis":9678,"Ġindu":9679,"atha":9680,"chi":9681,"child":9682,"ĠAM":9683,"Ġsup":9684,"Ġplod":9685,"estic":9686,"inds":9687,"Ġoverrated":9688,"Ġtrained":9689,"Ġapolog":9690,"Ġcompens":9691,"Ġtribe":9692,"Ġworlds":9693,"Ġchannels":9694,"Ġsuperhero":9695,"Ġlowest":9696,"mpire":9697,"Ġdefeat":9698,"Ġnostalgic":9699,"ĠAmazon":9700,"Ġdedicated":9701,"ĠVampire":9702,"\"-":9703,"Ed":9704,"Ġya":9705,"adget":9706,"oples":9707,"ĠJeremy":9708,"Ġloads":9709,"ĠKra":9710,"Ġattitudes":9711,"ĠLeo":9712,"Ġtreats":9713,"ĠNOTHING":9714,"Ġundert":9715,"Ġspecifically":9716,"Ġmotivations":9717,"Ġdespair":9718,"ĠCommun":9719,"Ġassemb":9720,"dis":9721,"Ġbuddies":9722,"ooges":9723,"ĠHolly":9724,"ousing":9725,"ĠRO":9726,"Ġseeks":9727,"Ġrecru":9728,"aval":9729,"Ġglor":9730,"ĠSpring":9731,"Ġcinematographer":9732,"ĠGranted":9733,"ĠDuvall":9734,"ĠYears":9735,"Ġdisappeared":9736,"ĠBeatles":9737,"Ġvaguely":9738,"Ġexchange":9739,"ifferent":9740,"cult":9741,"vity":9742,"Ġsust":9743,"Ġcens":9744,"imated":9745,"ĠBran":9746,"ĠPant":9747,"ĠLang":9748,"mann":9749,"Ġbride":9750,"Ġslim":9751,"Ġhelpless":9752,"Ġpossibilities":9753,"Ġstaring":9754,"Ġembarrassment":9755,"Ġporno":9756,"Ġreceives":9757,"radine":9758,"ĠVegas":9759,"Love":9760,"Mur":9761,"aith":9762,"eff":9763,"rr":9764,"oria":9765,"Ġdile":9766,"ĠSC":9767,"irts":9768,"ĠBook":9769,"ĠMason":9770,"Ġplat":9771,"Ġchaos":9772,"ĠRings":9773,"ĠFiction":9774,"Ġdirects":9775,"Ġgranted":9776,"Ġconsiderable":9777,"Ġrooms":9778,"ĠPerry":9779,"minator":9780,"ĠJews":9781,"Ġcivilization":9782,"ĠDorothy":9783,"ĠRemember":9784,"Brazil":9785,"Ġbonus":9786,"Wh":9787,"Ġbin":9788,"ĠIron":9789,"ĠCertainly":9790,"ĠHanks":9791,"ĠJen":9792,"ĠGre":9793,"ĠGarb":9794,"ission":9795,"Ġcoast":9796,"Ġbuck":9797,"retched":9798,"Ġvisiting":9799,"Ġpattern":9800,"Ġequivalent":9801,"ĠSupp":9802,"Ġdrawing":9803,"Ġconfrontation":9804,"Ġalternative":9805,"Ġhalluc":9806,"ĠPicture":9807,"Ġwrapped":9808,"Ġwacky":9809,"Dead":9810,"lad":9811,"Ġpad":9812,"Ġdirt":9813,"Ġstark":9814,"ĠMake":9815,"Ġcommend":9816,"ĠPsy":9817,"ĠFortunately":9818,"ĠGothic":9819,"Ġgoodness":9820,"odge":9821,"nered":9822,"Ġinstr":9823,"lands":9824,"ahl":9825,"Ġstyles":9826,"Ġconvict":9827,"venture":9828,"Ġdevices":9829,"Ġcelebrity":9830,"ĠKurosawa":9831,"Ġseventies":9832,"Ġmund":9833,"Ġbone":9834,"ĠWAS":9835,"ĠGang":9836,"Ġrul":9837,"ĠNative":9838,"These":9839,"Ġworker":9840,"obs":9841,"ĠStall":9842,"Ġalongside":9843,"Ġcatches":9844,"Ġclosest":9845,"Ġdepicts":9846,"ĠRaymond":9847,"rocod":9848,"Ġstinks":9849,"Ġsynopsis":9850,"ĠPlanet":9851,"Ġmontage":9852,"Av":9853,"Queen":9854,"oured":9855,"ĠAge":9856,"ĠSop":9857,"ooby":9858,"Ġjazz":9859,"ĠRiver":9860,"Ġunit":9861,"ĠExt":9862,"ĠVen":9863,"ocaly":9864,"ĠClay":9865,"Ġparad":9866,"Ġvaluable":9867,"Ġfuturistic":9868,"Ġphotos":9869,"Ġdesperation":9870,"THING":9871,"prov":9872,"austrop":9873,"Ġcandid":9874,"Ġpresumably":9875,"Ġingredients":9876,"ĠBaldwin":9877,"Ġsafety":9878,"AW":9879,"wan":9880,"yo":9881,"Ġwars":9882,"ctic":9883,"ĠAz":9884,"ĠAle":9885,"ĠApart":9886,"Ġthumbs":9887,"ĠBry":9888,"Ġwealth":9889,"ĠLor":9890,"ĠGil":9891,"Ġcancer":9892,"ĠKath":9893,"Ġunderlying":9894,"Ġclasses":9895,"Ġsenseless":9896,"Ġvisible":9897,"Ġwaited":9898,"ĠCarradine":9899,"Ġprovoking":9900,"Ġweakest":9901,"ĠMurder":9902,"bbed":9903,"ĠMcCart":9904,"Ġalcoholic":9905,"Ġsneak":9906,"Cha":9907,"PS":9908,"Ġwished":9909,"Ġtos":9910,"Ġlyrics":9911,"ĠTiger":9912,"sect":9913,"ĠHeston":9914,"Ġsuited":9915,"agement":9916,"ĠLots":9917,"Ġdish":9918,"Ġ35":9919,"eryl":9920,"Ġhousehold":9921,"Ġguessed":9922,"Ġclimactic":9923,"Ġkicking":9924,"ropriately":9925,"Black":9926,"Ġoptim":9927,"Ġadvertising":9928,"ĠFairbanks":9929,"ĠNYC":9930,"Ġjournalist":9931,"Ġvengeance":9932,"Dr":9933,"His":9934,"iour":9935,"Ġdys":9936,"Ġplight":9937,"Ġalas":9938,"Ġarmed":9939,"Ġnightmares":9940,"Ġruins":9941,"Ġbackgrounds":9942,"Ġcatching":9943,"Ġcrucial":9944,"ĠHamilton":9945,"Ġhurts":9946,"Ġteaching":9947,"Ġcorporate":9948,"Ġvulnerable":9949,"Ġabysmal":9950,"ĠRochester":9951,"Em":9952,"Spe":9953,"name":9954,"ois":9955,"show":9956,"Ġtact":9957,"Ġtank":9958,"Ġchat":9959,"enz":9960,"ĠMY":9961,"ĠMTV":9962,"ĠLight":9963,"Ġroof":9964,"Ġguitar":9965,"Ġbasket":9966,"Ġ2004":9967,"Ġwinds":9968,"bbing":9969,"ĠAngela":9970,"ĠMatthau":9971,"Ġprincess":9972,"Ġwidow":9973,"Ġaccompanied":9974,"Ġchapter":9975,"ĠGREAT":9976,"numb":9977,"Ġsung":9978,"Ġbully":9979,"Ġcities":9980,"olk":9981,"Ġdiscovery":9982,"Ġsenses":9983,"ĠTrans":9984,"ĠNorma":9985,"Ġrepresented":9986,"Ġpersu":9987,"Ġbeliefs":9988,"Ġcorruption":9989,"Ġfrustration":9990,"Ġnephew":9991,"HA":9992,"uated":9993,"Ġboun":9994,"ĠTalk":9995,"Ġrebell":9996,"ĠHunt":9997,"ĠLenny":9998,"ĠGame":9999,"ĠEle":10000,"Ġcliche":10001,"Ġpoison":10002,"Ġspaces":10003,"Ġsham":10004,"Ġabsent":10005,"Ġnightclub":10006,"Ġmonkey":10007,"ATCH":10008,"ORE":10009,"ĠBrazil":10010,"Ġboxing":10011,"ĠAngels":10012,"Ġprisoner":10013,"Ġlegit":10014,"Ġtemper":10015,"Ġprincipal":10016,"ĠPotter":10017,"Ġgimmick":10018,"UM":10019,"woman":10020,"zard":10021,"Ġcats":10022,"Ġlam":10023,"utt":10024,"Ġonline":10025,"ĠSF":10026,"ĠHolden":10027,"Ġvig":10028,"ĠJol":10029,"Ġprol":10030,"ption":10031,"ĠThus":10032,"ĠUnless":10033,"Ġgenerations":10034,"Ġangst":10035,"ĠMonster":10036,"Ġdrops":10037,"Ġjoins":10038,"Ġauthority":10039,"ĠAdams":10040,"Ġaccomplish":10041,"Ġeducation":10042,"Ġpuppet":10043,"Ġelegant":10044,"Ġinvisible":10045,"Mart":10046,"sha":10047,"Ġsan":10048,"Ġpant":10049,"ilight":10050,"ĠBal":10051,"ĠMall":10052,"ĠWorth":10053,"igo":10054,"Ġclaustrop":10055,"Ġpoetic":10056,"Ġsappy":10057,"Ġsimult":10058,"Ġprinci":10059,"ĠSheriff":10060,"Ġirres":10061,"ĠElvis":10062,"Ġconditions":10063,"Ġconflicts":10064,"ĠStevens":10065,"ĠNicholson":10066,"Ġnostalgia":10067,"Ġswimming":10068,"Ġimmensely":10069,"?'":10070,"Br":10071,"Ind":10072,"agh":10073,"Ġbump":10074,"Ġtopless":10075,"iceless":10076,"Ġrein":10077,"Ġstilted":10078,"ĠSnow":10079,"ĠBud":10080,"ĠLum":10081,"ĠFour":10082,"Ġorche":10083,"aux":10084,"ounded":10085,"gends":10086,"iley":10087,"ensical":10088,"Ġsincere":10089,"Ġblackma":10090,"Ġpainted":10091,"Ġfantas":10092,"ĠNeither":10093,"ĠShirley":10094,"Ġsecretary":10095,"Ġtastes":10096,"Ġblew":10097,"ĠSeries":10098,"ĠRussia":10099,"Ġdisappears":10100,"Ġobjects":10101,"Ġapplaud":10102,"Ġjewel":10103,"Gu":10104,"py":10105,"Ġecho":10106,"ĠTall":10107,"rient":10108,"ĠBugs":10109,"ĠCut":10110,"ĠCos":10111,"ĠHust":10112,"Ġscope":10113,"ifully":10114,"Ġchased":10115,"ĠPry":10116,"ĠEither":10117,"Ġblur":10118,"Ġawa":10119,"everal":10120,"!!!<":10121,"Ġcomparing":10122,"arents":10123,"ĠClaud":10124,"Ġconstruction":10125,"Ġengage":10126,"warming":10127,"ĠCorman":10128,"Ġmountains":10129,"Ġchoreographed":10130,"Ġdemonstrates":10131,"George":10132,"Ġartificial":10133,"ĠCusack":10134,"Big":10135,"Since":10136,"dog":10137,"xic":10138,"Ġdud":10139,"idy":10140,"ĠSPOILER":10141,"ĠHugh":10142,"ĠFat":10143,"inder":10144,"Ġfee":10145,"Ġawake":10146,"Ġresort":10147,"awful":10148,"Ġassigned":10149,"Ġpopularity":10150,"Ġfoolish":10151,"Ġbuffs":10152,"ixties":10153,"Ġtonight":10154,"Ġfilth":10155,"Ġmundane":10156,"Last":10157,"Ġnarrow":10158,"ĠAh":10159,"ĠCart":10160,"Ġrecon":10161,"!!<":10162,"Ġtravest":10163,"Ġlasted":10164,"Ġskull":10165,"Ġreport":10166,"Only":10167,"Ġfaults":10168,"Ġsubstant":10169,"ĠValent":10170,"Ġfrequent":10171,"Ġalternate":10172,"Ġcounterpart":10173,"Ġsevere":10174,"Ġglobal":10175,"iper":10176,"eson":10177,"Ġease":10178,"stage":10179,"ilia":10180,"ĠMiddle":10181,"ĠLOT":10182,"Ġshowcase":10183,"Ġoveracting":10184,"Ġflies":10185,"Ġsurg":10186,"Ġviewings":10187,"ĠTracy":10188,"ĠNightmare":10189,"Ġballs":10190,"Ġpunishment":10191,"ĠInternational":10192,"ĠCharacters":10193,"Ġincompetent":10194,"..<":10195,"Ġple":10196,"Ġpub":10197,"icable":10198,"Ġrely":10199,"aying":10200,"ĠSaw":10201,"Ġlips":10202,"ĠCab":10203,"Ġatroc":10204,"ĠRad":10205,"ĠRating":10206,"Ġintim":10207,"ĠGabr":10208,"ĠEyes":10209,"Ġgreatness":10210,"acity":10211,"pecting":10212,"Ġremained":10213,"Ġhumble":10214,"Ġpriceless":10215,"ĠSpike":10216,"ĠLegend":10217,"Ġsleaze":10218,"volution":10219,"Ġsurviving":10220,"ALL":10221,"ĠEnjoy":10222,"Ġroller":10223,"Ġjoined":10224,"ĠCassave":10225,"ĠAstaire":10226,"Ġdinosaurs":10227,"ĠTitanic":10228,"ĠVirginia":10229,"imagin":10230,"Title":10231,",,":10232,"12":10233,"bidden":10234,"lins":10235,"hears":10236,"rell":10237,"Ġow":10238,"Ġfought":10239,"lett":10240,"ĠTak":10241,"Ġanaly":10242,"ĠAbb":10243,"ĠSel":10244,"Ġsus":10245,"ĠLiz":10246,"ĠJa":10247,"Ġmankind":10248,"Ġdesires":10249,"Ġrig":10250,"Ġsubstit":10251,"ĠAside":10252,"Ġconsistent":10253,"Ġmenace":10254,"Ġbusinessman":10255,"OUS":10256,"Ġcleverly":10257,"Ġrandomly":10258,"Ġpsychic":10259,"Ġderiv":10260,"Ġensues":10261,"ĠSEE":10262,"ĠClassic":10263,"Ġresources":10264,"onymous":10265,"Best":10266,"Hollywood":10267,"ca":10268,"fu":10269,"pan":10270,"Ġmast":10271,"Ġpale":10272,"Ġstress":10273,"tery":10274,"ulations":10275,"unior":10276,"ĠPowers":10277,"quest":10278,"Ġmyt":10279,"Ġcheating":10280,"ASE":10281,"Ġsuitable":10282,"Being":10283,"Ġcomposer":10284,"Ġbottle":10285,"Ġapt":10286,"Ġmafia":10287,"Ġce":10288,"Ġcran":10289,"enth":10290,"ĠSoph":10291,"agues":10292,"geon":10293,"ellig":10294,"Ġtends":10295,"Ġhorrifying":10296,"ionship":10297,"ĠStra":10298,"Ġcheated":10299,"ashi":10300,"Ġchooses":10301,"ĠKeith":10302,"Ġquestionable":10303,"Ġsecretly":10304,"Ġoccasions":10305,"ĠAustin":10306,"Ġhostage":10307,"ĠAlexander":10308,"Ġcorrectly":10309,"Ġdragon":10310,"ĠONE":10311,"hetti":10312,"Ġconservative":10313,"buck":10314,"gian":10315,"Ġtherap":10316,"Ġmile":10317,"Ġcure":10318,"eni":10319,"Ġpunk":10320,"Ġlun":10321,"ĠAff":10322,"ĠSP":10323,"Ġthru":10324,"ĠBak":10325,"ĠBrend":10326,"unts":10327,"Ġexquis":10328,"andering":10329,"ĠChamp":10330,"Ġglorious":10331,"ixon":10332,"Ġphrase":10333,"Ġpatience":10334,"Ġmasterful":10335,"ĠSomehow":10336,"Ġpromises":10337,"Ġantagon":10338,"Ġbehave":10339,"Ġrolled":10340,"ĠHopper":10341,"Ġunpredictable":10342,"Ġexposition":10343,"Ġtroops":10344,"Jul":10345,"pol":10346,"Ġties":10347,"Ġsess":10348,"Ġpages":10349,"ĠSix":10350,"ĠBoll":10351,"ĠCre":10352,"Ġalter":10353,"Ġvom":10354,"odes":10355,"Ġrealizing":10356,"Ġspring":10357,"ĠUnt":10358,"Ġshake":10359,"Ġsecondary":10360,"ĠPlot":10361,"ESS":10362,"Ġpuzzle":10363,"____":10364,"Ġreunion":10365,"ĠBeautiful":10366,"ĠFlorida":10367,"ĠHistory":10368,"ĠBenjamin":10369,"\"!":10370,"Ter":10371,"wind":10372,"zing":10373,"inating":10374,"Ġdiamond":10375,"Ġreck":10376,"ĠAugust":10377,"ĠBoo":10378,"astard":10379,"Ġunhappy":10380,"Ġshif":10381,"Ġshowdown":10382,"Ġquotes":10383,"irsty":10384,"ĠVar":10385,"Ġmessed":10386,"Ġheartbreaking":10387,"Ġ1999":10388,"Ġrecording":10389,"Ġexceptionally":10390,"ylum":10391,"ĠDiane":10392,"Ġmethods":10393,"Ġseverely":10394,"dies":10395,"ji":10396,"wyn":10397,"Ġtv":10398,"iners":10399,"inations":10400,"haust":10401,"Ġcode":10402,"Ġpushing":10403,"Ġstream":10404,"ĠBible":10405,"ĠLuck":10406,"Ġintric":10407,"Ġrude":10408,"peror":10409,"Ġraises":10410,"Ġtripe":10411,"rows":10412,"Ġswall":10413,"Ġagenda":10414,"Ġillogical":10415,"Ġlands":10416,"Ġmodest":10417,"IDS":10418,"Ġtroubles":10419,"Ġpoliceman":10420,"Ġincorpor":10421,"ĠJordan":10422,"Ġtravesty":10423,"talk":10424,"Ġaest":10425,"Ġdating":10426,"Ġgarden":10427,"ĠBark":10428,"ĠBambi":10429,"ĠBeverly":10430,"ĠDON":10431,"Ġdod":10432,"ppers":10433,"Ġritual":10434,"ĠNov":10435,"izer":10436,"Ġracing":10437,"ĠStock":10438,"azing":10439,"prisingly":10440,"ysis":10441,"Ġ2003":10442,"Ġfocusing":10443,"ologist":10444,"Ġadaptations":10445,"ĠLaurel":10446,"Ġhench":10447,"ĠThroughout":10448,"ĠKapoor":10449,"bone":10450,"big":10451,"Ġmouse":10452,"Ġgor":10453,"rob":10454,"Ġhouses":10455,"ĠMun":10456,"ĠRead":10457,"about":10458,"iana":10459,"Ġslaughter":10460,"Ġbugs":10461,"Ġexploration":10462,"Ġmatches":10463,"Ġglim":10464,"Ġvisits":10465,"Ġphony":10466,"Ġmentioning":10467,"volta":10468,"Ġappreciation":10469,"Ġcondem":10470,"ĠProject":10471,"ĠHolocaust":10472,"Ġmarketing":10473,"Ġwarmth":10474,"drama":10475,"Ġgifted":10476,"AP":10477,"Sam":10478,"bound":10479,"phant":10480,"ueless":10481,"Ġwore":10482,"Ġfingers":10483,"Ġmuse":10484,"arity":10485,"Ġforty":10486,"ĠSet":10487,"ĠDaw":10488,"oln":10489,"aghetti":10490,"Ġpeoples":10491,"Ġattorney":10492,"Ġacid":10493,"Ġconfident":10494,"Ġexperiments":10495,"ĠMarx":10496,"Ġpromised":10497,"ĠHero":10498,"ARN":10499,"Ġprotest":10500,"Ġoperation":10501,"ĠBetter":10502,"Ġemphasis":10503,"Ġhesit":10504,"Ġwis":10505,"ldom":10506,"ĠGrey":10507,"Ġships":10508,"Ġcareful":10509,"ĠAnnie":10510,"ĠSea":10511,"Ġconvincingly":10512,"Ġrefuge":10513,"Ġpurs":10514,"ĠCharlotte":10515,"ATE":10516,"Ġvein":10517,"ĠBurke":10518,"Ġcontrary":10519,"Ġicon":10520,"--------":10521,"Ġwounded":10522,"ĠCruise":10523,"ĠCrystal":10524,"nor":10525,"uart":10526,"ĠâĢ":10527,"Ġwolf":10528,"Ġocean":10529,"Ġdarn":10530,"Ġheist":10531,"Ġstale":10532,"ĠTheater":10533,"ako":10534,"ĠLoy":10535,"astically":10536,"ĠFields":10537,"Ġunaware":10538,"ĠKa":10539,"Ġminimum":10540,"Ġinterests":10541,"Ġobst":10542,"ĠSeven":10543,"otta":10544,"iker":10545,"heads":10546,"ĠExcellent":10547,"ĠSeeing":10548,"ĠGibson":10549,"fle":10550,"Ġhabit":10551,"robe":10552,"ĠSellers":10553,"ĠBattle":10554,"ĠDirty":10555,"opard":10556,"ference":10557,"Ġrang":10558,"Ġunimagin":10559,"acious":10560,"ĠStars":10561,"Ġrelatives":10562,"Ġgrate":10563,"Ġromp":10564,"Ġexped":10565,"ĠONLY":10566,"plicity":10567,"Ġfloating":10568,"Ġwandering":10569,"Ġguarantee":10570,"Second":10571,"ĠSopran":10572,",<":10573,"15":10574,"HH":10575,"motion":10576,"Ġmate":10577,"ala":10578,"ĠTha":10579,"ĠABC":10580,"ĠSN":10581,"ĠSong":10582,"ĠWals":10583,"Ġabusive":10584,"Ġdeaf":10585,"ĠLance":10586,"ĠFay":10587,"Ġenlight":10588,"acle":10589,"obb":10590,"Ġinsanity":10591,"Ġletters":10592,"Ġconfidence":10593,"Ġpassable":10594,"ugene":10595,"oiled":10596,"ucing":10597,"Ġsensational":10598,"Ġproperty":10599,"ĠTimothy":10600,"Ġfashioned":10601,"Ġlengthy":10602,"Ġadopted":10603,"Ġexcessive":10604,"Sure":10605,"Ġwishing":10606,"Ġbaff":10607,"Ġbumbling":10608,"ĠBert":10609,"ĠCD":10610,"Ġneur":10611,"ĠRich":10612,"Ġoutfit":10613,"ĠFra":10614,"ĠFul":10615,"Ġperman":10616,"neath":10617,"ffic":10618,"ensen":10619,"ĠInspector":10620,"Ġcontempl":10621,"spir":10622,"Ġshared":10623,"anche":10624,"Ġreflection":10625,"Ġcapturing":10626,"Ġrespected":10627,"ĠColin":10628,"ĠQuite":10629,"Ġhyper":10630,"Ġwildly":10631,"Ġinvestigating":10632,"Ġsquare":10633,"ĠErnest":10634,"ĠWorst":10635,"ĠNobody":10636,"ĠWITH":10637,")...":10638,"Car":10639,"bi":10640,"evil":10641,"faced":10642,"Ġbite":10643,"icidal":10644,"Ġbehold":10645,"Ġabused":10646,"olt":10647,"ĠFel":10648,"Ġworn":10649,"through":10650,"ipid":10651,"Ġshares":10652,"ĠBeach":10653,"Ġedit":10654,"Ġangel":10655,"Ġwrites":10656,"Ġmerits":10657,"ĠBela":10658,"ĠJeffrey":10659,"ĠUniversity":10660,"uppet":10661,"ĠSherlock":10662,"Ġpurchased":10663,"ĠCastle":10664,"Ġsketch":10665,"Ġdestroying":10666,"Ġvibr":10667,"icolor":10668,"ĠProfessor":10669,"ĠGarbo":10670,"Ġdysfunction":10671,"//":10672,"Never":10673,"both":10674,"did":10675,"Ġwretched":10676,"Ġmax":10677,"Ġhears":10678,"ravel":10679,"ĠSummer":10680,"ĠBach":10681,"ĠME":10682,"ĠLill":10683,"Ġrush":10684,"ĠStrange":10685,"Ġreson":10686,"developed":10687,"Ġinstinct":10688,"identally":10689,"Ġcomedians":10690,"Ġadvise":10691,"Ġyesterday":10692,"Ġlaughably":10693,"strong":10694,"ĠNaturally":10695,"Ġobliv":10696,"Ġninja":10697,"ĠDetective":10698,"ĠBrooklyn":10699,"Did":10700,"bury":10701,"hle":10702,"Ġcul":10703,"Ġlonel":10704,"Ġbell":10705,"ieves":10706,"Ġreha":10707,"ĠCrow":10708,"ĠWid":10709,"emic":10710,"Ġsoci":10711,"Ġunst":10712,"ĠVill":10713,"urned":10714,"Ġrecover":10715,"Ġcrashes":10716,"Ġnamely":10717,"Ġ99":10718,"Ġmisery":10719,"Ġcontinually":10720,"shi":10721,"uries":10722,"ĠRichards":10723,"goers":10724,"Ġresear":10725,"ĠCraven":10726,"Ġfascinated":10727,"Ġdivers":10728,"Ġquietly":10729,"Ġcourtroom":10730,"ĠSyd":10731,"Ġrotten":10732,"Ġambiguous":10733,"ĠAltman":10734,"rocodile":10735,"Ġderivative":10736,"hell":10737,"Ġtoys":10738,"Ġgreed":10739,"ador":10740,"riz":10741,"Ġguards":10742,"Ġaccuracy":10743,"Ġstraightforward":10744,"Ġchecked":10745,"Ġhistorically":10746,"Ġdepicting":10747,"Ġbehaviour":10748,"Ġhypoc":10749,"Ġdreary":10750,"Ġdisgrace":10751,"inity":10752,"Ġdances":10753,"arse":10754,"brow":10755,"feld":10756,"Ġrecyc":10757,"Ġdifferently":10758,"Ġmysteries":10759,"load":10760,"Ġlifted":10761,"Ġactivities":10762,"ĠLemmon":10763,"Avoid":10764,"FE":10765,"rine":10766,"held":10767,"reens":10768,"Ġfog":10769,"Ġreel":10770,"irs":10771,"rip":10772,"ĠBR":10773,"ĠHank":10774,"ĠWAY":10775,"Ġintro":10776,"Ġroots":10777,"Ġroyal":10778,"Ġdism":10779,"Ġflair":10780,"Ġawhile":10781,"ĠChainsaw":10782,"Ġwaitress":10783,"Ġframed":10784,"Ġdiscovering":10785,"Ġprimitive":10786,"Ġtranslation":10787,"Ġsilliness":10788,"War":10789,"cil":10790,"power":10791,"word":10792,"Ġlately":10793,"ĠCivil":10794,"Ġwholly":10795,"auer":10796,"ĠEmpire":10797,"ĠKent":10798,"Ġamid":10799,"Ġteaches":10800,"Ġcomprom":10801,"acts":10802,"Ġmusicians":10803,"ĠScooby":10804,"Ġvisions":10805,"Ġexpand":10806,"roma":10807,"Ġvalid":10808,"Ġbands":10809,"hart":10810,"ĠNathan":10811,"ĠCentral":10812,"Ġglasses":10813,"Ġuniversal":10814,"Ġexecutive":10815,"Dra":10816,"FUL":10817,"named":10818,"rome":10819,"Ġfaster":10820,"Ġinability":10821,"Ġinherent":10822,"hole":10823,"Ġbutcher":10824,"Ġweather":10825,"Ġsucc":10826,"ĠFarre":10827,"Ġintimate":10828,"ĠGall":10829,"ĠEst":10830,"ĠOper":10831,"ĠJoey":10832,"Ġgrief":10833,"Ġsynt":10834,"ĠOrson":10835,"Ġspirits":10836,"ĠGlenn":10837,"Ġbiased":10838,"Ġchallenges":10839,"Ġtunes":10840,"Ġmanipulative":10841,"Ġpursuit":10842,"ĠWalsh":10843,"Her":10844,"Pat":10845,"front":10846,"sa":10847,"Ġlens":10848,"omy":10849,"ĠAction":10850,"ĠMount":10851,"Ġsched":10852,"Ġexhaust":10853,"ĠPick":10854,"ĠGOOD":10855,"Ġcrush":10856,"Ġinsipid":10857,"Ġpolished":10858,"incoln":10859,"note":10860,"Ġconviction":10861,"Ġmisleading":10862,"Ġmilk":10863,"Ġsensual":10864,"Ġ*****":10865,"Ġderanged":10866,"Ġcomplaints":10867,"ĠStallone":10868,"Ġsimultaneously":10869,"Ġloneliness":10870,"Sim":10871,"felt":10872,"uelle":10873,"yre":10874,"Ġdrill":10875,"leans":10876,"Ġsending":10877,"Ġthr":10878,"Ġscat":10879,"Ġjer":10880,"ĠLenn":10881,"ando":10882,"ĠJed":10883,"ĠKyle":10884,"Ġclip":10885,"iped":10886,"ĠStooges":10887,"Ġsubplots":10888,"Ġtriangle":10889,"Ġheading":10890,"ĠMario":10891,"ombard":10892,"playing":10893,"Ġadvanced":10894,"ĠQuinn":10895,"Ġdancers":10896,"Ġassumed":10897,"Ġempathy":10898,"ĠPalma":10899,"ĠImagine":10900,"Ġhomosexuality":10901,"Ġalbum":10902,"!'":10903,".(":10904,"fashion":10905,"len":10906,"will":10907,"orms":10908,"oust":10909,"anning":10910,"Ġseam":10911,"ĠBis":10912,"Ġlip":10913,"ĠHonestly":10914,"ĠWag":10915,"ĠGable":10916,"Ġque":10917,"assy":10918,"ĠVon":10919,"lied":10920,"Ġsmiling":10921,"Ġrelation":10922,"Ġcoff":10923,"ĠSold":10924,"atton":10925,"ierre":10926,"Ġfemin":10927,"END":10928,"Ġcontrolled":10929,"Ġconcepts":10930,"Ġpurposes":10931,"Ġwitnesses":10932,"Ġsignificance":10933,"Ġtacky":10934,"itizen":10935,"Ġschlock":10936,"Ġbetrayal":10937,"ĠArgento":10938,"Ġuplifting":10939,"Lu":10940,"oqu":10941,"ripp":10942,"ĠMau":10943,"ĠCron":10944,"Ġscenar":10945,"ĠVo":10946,"Ġserving":10947,"Ġinvited":10948,"Ġinvented":10949,"Ġindic":10950,"Ġprominent":10951,"Ġexplores":10952,"Ġrocket":10953,"ĠOthers":10954,"Ġnonsensical":10955,"Ġrepresentation":10956,"ĠHopefully":10957,"uary":10958,"inter":10959,"iti":10960,"Ġdazz":10961,"ĠBand":10962,"ĠCAN":10963,"ĠFut":10964,"Ġpreced":10965,"enson":10966,"ĠShell":10967,"Ġnights":10968,"Ġretired":10969,"guy":10970,"Ġmoronic":10971,"Ġcombine":10972,"Ġtrend":10973,"Ġbombs":10974,"Ġcompelled":10975,"Ġfreaks":10976,"Ġreaching":10977,"Ġwidely":10978,"Ġincomprehensible":10979,"Ġrevolutionary":10980,"ĠInterest":10981,"ĠCostello":10982,"Ġadopt":10983,"ĠPhillips":10984,"ĠOlivier":10985,"Ġunexplained":10986,"Ġneighbors":10987,"Ġshameless":10988,"Ġsuspend":10989,"Little":10990,"bust":10991,"rings":10992,"Ġfren":10993,"Ġtom":10994,"Ġmode":10995,"adly":10996,"Ġans":10997,"rio":10998,"urg":10999,"ĠMey":11000,"ĠWol":11001,"essa":11002,"Ġ---":11003,"Ġchicks":11004,"Ġchees":11005,"Ġpops":11006,"Ġmasterpieces":11007,"ĠTravolta":11008,"Ġremarks":11009,"Ġopportunities":11010,"Ġroute":11011,"Ġbanal":11012,"Ġstrangers":11013,"ĠHotel":11014,"ĠHannah":11015,"Ġamusement":11016,"HE":11017,"Super":11018,"creen":11019,"lan":11020,"pa":11021,"Ġape":11022,"isand":11023,"itable":11024,"ĠBin":11025,"ĠDom":11026,"ĠDante":11027,"ĠDoyle":11028,"ĠFun":11029,"ĠOrigin":11030,"neck":11031,"Ġperforms":11032,"Ġsupported":11033,"renching":11034,"OULD":11035,"ĠGoldberg":11036,"ĠYear":11037,"ifties":11038,"Ġastron":11039,"ĠApril":11040,"ĠHayes":11041,"ructive":11042,"Ġreleases":11043,"main":11044,"vals":11045,"Ġmall":11046,"ority":11047,"leton":11048,"ĠSoder":11049,"ĠHale":11050,"ĠDolph":11051,"istan":11052,"Ġunsu":11053,"Ġunravel":11054,"ĠEye":11055,"Ġpecul":11056,"ilyn":11057,"actors":11058,"Ġrecommendation":11059,"Ġlively":11060,"Ġdemented":11061,"ĠEdgar":11062,"Ġ2007":11063,"Ġprize":11064,"Ġlaws":11065,"Ġjumped":11066,"Ġeaten":11067,"Ġcompanies":11068,"Ġreferred":11069,"Ġchuckle":11070,"ĠChildren":11071,"ocalyptic":11072,"Ali":11073,"daughter":11074,"rating":11075,"vate":11076,"Ġwow":11077,"Ġlord":11078,"alie":11079,"ĠSor":11080,"ppola":11081,"Ġvain":11082,"ĠGot":11083,"Ġpeak":11084,"plex":11085,"Ġamused":11086,"apers":11087,"ccer":11088,"Ġramb":11089,"becca":11090,"Ġmayhem":11091,"Ġliterary":11092,"Ġbrutality":11093,"iseries":11094,"Ġjudgment":11095,"uddenly":11096,"AV":11097,"KE":11098,"Pr":11099,"andra":11100,"ighty":11101,"Ġshell":11102,"thm":11103,"psy":11104,"Ġboom":11105,"ventures":11106,"offs":11107,"Ġmurdering":11108,"Ġcomplaining":11109,"ervice":11110,"Ġmentions":11111,"Ġpackage":11112,"Ġdiscussing":11113,"particularly":11114,"Ġarchite":11115,"Ġinexplicably":11116,"likable":11117,"fly":11118,"ipper":11119,"ni":11120,"Ġsab":11121,"Ġsaga":11122,"Ġwives":11123,"Ġcream":11124,"icism":11125,"Ġ/>***":11126,"cends":11127,"ĠSound":11128,"Ġscreens":11129,"ĠLine":11130,"ĠFunny":11131,"Ġintentionally":11132,"Ġprospect":11133,"Ġminded":11134,"ĠBloom":11135,"ĠUnion":11136,"ATH":11137,"Ġdoubts":11138,"Ġintroduce":11139,"Ġresemble":11140,"Ġliterature":11141,"ĠSlater":11142,"anoia":11143,"colm":11144,"ĠSkip":11145,"Ġimprovement":11146,"ĠReeves":11147,"Ġprecisely":11148,"-)":11149,"bow":11150,"da":11151,"length":11152,"Ġwoe":11153,"Ġlap":11154,"ĠActor":11155,"ĠHag":11156,"Ġclueless":11157,"ĠVis":11158,"Ġhokey":11159,"ĠState":11160,"Ġsimilarly":11161,"ffects":11162,"Ġmusician":11163,"ggie":11164,"notch":11165,"Ġedition":11166,"Ġmargin":11167,"ĠConan":11168,"Ġposted":11169,"Ġthreatens":11170,"Ġoption":11171,"Ġfifty":11172,"umphrey":11173,"Ġenthusiasm":11174,"ĠOlivia":11175,"Rating":11176,"vi":11177,"Ġx":11178,"Ġmoody":11179,"ĠTele":11180,"oos":11181,"amera":11182,"ĠCec":11183,"ĠLincoln":11184,"ĠLombard":11185,"ĠOp":11186,"apid":11187,"Ġunderneath":11188,"Ġdecor":11189,"ften":11190,"Ġcreator":11191,"lander":11192,"Ġbarrel":11193,"Ġauthorities":11194,"Ġdebate":11195,"ugging":11196,"Ġflee":11197,"Ġalleged":11198,"Ġarguably":11199,"ĠRepublic":11200,"ĠPryor":11201,"ĠCassavetes":11202,",(":11203,"90":11204,"car":11205,"dig":11206,"mill":11207,"ua":11208,"Ġ{":11209,"Ġ~":11210,"Ġwakes":11211,"Ġmuddled":11212,"Ġgap":11213,"Ġyelling":11214,"amount":11215,"ĠBreak":11216,"ustin":11217,"ĠPleas":11218,"istics":11219,"ĠJill":11220,"ĠGos":11221,"ĠViol":11222,"Ġentitled":11223,"ĠTherefore":11224,"ĠAli":11225,"Ġowned":11226,"ĠBeyond":11227,"ĠClose":11228,"irds":11229,"Ġassign":11230,"ormally":11231,"ĠMann":11232,"Ġprofanity":11233,"ielding":11234,"Ġsubjected":11235,"Ġlosers":11236,"Ġmachines":11237,"Ġstores":11238,"ĠTerror":11239,"Ġsurfing":11240,"provoking":11241,"Ġneurotic":11242,"Tra":11243,"two":11244,"Ġmort":11245,"Ġmap":11246,"Ġdow":11247,"Ġgam":11248,"ĠBuster":11249,"ĠCross":11250,"emet":11251,"Ġdele":11252,"ĠRat":11253,"ĠJod":11254,"ĠNa":11255,"ĠEarl":11256,"bergh":11257,"Ġsmell":11258,"Ġdemise":11259,"Ġmorbid":11260,"Ġenthra":11261,"ĠNicholas":11262,"Ġgreedy":11263,"Ġintegrity":11264,"orcist":11265,"eous":11266,"Ġwides":11267,"Ġliners":11268,"ĠTroma":11269,"Ġsta":11270,"keeper":11271,"uration":11272,"ested":11273,"ĠEugene":11274,"pling":11275,"ĠKung":11276,"Ġagency":11277,"ricia":11278,"Ġrefuse":11279,"Ġcultures":11280,"boat":11281,"Ġlimits":11282,"blum":11283,"Ġrecognizable":11284,"Ġtracking":11285,"Ġservant":11286,"Ġconceived":11287,"ĠTurkish":11288,"Ġmotorcy":11289,"Ġexpedition":11290,"Fred":11291,"Hara":11292,"UE":11293,"hor":11294,"oad":11295,"Ġ....":11296,"Ġfist":11297,"Ġpoo":11298,"omn":11299,"Ġhij":11300,"ĠDomin":11301,"Ġscrap":11302,"ĠPut":11303,"ĠFro":11304,"Ġrising":11305,"osition":11306,"ĠOt":11307,"manuelle":11308,"Ġminiseries":11309,"umbo":11310,"Ġvisited":11311,"Ġmarries":11312,"Ġdefined":11313,"ĠOrleans":11314,"ĠQuentin":11315,"ĠMadonna":11316,"Ġregarded":11317,"Ġspecies":11318,"Ġobligatory":11319,"Ġhippie":11320,"Ġadmittedly":11321,"ĠFellini":11322,"character":11323,"Ġlackluster":11324,"cles":11325,"din":11326,"fan":11327,"hot":11328,"mus":11329,"vor":11330,"vell":11331,"ĠBenn":11332,"ĠBerry":11333,"ĠCL":11334,"arts":11335,"ags":11336,"Ġoutlaw":11337,"Ġrings":11338,"Ġrises":11339,"indul":11340,"ĠOR":11341,"ĠKin":11342,"Ġimitation":11343,"Ġdisast":11344,"ansas":11345,"Ġbackwards":11346,"ĠStiller":11347,"ighters":11348,"Ġchew":11349,"Ġinvites":11350,"Ġappropriately":11351,"ksha":11352,"itsch":11353,"ĠClaude":11354,"Ġmisgu":11355,"Ġcatchy":11356,"OOOO":11357,"Ġbleed":11358,"Nothing":11359,"Ġeducational":11360,"ĠDEAD":11361,"Ġmacho":11362,"Ġcontradict":11363,"IRE":11364,"MAN":11365,"rants":11366,"Ġ+":11367,"Ġfiring":11368,"ĠSeveral":11369,"Ġdoctors":11370,"ĠLas":11371,"ĠList":11372,"ĠFive":11373,"ĠFors":11374,"gey":11375,"Ġtwelve":11376,"Ġsometime":11377,"Ġchronic":11378,"Ġstartling":11379,"Ġkeen":11380,"Ġshaky":11381,"Ġversus":11382,"Ġdefinition":11383,"chair":11384,"Ġbargain":11385,"OUR":11386,"ttes":11387,"Ġdesigns":11388,"Ġfascination":11389,"Ġabandon":11390,"hetto":11391,"special":11392,"ĠMarshall":11393,"Ġsurvivor":11394,"ĠHalf":11395,"Ġadmirable":11396,"Ġengrossing":11397,"Basically":11398,"ĠTemple":11399,"AB":11400,"Fl":11401,"make":11402,"vial":11403,"inated":11404,"Ġsixties":11405,"Ġfurn":11406,"Ġfox":11407,"Ġinsec":11408,"Ġlav":11409,"ĠTun":11410,"Ġforcing":11411,"ĠDud":11412,"ĠDuck":11413,"ĠPredator":11414,"ĠLon":11415,"ardo":11416,"Ġbitch":11417,"orders":11418,"Ġconscience":11419,"onto":11420,"Ġcrazed":11421,"Ġrefused":11422,"Ġcloset":11423,"claim":11424,"Ġwilder":11425,"ĠStreisand":11426,"Ġexperimental":11427,"Ġreflects":11428,"modern":11429,"ĠPhillip":11430,"Ġwisdom":11431,"Brien":11432,"Men":11433,"date":11434,"gate":11435,"lay":11436,"iciously":11437,"ĠTan":11438,"ĠTok":11439,"ĠBIG":11440,"ĠCong":11441,"usty":11442,"Ġvon":11443,"ĠLanc":11444,"ĠFast":11445,"ĠValley":11446,"Ġshoddy":11447,"Ġgrabs":11448,"inski":11449,"Ġtopics":11450,"Ġsweat":11451,"reston":11452,"ARS":11453,"Ġfiller":11454,"Ġteams":11455,"Ġcompliment":11456,"Ġdifficulties":11457,"Ġpublicity":11458,"Ġrepeating":11459,"Ġimmature":11460,"ĠCoppola":11461,"AME":11462,"Ġpredecessor":11463,"ĠBlockbuster":11464,"Ġcensors":11465,"gency":11466,"Ġdwarf":11467,"leen":11468,"Ġhealthy":11469,"Ġseldom":11470,"ĠSave":11471,"amiliar":11472,"ĠBourne":11473,"Ġlibert":11474,"ĠMind":11475,"unks":11476,"ĠDee":11477,"ĠGlover":11478,"acks":11479,"Ġshed":11480,"Ġawfully":11481,"Ġremade":11482,"Ġbrat":11483,"ĠStuart":11484,"ĠForget":11485,"Ġcredited":11486,"Ġprovocative":11487,"Ġfemales":11488,"Ġ2002":11489,"Ġhomes":11490,"Ġcircle":11491,"Ġhistoric":11492,"Ġstretched":11493,"Ġscrewed":11494,"Ġpedest":11495,"ĠStudios":11496,"Ġsympathize":11497,"Yeah":11498,"Ġfundamental":11499,"://":11500,"rehe":11501,"ingo":11502,"ĠTW":11503,"Ġstatic":11504,"rock":11505,"ĠBos":11506,"ĠMim":11507,"Ġsums":11508,"Ġplag":11509,"ĠLoren":11510,"ĠGiven":11511,"Ġrates":11512,"Ġcloud":11513,"Ġarist":11514,"Ġprequel":11515,"Ġ1920":11516,"Ġsimplicity":11517,"Ġsharing":11518,"ĠThor":11519,"Ġhearted":11520,"Ġexpressed":11521,"Ġmorals":11522,"ika":11523,"Ġoppon":11524,"Ġairport":11525,"ttp":11526,"ĠScottish":11527,"Ġgems":11528,"probably":11529,"Ġfrightened":11530,"Ġobjective":11531,"Ġbalanced":11532,"Ġpitiful":11533,"Arthur":11534,"Ġunseen":11535,"Ġdistribution":11536,"ĠJuan":11537,"Ġincorrect":11538,"Ġdeceased":11539,"ĠFulci":11540,"Im":11541,"Movie":11542,"New":11543,"Watching":11544,"Yet":11545,"bable":11546,"eur":11547,"zes":11548,"Ġtomb":11549,"uten":11550,"Ġwashed":11551,"Ġordered":11552,"Ġrats":11553,"Ġmeas":11554,"Ġloaded":11555,"ĠKids":11556,"ourney":11557,"epburn":11558,"Ġminus":11559,"neyed":11560,"ĠBlond":11561,"ĠNewman":11562,"Ġthrilled":11563,"ĠFrances":11564,"bye":11565,"engers":11566,"Ġattacking":11567,"ettes":11568,"Ġteachers":11569,"Ġemerges":11570,"Ġrejected":11571,"Col":11572,"doc":11573,"filled":11574,"Ġrehears":11575,"ĠBased":11576,"uru":11577,"ĠMant":11578,"ĠMajor":11579,"ĠMeryl":11580,"ĠDer":11581,"Ġscra":11582,"ĠLE":11583,"istol":11584,"ĠFalk":11585,"ptember":11586,"Ġprev":11587,"Ġprey":11588,"Ġincest":11589,"ĠJoel":11590,"Ġviewpoint":11591,"actor":11592,"Ġtrivial":11593,"Ġartic":11594,"Ġmemor":11595,"Ġexcl":11596,"Ġlocals":11597,"Ġcounts":11598,"Ġdepression":11599,"iami":11600,"ĠQue":11601,"Ġrespective":11602,"ĠJulian":11603,"Ġmidnight":11604,"Ġimmediate":11605,"Ġcompete":11606,"ĠGoldblum":11607,"Ġdrinks":11608,"Ġprepare":11609,"Ġdisgusted":11610,"Ġscrewball":11611,"Ġinjured":11612,"ĠUsually":11613,"Ġreluctant":11614,"ĠScotland":11615,"Ġpeculiar":11616,"99":11617,"Jim":11618,"eem":11619,"giving":11620,"pion":11621,"runs":11622,"wick":11623,"Ġsque":11624,"Ġcos":11625,"Ġrender":11626,"Ġstages":11627,"ĠBates":11628,"ĠCON":11629,"ĠCode":11630,"ĠCourt":11631,"ĠWish":11632,"ĠWright":11633,"ĠDur":11634,"emesis":11635,"ĠPost":11636,"ĠOs":11637,"ĠKN":11638,"ĠKi":11639,"Ġquarter":11640,"Ġhorny":11641,"berry":11642,"maid":11643,"ERT":11644,"Ġgrainy":11645,"ĠThur":11646,"ĠSharon":11647,"Ġstunned":11648,"ĠLindsay":11649,"Ġnerve":11650,"ĠEva":11651,"ĠBoris":11652,"ĠJersey":11653,"ĠBranagh":11654,"Ġanswered":11655,"Bec":11656,"IV":11657,"cal":11658,"ded":11659,"vas":11660,"Ġ.<":11661,"Ġbrown":11662,"ĠAunt":11663,"Ġselect":11664,"ifetime":11665,"outhed":11666,"ĠPin":11667,"ĠRex":11668,"umes":11669,"ĠGand":11670,"Ġleather":11671,"Ġupst":11672,"Ġenig":11673,"Ġdirections":11674,"Ġrail":11675,"Ġrecre":11676,"Ġshoulders":11677,"covered":11678,"Ġglowing":11679,"ĠClive":11680,"ierney":11681,"Ġgenerated":11682,"Ġretire":11683,"Ġmothers":11684,"Ġpresenting":11685,"ĠPearl":11686,"mmm":11687,"ĠRichardson":11688,"ĠAmong":11689,"Ġmasses":11690,"Ġadditional":11691,"Ġpetty":11692,"Ġrendition":11693,"Ġtaxi":11694,"Ġcoincidence":11695,"Ġethnic":11696,"People":11697,"Ġsatirical":11698,"ĠTechnicolor":11699,"Ġadolescent":11700,"DVD":11701,"fet":11702,"occ":11703,"wling":11704,"Ġtang":11705,"Ġponder":11706,"icy":11707,"ĠAIDS":11708,"ĠMach":11709,"ĠMUST":11710,"ĠConsidering":11711,"ĠWE":11712,"ĠDiv":11713,"ĠDID":11714,"Ġdepend":11715,"Ġpoem":11716,"ĠVol":11717,"iculty":11718,"Ġ3000":11719,"Ġhopelessly":11720,"Ã©e":11721,"Ġregards":11722,"Ġmorally":11723,"Ġdealer":11724,"Ġsigned":11725,"Ġthreatened":11726,"Ġlifeless":11727,"Ġinsightful":11728,"ĠDoris":11729,"Ġevolution":11730,"Ġinteractions":11731,"Ġfirmly":11732,"Ġpreachy":11733,"Ġbasketball":11734,"ĠDawson":11735,"Ġcoffin":11736,"17":11737,"Back":11738,"days":11739,"gles":11740,"another":11741,"Ġlic":11742,"vere":11743,"cel":11744,"ĠComb":11745,"ĠJaws":11746,"ĠEar":11747,"ĠOuter":11748,"ĠKo":11749,"ĠKey":11750,"osterous":11751,"urning":11752,"Ġraces":11753,"ubby":11754,"eworthy":11755,"Ġaddress":11756,"ĠWells":11757,"Ġtowns":11758,"Ġcharged":11759,"Ġcolon":11760,"ĠEdwards":11761,"Ġpositively":11762,"Ġdropping":11763,"ĠNicole":11764,"Ġaccurately":11765,"Ġdeserted":11766,"ĠCollins":11767,"ĠBeatty":11768,"Ġdisguise":11769,"Ġdifficulty":11770,"Ġdysfunctional":11771,"cers":11772,"wer":11773,"atics":11774,"Ġnails":11775,"uters":11776,"Ġster":11777,"road":11778,"Ġants":11779,"ĠSeth":11780,"urate":11781,"ersed":11782,"Ġdope":11783,"esty":11784,"Ġunlikable":11785,"ĠEli":11786,"Ġsheep":11787,"ĠHend":11788,"Ġsounding":11789,"nothing":11790,"comp":11791,"comings":11792,"Ġexceptions":11793,"ĠFlash":11794,"Ġindustrial":11795,"Anyone":11796,"ĠParty":11797,"Ġsummar":11798,"Ġaccounts":11799,"Ġnerd":11800,"Ġchallenged":11801,"arette":11802,"ĠPhantom":11803,"Ġshouting":11804,"Ġinhabitants":11805,"ĠFelix":11806,"emetery":11807,"ĠForsy":11808,"Because":11809,"Ġfur":11810,"Ġbreed":11811,"itel":11812,"Ġlush":11813,"brid":11814,"lem":11815,"Ġeg":11816,"iless":11817,"roe":11818,"ĠSab":11819,"ĠHarr":11820,"ĠHurt":11821,"Ġvice":11822,"Ġvital":11823,"ĠPie":11824,"ĠLin":11825,"ĠLily":11826,"ĠLoc":11827,"asting":11828,"Ġouting":11829,"ĠFisher":11830,"ĠKum":11831,"abh":11832,"thought":11833,"Ġraising":11834,"Ġundercover":11835,"ĠSpir":11836,"Ġstrongest":11837,"ĠSamuel":11838,"tta":11839,"Ġjudging":11840,"ĠIndiana":11841,"ylan":11842,"Ġgender":11843,"ĠWHY":11844,"Ġauthenticity":11845,"ĠPictures":11846,"ĠRandolph":11847,"mittedly":11848,"ĠBrosnan":11849,"Ġclaustrophobic":11850,"fashioned":11851,"ĠWagner":11852,"ĠCronenberg":11853,"Ġmisguided":11854,"Sorry":11855,"lined":11856,"wright":11857,"Ġpill":11858,"ĠSoc":11859,"ĠBost":11860,"ĠHur":11861,"Ġawak":11862,"Ġexpects":11863,"Ġreported":11864,"Ġexpense":11865,"Ġstruct":11866,"Ġroommate":11867,"phone":11868,"Ġairplane":11869,"Ġcomplexity":11870,"ĠDoug":11871,"Ġchicken":11872,"ĠUpon":11873,"Ġloyalty":11874,"ĠCuba":11875,"Ġstumbled":11876,"ĠSoderbergh":11877,"Cont":11878,"Hen":11879,"jay":11880,"mma":11881,"pres":11882,"yet":11883,"Ġtip":11884,"Ġfuel":11885,"strated":11886,"ĠTroy":11887,"ghter":11888,"owulf":11889,"ĠBol":11890,"ĠHU":11891,"inks":11892,"Ġslaves":11893,"active":11894,"Ġscreenwriters":11895,"mostly":11896,"ĠSpider":11897,"Ġexpose":11898,"Ġrefers":11899,"Ġparanoia":11900,"Ġcentered":11901,"Ġdemean":11902,"ĠPete":11903,"Ġhugely":11904,"Ġsticking":11905,"Ġsquad":11906,"Ġabsurdity":11907,"ĠFear":11908,"Ġpreferred":11909,"Ġdresses":11910,"ĠRoyal":11911,"Ġassassination":11912,"Ġventure":11913,"Ġstumbles":11914,"ĠFurthermore":11915,"ĠAtlant":11916,"Get":11917,"dam":11918,"voc":11919,"zzy":11920,"Ġsor":11921,"Ġcattle":11922,"Ġlux":11923,"Ġnomin":11924,"iland":11925,"Ġbelly":11926,"ĠSay":11927,"ĠSweet":11928,"ĠCris":11929,"ĠHumphrey":11930,"agle":11931,"ĠLange":11932,"ĠFIL":11933,"Ġfabr":11934,"odder":11935,"Ġsale":11936,"Ġremakes":11937,"Ġlasts":11938,"ovsky":11939,"umbled":11940,"symp":11941,"ĠZero":11942,"Ġpatients":11943,"Ġinfant":11944,"Ġsubtly":11945,"!\"<":11946,"ĠSandra":11947,"Ġambition":11948,"Ġknocked":11949,"Ġhammy":11950,"ĠSnoop":11951,"Ġsketches":11952,"Ġaspiring":11953,"Ġdisliked":11954,")!":11955,"Me":11956,"Ġwing":11957,"itabh":11958,"orient":11959,"llen":11960,"Ġ/>****":11961,"ĠSide":11962,"Ġlegends":11963,"Ġshorter":11964,"Ġspider":11965,"getic":11966,"Ġsetup":11967,"actory":11968,"dead":11969,"ĠScary":11970,"Ġcollective":11971,"Ġzoom":11972,"ANG":11973,"Ġwinter":11974,"Ġdestined":11975,"ĠShould":11976,"Ġlanding":11977,"Ġ1984":11978,"Ġdesigner":11979,"Ġhackneyed":11980,"Ġcliches":11981,"ĠNeedless":11982,"Ġsurgery":11983,"ĠLancaster":11984,"person":11985,"rot":11986,"Ġcripp":11987,"esse":11988,"Ġdreck":11989,"Ġgained":11990,"ico":11991,"ĠIF":11992,"ĠTib":11993,"ĠTierney":11994,"ĠAD":11995,"Ġhitch":11996,"ĠHapp":11997,"Ġdegra":11998,"ĠOdd":11999,"ĠKn":12000,"ĠKaz":12001,"Ġresidents":12002,"ĠZe":12003,"ĠCharl":12004,"Ġconsiderably":12005,"Ġplanes":12006,"ĠElm":12007,"Ġ1997":12008,"ĠIMDB":12009,"ĠPolish":12010,"Ġspectacle":12011,"Ġbiography":12012,"Ġlaunch":12013,"Ġvehicles":12014,"ĠCompany":12015,"ĠBeauty":12016,"Ġyellow":12017,"Ġwrestling":12018,"ĠBridget":12019,"ĠHackman":12020,"Film":12021,"Rec":12022,"ties":12023,"Ġfishing":12024,"aro":12025,"arious":12026,"lymp":12027,"amy":12028,"ĠMir":12029,"ĠMinn":12030,"ĠCard":12031,"ĠHogan":12032,"ĠHepburn":12033,"Ġwhats":12034,"perhaps":12035,"Ġcheek":12036,"Ġnewcom":12037,"Ġinvasion":12038,"Ġhandling":12039,"Ġgloom":12040,"ĠAllan":12041,"Ġshortcomings":12042,"Ġpassengers":12043,"Ġcorpses":12044,"ĠShad":12045,"Ġmixing":12046,"Ġclaiming":12047,"ĠAusten":12048,"ĠTrust":12049,"Ġpunches":12050,"Ġpreposterous":12051,"Ġnerves":12052,"Ġseduct":12053,"Ġimaginable":12054,"ĠCostner":12055,"Ġignorance":12056,"ĠAntonio":12057,"ĠWonderful":12058,"ĠRecommended":12059,"Ġinfected":12060,"ĠHuston":12061,"ĠLuckily":12062,"utenant":12063,"Dark":12064,"IST":12065,"your":12066,"ÃŃ":12067,"utton":12068,"ĠBunny":12069,"ĠCOM":12070,"ainted":12071,"Ġabund":12072,"ĠLund":12073,"Ġnoises":12074,"ardless":12075,"icky":12076,"ĠAlone":12077,"Ġowns":12078,"Ġsupply":12079,"Ġmatched":12080,"Ġchoppy":12081,"unker":12082,"Ġstranded":12083,"Ġmotive":12084,"ĠEverybody":12085,"ĠPerfect":12086,"Ġmarked":12087,"Ġtasteless":12088,"Ġidentical":12089,"altrow":12090,"ITY":12091,"Ġunexpectedly":12092,"Ġprivile":12093,"Ġkissing":12094,"Ġabruptly":12095,"Ġphenomenal":12096,"Ġanalysis":12097,"ĠAwful":12098,"Ġingenious":12099,"Ġglamorous":12100,"Ġbefriends":12101,"cool":12102,"direct":12103,"directed":12104,"gren":12105,"hou":12106,"Ġbarb":12107,"eting":12108,"ĠCushing":12109,"ĠHan":12110,"ĠHooper":12111,"Ġwhiny":12112,"ĠJet":12113,"icker":12114,"Ġhoot":12115,"anski":12116,"ĠInter":12117,"Ġremove":12118,"ĠChief":12119,"deal":12120,"rilliant":12121,"Ġwarrior":12122,"Ġinsists":12123,"ĠScor":12124,"ounty":12125,"Ġtransform":12126,"Ġaccepts":12127,"Ġenchan":12128,"impy":12129,"ĠGoldie":12130,"ĠBelieve":12131,"Ġmutant":12132,"Ġresolved":12133,"ĠWesley":12134,"Ġdisguised":12135,"Ġtempted":12136,"ĠNinja":12137,"Ġacknowled":12138,"Ġgambling":12139,"House":12140,"Joe":12141,"OS":12142,"uy":12143,"uation":12144,"Ġtrop":12145,"Ġcher":12146,"Ġcaut":12147,"edge":12148,"Ġgym":12149,"ĠMain":12150,"ĠCou":12151,"ĠCons":12152,"ĠHappy":12153,"oler":12154,"akota":12155,"ĠPreston":12156,"isty":12157,"Ġorg":12158,"Ġshoulder":12159,"Ġslip":12160,"Ġimprison":12161,"psons":12162,"Ġsmugg":12163,"Ġexploring":12164,"Ġheartfelt":12165,"ART":12166,"Ġrespectable":12167,"Ġsurvives":12168,"Ġcommunicate":12169,"afoe":12170,"Ġgear":12171,"Ġprostitution":12172,"Ġearnest":12173,"Ġisolation":12174,"Ġinhab":12175,"Ġscratch":12176,"Ġcaricature":12177,"Ġrhythm":12178,"Ġdilemma":12179,"Red":12180,"wide":12181,"Ġpie":12182,"ĠIV":12183,"ieval":12184,"holy":12185,"ĠCR":12186,"ĠWATCH":12187,"ĠDill":12188,"Ġdoom":12189,"Ġvoted":12190,"ĠLie":12191,"ĠRush":12192,"ĠRandy":12193,"geant":12194,"Ġrealm":12195,"Ġfluff":12196,"Ġcontempt":12197,"Ġunderwater":12198,"Ġdecap":12199,"Ġsubl":12200,"Ġshaking":12201,"Ġepit":12202,"Ġfathers":12203,"fortune":12204,"ĠAngus":12205,"ĠHawn":12206,"Ġdrove":12207,"Ġinternal":12208,"Ġcaliber":12209,"Ġprostitutes":12210,"Ġinevitably":12211,"Ġwanders":12212,"Ġencourage":12213,"ĠCarey":12214,"Ġdestroys":12215,"Frank":12216,"ĠMcCarthy":12217,"Ġgrateful":12218,"Ġastronaut":12219,"Ġdisastrous":12220,"IP":12221,"Sm":12222,"door":12223,"mun":12224,"overs":12225,"really":12226,"haha":12227,"Ġpink":12228,"Ġpump":12229,"Ġdressing":12230,"rain":12231,"ĠAbsolutely":12232,"ĠBorn":12233,"intage":12234,"Ġrealised":12235,"Ġflam":12236,"Ġentering":12237,"Ġcontaining":12238,"Ġunderm":12239,"Ġhandles":12240,"ĠChamber":12241,"Ġconventions":12242,"comes":12243,"ĠMcQueen":12244,"Ġsnake":12245,"Ġpsychology":12246,"ACE":12247,"Blood":12248,"Ġsymbolic":12249,"burgh":12250,"Ġblatantly":12251,"Ġborrowed":12252,"Ġsteady":12253,"Ġscenarios":12254,"Ġwilderness":12255,"Cra":12256,"Jason":12257,"King":12258,"gi":12259,"mel":12260,"wall":12261,"Ġshat":12262,"Ġbars":12263,"Ġcue":12264,"Ġren":12265,"ido":12266,"Ġyawn":12267,"ĠSame":12268,"ĠBox":12269,"ĠCore":12270,"ĠDiet":12271,"usp":12272,"aku":12273,"Ġvocal":12274,"ĠEastern":12275,"placed":12276,"Ġcomputers":12277,"lix":12278,"Ġlasting":12279,".......":12280,"reaks":12281,"ĠMarilyn":12282,"Ġportrayals":12283,"Ġcopied":12284,"ĠChristians":12285,"remely":12286,"Ġvictory":12287,"Ġaircraft":12288,"Ġmistress":12289,"Ġcombines":12290,"ĠColbert":12291,"Ġposters":12292,"Ġunlikeable":12293,"Ġimmortal":12294,"writing":12295,"ĠTruth":12296,"Ġsplatter":12297,"Ġkidnapping":12298,"ĠMae":12299,"Ġdemanding":12300,"Ġinconsistent":12301,"ĠFantasy":12302,"Ġcontribute":12303,"ĠTruly":12304,"Ġmonologue":12305,"Ġdeleted":12306,"!,":12307,"Ab":12308,"bles":12309,"mons":12310,"oge":12311,"oard":12312,"inous":12313,"Ġfade":12314,"Ġlunch":12315,"Ġstumble":12316,"ĠSlo":12317,"riors":12318,"ĠBou":12319,"Ġdose":12320,"ĠPaltrow":12321,"ortant":12322,"ĠGarden":12323,"Ġworship":12324,"Ġcasts":12325,"Ġsubtext":12326,"Ġexceed":12327,"ĠWend":12328,"Ġedgy":12329,"Ġindication":12330,"ĠMyr":12331,"ĠChristine":12332,"ĠSmall":12333,"Ġapproaches":12334,"Ġ1939":12335,"blown":12336,"ASS":12337,"Three":12338,"ĠDickens":12339,"Ġtranslated":12340,"Ġredund":12341,"ĠKorea":12342,"Ġharmless":12343,"ĠWORST":12344,"ĠHindi":12345,"Ġfantasies":12346,"Ġsublime":12347,"ihil":12348,"normal":12349,"Ġmim":12350,"Ġmales":12351,"Ġtooth":12352,"Ġpomp":12353,"Ġpistol":12354,"ases":12355,"utions":12356,"ĠTIM":12357,"rable":12358,"ayed":12359,"ĠMolly":12360,"Ġvary":12361,"ĠPop":12362,"ĠPierce":12363,"Ġrides":12364,"Ġunsc":12365,"hang":12366,"Ġendlessly":12367,"Ġrope":12368,"Ġadjust":12369,"Ġ''":12370,"Ġplotting":12371,"Ġowners":12372,"Ġsmug":12373,"Ġaudition":12374,"ĠWendy":12375,"ĠClo":12376,"ampoon":12377,"ĠBrady":12378,"ĠAmanda":12379,"ĠMoreover":12380,"Ġdespicable":12381,"Ġemerge":12382,"ĠOffice":12383,"Ġdetectives":12384,"Ġacclaimed":12385,"Ġunsatisfying":12386,"Ġparanoid":12387,"Ġmasturb":12388,"Ben":12389,"UD":12390,"opp":12391,"atable":12392,"Ġghetto":12393,"Ġniece":12394,"Ġheap":12395,"ĠBab":12396,"ĠBrig":12397,"Ġbutler":12398,"ĠHos":12399,"Ġjarring":12400,"Ġoutfits":12401,"reated":12402,"Ġpercent":12403,"thon":12404,"Ġdisab":12405,"Ġadore":12406,"Ġflood":12407,"Ġrab":12408,"Ġincon":12409,"Ġhelpful":12410,"Ġstandout":12411,"ĠShame":12412,"Ġhilarity":12413,"ALLY":12414,"ĠExp":12415,"Ġconduct":12416,"Ġunsus":12417,"Ġcruelty":12418,"Ġreferring":12419,"Ġexposure":12420,"Ġinexplicable":12421,"ĠPhantasm":12422,"Ġpirate":12423,"ĠAccording":12424,"Ġinstrument":12425,"ĠWidmark":12426,"16":12427,"Much":12428,"cat":12429,"lord":12430,"esar":12431,"Ġpenn":12432,"leck":12433,"stood":12434,"Ġstairs":12435,"ĠMiles":12436,"ulse":12437,"Ġabst":12438,"ĠPho":12439,"andon":12440,"Ġrational":12441,"Ġleap":12442,"Ġshift":12443,"Ġmins":12444,"ubble":12445,"ĠShearer":12446,"oker":12447,"Ġaddiction":12448,"isode":12449,"Ġrepulsive":12450,"Ġmessy":12451,"Ġsuggestion":12452,"ĠSimpson":12453,"ĠTerminator":12454,"Ġconfronted":12455,"Ġcoward":12456,"ĠKenneth":12457,"ĠPoir":12458,"hobia":12459,"Ġsuburban":12460,"Ġbeside":12461,"Ġpremiere":12462,"Ġconveys":12463,"ĠThurman":12464,"Lau":12465,"NA":12466,"Out":12467,"Ġomin":12468,"omic":12469,"Ġgoo":12470,"Ġnit":12471,"Ġhapless":12472,"immer":12473,"ulating":12474,"ĠDig":12475,"ortions":12476,"asted":12477,"forman":12478,"rise":12479,"ĠUr":12480,"Ġinsurance":12481,"INE":12482,"Ġnatives":12483,"ypical":12484,"Ġslee":12485,"ĠAdrian":12486,"ĠFreddie":12487,"Ġradical":12488,"Ġsquee":12489,"ĠGovern":12490,"Ġdescribing":12491,"ICK":12492,"ĠGarland":12493,"Ġcomparisons":12494,"genre":12495,"omeday":12496,"Ġpuppets":12497,"Ġsavage":12498,"Ġautomatically":12499,"Ġhungry":12500,"Ġdevastating":12501,"Ġwardrobe":12502,"Ġunimaginative":12503,"DER":12504,"Mon":12505,"OY":12506,"fig":12507,"erman":12508,"Ġmute":12509,"itated":12510,"Ġdwell":12511,"imation":12512,"ĠBeth":12513,"ĠMos":12514,"ĠHon":12515,"uno":12516,"Ġscandal":12517,"ĠGore":12518,"pton":12519,"Ġunimp":12520,"Ġnod":12521,"Ġfles":12522,"Ġpointing":12523,"Ġcoupled":12524,"ĠJohan":12525,"Ġchess":12526,"Ġcompleted":12527,"Ġboasts":12528,"Ġwarming":12529,"ĠNote":12530,"Ġtransformed":12531,"Ġsteel":12532,"Ġexploits":12533,"Ġpilots":12534,"ĠMelissa":12535,"Ġimplied":12536,"Ġoffend":12537,"Ġdebt":12538,"Ġseparated":12539,"Ġpreviews":12540,"Ġfulfill":12541,"ĠLionel":12542,"Ġphenomenon":12543,"ucci":12544,"ĠâĢĵ":12545,"ĠFILM":12546,")?":12547,"hilar":12548,"rection":12549,"Ġbald":12550,"Ġpushes":12551,"ician":12552,"Ġasylum":12553,"Ġhoney":12554,"ĠBava":12555,"Ġwhore":12556,"ĠGOD":12557,"Ġrant":12558,"respect":12559,"Ġshred":12560,"arest":12561,"ishly":12562,"Ġspecially":12563,"Ġgrass":12564,"scape":12565,"Ġrestored":12566,"Ġglued":12567,"ĠRebecca":12568,"ĠSpock":12569,"ĠNews":12570,"Ġpromote":12571,"Ġswearing":12572,"Ġrespectively":12573,"Ġdamaged":12574,"Ġmidget":12575,"Ġreplies":12576,"Ġprograms":12577,"ĠSadako":12578,"Ġroutines":12579,"ĠVictorian":12580,"Ġlaun":12581,"ĠJudge":12582,"ĠZombies":12583,"ĠCandyman":12584,"Ġmiracle":12585,"Ġfluid":12586,"ĠGeorgia":12587,"Ġrapidly":12588,"Ġmotorcycle":12589,"18":12590,"Jean":12591,"Pol":12592,"Sl":12593,"bin":12594,"Ġ!!":12595,"ench":12596,"iler":12597,"eta":12598,"ĠSister":12599,"ĠSOME":12600,"ĠSuddenly":12601,"Ġathle":12602,"ĠDylan":12603,"Ġactive":12604,"Ġvign":12605,"ĠFans":12606,"ĠGor":12607,"ĠGard":12608,"resa":12609,"acking":12610,"Ġmanif":12611,"acles":12612,"Ġdisreg":12613,"Ġripping":12614,"Ġconfir":12615,"ĠBlanc":12616,"Ġregion":12617,"Ġuncut":12618,"Ġacceptance":12619,"Ġdelightfully":12620,"Ġenergetic":12621,"Ġemployed":12622,"ĠSilent":12623,"ĠWHAT":12624,"Ġrendered":12625,"ĠRicky":12626,"Ġfrozen":12627,"ĠBoston":12628,"Cr":12629,"Lost":12630,"Which":12631,"cross":12632,"jas":12633,"Ġtab":12634,"Ġakin":12635,"Ġwire":12636,"Ġbilled":12637,"Ġeats":12638,"ĠTam":12639,"ĠTurt":12640,"ĠHulk":12641,"ĠDow":12642,"ĠDance":12643,"ĠDanger":12644,"ĠDafoe":12645,"Ġalley":12646,"ĠFil":12647,"ardom":12648,"athon":12649,"Ġproduces":12650,"Ġbug":12651,"ĠDeM":12652,"Ġacademy":12653,"Ġunderstands":12654,"ĠThunder":12655,"iterally":12656,"Ġdeserving":12657,"Ġmedic":12658,"clim":12659,"Ġ1972":12660,"Ġrecords":12661,"Ġmelanc":12662,"Ġbrainless":12663,"Ġmannerisms":12664,"Ġapproaching":12665,"Ġyouthful":12666,"Ġsources":12667,"ĠDenzel":12668,"Ġmechanical":12669,"Ġcigarette":12670,"Ġrelentless":12671,"ĠPanther":12672,"Ġvigil":12673,"Ġexquisite":12674,"sympathetic":12675,"FF":12676,"Jane":12677,"much":12678,"tit":12679,"ufact":12680,"inction":12681,"erve":12682,"Ġmail":12683,"aron":12684,"along":12685,"Ġstim":12686,"Ġstray":12687,"ĠSleep":12688,"Ġthieves":12689,"ĠBul":12690,"ĠCorn":12691,"Ġaboard":12692,"ĠLib":12693,"ĠRent":12694,"ĠFal":12695,"ĠFish":12696,"ĠNBC":12697,"ĠNIGHT":12698,"Ġadvers":12699,"Ġrealities":12700,"Ġpartially":12701,"apable":12702,"Ġmayor":12703,"Ġlonging":12704,"Ġhandic":12705,"Ġassured":12706,"Ġpathos":12707,"ĠHerc":12708,"Ġconstit":12709,"Ġfilmmaking":12710,"Ġcontinuing":12711,"Ġdimin":12712,"Ġsurroundings":12713,"Ġkidnap":12714,"Ġbanter":12715,"Everything":12716,"production":12717,"Ġcommitment":12718,"Ġbabies":12719,"Ġenhance":12720,"Ġeconomic":12721,"Ġdubious":12722,"Ġspaceship":12723,"Ġculmin":12724,"ĠDietrich":12725,"!\".":12726,"Final":12727,"Niro":12728,"Ġta":12729,"Ġwander":12730,"Ġcoc":12731,"almost":12732,"owered":12733,"ĠMust":12734,"ĠWing":12735,"unn":12736,"Ġvotes":12737,"ĠLana":12738,"ĠGwyn":12739,"ĠEis":12740,"ĠKit":12741,"Ġadul":12742,"Ġflashes":12743,"Ġafterward":12744,"ildred":12745,"Ġ22":12746,"raph":12747,"Ġterrified":12748,"rospect":12749,"ĠBea":12750,"ĠClaus":12751,"Ġsynd":12752,"ĠDonna":12753,"Ġpatron":12754,"Ġbrooding":12755,"Ġwindows":12756,"Ġgrounds":12757,"Ġtestament":12758,"Ġobsessive":12759,"winning":12760,"achelor":12761,"ĠSunshine":12762,"ĠToronto":12763,"ĠForest":12764,"ĠMcDowell":12765,"Ġwheelchair":12766,"Ġdomestic":12767,"Ġexterior":12768,"Ġwidescreen":12769,"Henry":12770,"\"<":12771,"100":12772,"DS":12773,"EP":12774,"ndo":12775,"Ġdates":12776,"ĠMurd":12777,"ĠChop":12778,"ĠCarrie":12779,"ĠWT":12780,"elope":12781,"quette":12782,"ĠGle":12783,"Ġlock":12784,"Ġrooting":12785,"ĠHeather":12786,"Ġ28":12787,"Ġshoe":12788,"Ġglaring":12789,"Ġregularly":12790,"Ġsuspension":12791,"cheek":12792,"Ġballet":12793,"Ġdiverse":12794,"ĠNatalie":12795,"Ġdeny":12796,"ĠAshley":12797,"Ġtaped":12798,"Ġdivorced":12799,"Ġvastly":12800,"Ġeternal":12801,"ĠFROM":12802,"ĠCowboy":12803,"ĠSophie":12804,"ĠSopranos":12805,"fetched":12806,"''":12807,"CR":12808,"avery":12809,"uate":12810,"Ġpic":12811,"ĠTucker":12812,"sexual":12813,"Ġseedy":12814,"ĠBess":12815,"ĠBelle":12816,"ĠMol":12817,"Ġabortion":12818,"oodoo":12819,"Ġvintage":12820,"Ġunem":12821,"odd":12822,"Ġbless":12823,"Ġoldest":12824,"ĠAsia":12825,"arnation":12826,"Ġheartwarming":12827,"Ġstudying":12828,"Ġschools":12829,"Ġ75":12830,"Ġbreakdown":12831,"ĠKeitel":12832,"balls":12833,"ĠMarty":12834,"pendence":12835,"Ġ1968":12836,"Ġ1969":12837,"Ġhooker":12838,"Ġcalcul":12839,"ĠSnipes":12840,"Ġconnections":12841,"Ġelevator":12842,"Ġanticipation":12843,"Ġweaknesses":12844,"Ġconveniently":12845,"Ġrestrained":12846,"Thank":12847,"Our":12848,"rates":12849,"sorry":12850,"orus":12851,"orters":12852,"Ġpulp":12853,"arters":12854,"stock":12855,"ilation":12856,"ĠAy":12857,"ĠARE":12858,"Ġselection":12859,"ĠHum":12860,"ĠHick":12861,"ĠHav":12862,"Ġvile":12863,"quin":12864,"ĠFight":12865,"ĠYan":12866,"ĠInn":12867,"Ġcomplet":12868,"ĠSeptember":12869,"ĠMcL":12870,"ĠIslam":12871,"Ġinspire":12872,"Ġerror":12873,"Ġidol":12874,"ĠSimpsons":12875,"Ġdepths":12876,"Ġreceiving":12877,"ĠRussians":12878,"Ġhangs":12879,"Ġnoticeable":12880,"Ġsharks":12881,"ĠVerho":12882,"Ġmasks":12883,"ĠFuller":12884,"Ġenhanced":12885,"upert":12886,"Ġinconsist":12887,"Ġpublished":12888,"Ġsarcastic":12889,"ĠJolie":12890,"Dis":12891,"GH":12892,"Mary":12893,"ae":12894,"mund":12895,"uke":12896,"west":12897,"Ġtent":12898,"Ġturt":12899,"Ġwounds":12900,"Ġok":12901,"Ġmummy":12902,"Ġcrown":12903,"encer":12904,"omber":12905,"idan":12906,"Ġwash":12907,"Ġanc":12908,"ami":12909,"ĠMing":12910,"ĠHOR":12911,"unte":12912,"ĠDall":12913,"Ġsoccer":12914,"antha":12915,"ĠPic":12916,"ĠPoe":12917,"ĠLim":12918,"ĠLifetime":12919,"Ġhers":12920,"ĠNiel":12921,"Ġadvis":12922,"wear":12923,"Ġcouch":12924,"Ġpron":12925,"Ġyoungest":12926,"Ġgrin":12927,"ĠDeep":12928,"Ġmonks":12929,"ĠRevolution":12930,"Ġconcl":12931,"Ġexamination":12932,"Ġforgiven":12933,"Ġ1978":12934,"ĠDrake":12935,"ĠMadsen":12936,"Ġlegacy":12937,"Ġescaping":12938,"Ġdefeated":12939,"Ġaffairs":12940,"ĠGarner":12941,"ĠWesterns":12942,"ukh":12943,"Ġconvinces":12944,"Plan":12945,"ĠEverett":12946,"falls":12947,"ĠAmazing":12948,"Ġdepends":12949,"ographical":12950,"Ġuniformly":12951,"iblings":12952,"Ġdentist":12953,"ĠFarrell":12954,"Ġunsuspecting":12955,"Life":12956,"crow":12957,"dest":12958,"gang":12959,"kill":12960,"tick":12961,"vira":12962,"Ġwre":12963,"Ġtoken":12964,"Ġgray":12965,"Ġhides":12966,"ĠMalt":12967,"Ġ('":12968,"Ġplate":12969,"ĠPC":12970,"ĠRita":12971,"quire":12972,"ĠFE":12973,"redited":12974,"Ġprosec":12975,"ĠOrd":12976,"ĠOlymp":12977,"Ġoverlong":12978,"Ġpretends":12979,"acha":12980,"Ġoffbeat":12981,"Ġseeming":12982,"Ġspree":12983,"ĠHead":12984,"iva":12985,"Ġinstances":12986,"Ġ2008":12987,"ĠConst":12988,"ĠJustin":12989,"Ġ1985":12990,"Ġ1998":12991,"Ġmassacre":12992,"Ġsuitably":12993,"Ġstopping":12994,"Ġexplosive":12995,"hetically":12996,"Ġsafely":12997,"ĠBernie":12998,"Ġlandscapes":12999,"Ġinherit":13000,"Ġtactics":13001,"busters":13002,"Boy":13003,"HO":13004,"Mad":13005,"Sat":13006,"TS":13007,"gence":13008,"kl":13009,"prom":13010,"Ġbread":13011,"Ġbabe":13012,"Ġtops":13013,"atement":13014,"asi":13015,"Ġstare":13016,"Ġsugar":13017,"isted":13018,"umn":13019,"ĠGO":13020,"ĠEbert":13021,"ĠEyre":13022,"Ġgoods":13023,"Ġshining":13024,"abol":13025,"Ġflim":13026,"Ġhoc":13027,"Ġentered":13028,"ilda":13029,"Ġtraffic":13030,"Ġcomeback":13031,"ĠDVDs":13032,"ĠMarion":13033,"Ġsingers":13034,"Ġreports":13035,"Ġdefinitive":13036,"Ġavid":13037,"iki":13038,"Ġfeminist":13039,"aughty":13040,"Ġ1989":13041,"know":13042,"LEASE":13043,"ĠSarandon":13044,"Ġlayers":13045,"Ġcaricatures":13046,"Ġlimitations":13047,"Ġaggressive":13048,"ĠUntil":13049,"Ġshifts":13050,"Ġrecycled":13051,"ĠShelley":13052,"Ġominous":13053,"More":13054,"PER":13055,"nell":13056,"sis":13057,"infeld":13058,"Ġfaint":13059,"Ġglee":13060,"sty":13061,"ĠTheat":13062,"ĠBottom":13063,"ĠMiami":13064,"Ġnoteworthy":13065,"ĠWel":13066,"ĠDoo":13067,"ĠDiamond":13068,"Ġjock":13069,"olved":13070,"Ġcong":13071,"ĠKl":13072,"Ġdismal":13073,"Ġcharacterizations":13074,"ianist":13075,"Ġflashy":13076,"ĠView":13077,"Ġslam":13078,"Ġgiallo":13079,"Ġchee":13080,"ĠAss":13081,"Ġbuzz":13082,"Ġmysteriously":13083,"ĠBenny":13084,"ĠGuest":13085,"Ġ1995":13086,"ĠNorris":13087,"Ġrescued":13088,"Ġpraised":13089,"ĠMalone":13090,"ĠMalcolm":13091,"Really":13092,"Ġuniversity":13093,"ĠSharpe":13094,"Ġdepending":13095,"ĠfiancÃ©e":13096,"ĠUltimately":13097,"ĠAbbott":13098,"Er":13099,"Har":13100,"Mark":13101,"chant":13102,"math":13103,"vation":13104,"Ġbulk":13105,"have":13106,"esque":13107,"llie":13108,"icia":13109,"Ġnick":13110,"Ġnarc":13111,"utive":13112,"Ġrevers":13113,"Ġangu":13114,"ĠSara":13115,"ĠChow":13116,"Ġjaded":13117,"Ġven":13118,"ĠPoll":13119,"Ġunatt":13120,"reature":13121,"ĠOUT":13122,"abre":13123,"Ġarcha":13124,"gins":13125,"Ġblunt":13126,"Ġchills":13127,"ĠBeowulf":13128,"Ġglance":13129,"Ġheadache":13130,"ĠSeym":13131,"does":13132,"ĠWinter":13133,"Ġveterans":13134,"www":13135,"Ġjealousy":13136,"Ġguaranteed":13137,"driven":13138,"ĠPayne":13139,"Ġinstitution":13140,"ĠPsycho":13141,"Mat":13142,"Ã±":13143,"Ġbike":13144,"Ġinmates":13145,"Ġnun":13146,"ĠMU":13147,"ĠHat":13148,"ĠRitter":13149,"ĠFly":13150,"Ġintentional":13151,"ĠOct":13152,"Ġclerk":13153,"ints":13154,"Ġdont":13155,"Ġspont":13156,"ĠHeck":13157,"acey":13158,"angel":13159,"Ġresume":13160,"Ġprote":13161,"Ġorigins":13162,"Ġapply":13163,"Ġhandy":13164,"Ġcrashing":13165,"Ġcram":13166,"Ġretrie":13167,"Ġcharms":13168,"ikes":13169,"Ġdestiny":13170,"irties":13171,"Ġautobi":13172,"ĠBillie":13173,"ĠMonroe":13174,"Ġastounding":13175,"ĠSurely":13176,"ĠStephan":13177,"Ġhammer":13178,"ĠLester":13179,"ĠClearly":13180,"ĠToday":13181,"ĠSundance":13182,"ĠCassidy":13183,"Ġbreast":13184,"Ġconcentrate":13185,"ĠMetal":13186,"Ġcontribution":13187,"Ġaccessible":13188,"Ġcycle":13189,"Ġchampion":13190,"Ġbewild":13191,"Ġgorilla":13192,"!).<":13193,"FT":13194,"Lou":13195,"Saw":13196,"despite":13197,"fare":13198,"mn":13199,"itan":13200,"Ġduel":13201,"utter":13202,"ielle":13203,"Ġreign":13204,"advert":13205,"Ġselected":13206,"urous":13207,"Ġoutright":13208,"Ġconj":13209,"Ġproving":13210,"Ġflavor":13211,"ĠUP":13212,"ĠUwe":13213,"Ġcope":13214,"aneous":13215,"ĠClock":13216,"Ġtitular":13217,"Ġmisfortune":13218,"umpy":13219,"Ġdescent":13220,"ilipp":13221,"Ġuncertain":13222,"Ġreminder":13223,"Ġlandmark":13224,"Ġinspir":13225,"Ġembark":13226,"Ġ1994":13227,"ĠTwilight":13228,"Ġextrav":13229,"ĠPatricia":13230,"Ġassuming":13231,"Ġinsults":13232,"Ġservices":13233,"ĠMcCl":13234,"ĠGarfield":13235,"Ġexperiencing":13236,"girls":13237,"Steve":13238,"ĠGiallo":13239,"Ġbirds":13240,"Ġcanceled":13241,"Ġinaccurate":13242,"ĠDalton":13243,"Ġlegitimate":13244,"Ġsubstantial":13245,"Ġowes":13246,"ĠSNL":13247,"IVE":13248,"Up":13249,"VIL":13250,"cor":13251,"dem":13252,"lies":13253,"Ġwart":13254,"Ġwider":13255,"Ġinjust":13256,"Ġrelev":13257,"cending":13258,"Ġhuh":13259,"ĠBrent":13260,"Ġjet":13261,"Ġkar":13262,"ĠJar":13263,"ĠKings":13264,"Ġpocket":13265,"Ġdisin":13266,"being":13267,"ivals":13268,"Ġexpectation":13269,"Ġclassy":13270,"Ġcinemas":13271,"Ġextensive":13272,"ĠDef":13273,"Ġstrings":13274,"scene":13275,"ĠChand":13276,"Ġblacks":13277,"comed":13278,"ĠWillie":13279,"ĠÂĹ":13280,"Ġdrift":13281,"ĠGerald":13282,"Ġfilling":13283,"ĠFrankie":13284,"Ġneglect":13285,"Ġcelebration":13286,"ĠCannon":13287,"ĠEntertain":13288,"Ġconclude":13289,"ĠSeymour":13290,"!?":13291,"Bill":13292,"Over":13293,"fiction":13294,"Ġ>":13295,"Ġtheories":13296,"Ġsiblings":13297,"Ġol":13298,"Ġfer":13299,"Ġbent":13300,"Ġpione":13301,"Ġdrew":13302,"atile":13303,"level":13304,"ĠTeen":13305,"ĠAS":13306,"ĠMick":13307,"elie":13308,"ĠGiant":13309,"Ġupcoming":13310,"Ġ1000":13311,"ĠKor":13312,"sored":13313,"Ġshowcas":13314,"Ġtrace":13315,"Ġtrials":13316,"Ġfarmer":13317,"Ġhusbands":13318,"ĠPlace":13319,"Ġpleasing":13320,"OUN":13321,"Ġ1993":13322,"ĠSimply":13323,"black":13324,"Ġmidst":13325,"ĠSpeaking":13326,"ĠTerrible":13327,"Ġeducated":13328,"Ġtunnel":13329,"ĠDaisy":13330,"Ġfortunate":13331,"ĠElliott":13332,"Ġtossed":13333,"Ġmuseum":13334,"Ġvibrant":13335,"Ġpedestrian":13336,"dad":13337,"iate":13338,"lund":13339,"liest":13340,"lucky":13341,"rene":13342,"Ġfifties":13343,"Ġdut":13344,"Ġbeg":13345,"ĠAx":13346,"ĠAven":13347,"Ġattended":13348,"ĠPS":13349,"ĠPig":13350,"ĠRel":13351,"ĠField":13352,"ractive":13353,"Ġunrelated":13354,"Ġpose":13355,"Ġsmiles":13356,"spiring":13357,"ibbe":13358,"Ġinspect":13359,"Ġdelicious":13360,"Ġconvention":13361,"Ġbudgets":13362,"ĠÂ£":13363,"eches":13364,"guard":13365,"Ġinflict":13366,"ĠHerbert":13367,"Ġeventual":13368,"lights":13369,"ĠBravo":13370,"ĠMartha":13371,"Ġexploited":13372,"ĠGoodman":13373,"Ġestrang":13374,"ĠVanessa":13375,"ĠActress":13376,"ĠChristianity":13377,"Ġdistracted":13378,"Ġadvertised":13379,"ĠParad":13380,"ĠYOUR":13381,"Ġparallels":13382,"Ġdramatically":13383,"Ġrampage":13384,"Rock":13385,"family":13386,"Ġbum":13387,"haired":13388,"Ġcurt":13389,"Ġdil":13390,"Ġrevis":13391,"ĠAR":13392,"Ġliqu":13393,"ĠWee":13394,"ĠFort":13395,"ĠFace":13396,"ĠNiven":13397,"mented":13398,"ober":13399,"ĠDeNiro":13400,"Ġremembering":13401,"ĠBride":13402,"Ġcolleagues":13403,"Ġaccepting":13404,"Ġharass":13405,"Ġ1992":13406,"Ġstatements":13407,"ĠTrain":13408,"noir":13409,"ĠCohen":13410,"Ġdistraction":13411,"Ġswords":13412,"Ġorganized":13413,"Ġassociate":13414,"Ġadvertis":13415,"Ġstalking":13416,"Ġtolerable":13417,"Charles":13418,"Ġjacket":13419,"Ġintricate":13420,"rizona":13421,"ĠVerhoeven":13422,"Les":13423,"Those":13424,"bill":13425,"ridden":13426,"Ġtatt":13427,"Ġsomeday":13428,"alin":13429,"Ġbelt":13430,"Ġthrust":13431,"ĠHans":13432,"ulent":13433,"Ġactivity":13434,"ĠLex":13435,"ĠLiam":13436,"Ġouter":13437,"ĠJagger":13438,"inducing":13439,"Ġunleas":13440,"igious":13441,"ĠOrange":13442,"ĠKeller":13443,"Ġspray":13444,"Ġrave":13445,"Ġrainy":13446,"Ġslavery":13447,"Ġfactors":13448,"Ġcomprehe":13449,"Ġbuys":13450,"xton":13451,"ĠBlade":13452,"Ġcommits":13453,"Ġskits":13454,"Ġentirety":13455,"Ġstudied":13456,"ĠDavies":13457,"Ġadmits":13458,"ussie":13459,"ĠKeep":13460,"Ġunconscious":13461,"ĠShot":13462,"ĠColonel":13463,"Ġframes":13464,"ĠHenri":13465,"Ġimprobable":13466,"ĠAgent":13467,"ĠAgatha":13468,"affy":13469,"Ġpursued":13470,"ĠThankfully":13471,"ĠKidman":13472,"build":13473,"ĠEgyptian":13474,"ARNING":13475,"App":13476,"Hall":13477,"best":13478,"flu":13479,"mpt":13480,"rary":13481,"tal":13482,"viol":13483,"rected":13484,"Ġfoil":13485,"ouge":13486,"Ġpha":13487,"ĠBun":13488,"urring":13489,"Ġsorely":13490,"Ġvoc":13491,"Ġoutdated":13492,"ĠNap":13493,"abelle":13494,"Ġusers":13495,"Ġslack":13496,"Ġtraits":13497,"Ġexplode":13498,"Ġinterrog":13499,"ĠBlues":13500,"Ġremembers":13501,"Ġpassage":13502,"Ġwaves":13503,"char":13504,"Ġprofit":13505,"Ġ1973":13506,"Ġranch":13507,"super":13508,"ĠExorcist":13509,"Ġneglected":13510,"ĠSergio":13511,"ĠRooney":13512,"Unlike":13513,"ĠPalance":13514,"Ġtendency":13515,"Ġdeparture":13516,"ĠRodri":13517,"ĠParamount":13518,"ĠJacques":13519,"ĠHAVE":13520,"ĠDrive":13521,"Ġmisunderstood":13522,"Toole":13523,"Ġovershad":13524,"Ġcustomers":13525,"Ġdazzling":13526,"Old":13527,"Take":13528,"tale":13529,"uz":13530,"Ġwine":13531,"Ġbones":13532,"iture":13533,"oning":13534,"Ġpiv":13535,"educ":13536,"Ġinformed":13537,"racy":13538,"rooge":13539,"ĠCBS":13540,"ĠPass":13541,"ĠGee":13542,"ĠNon":13543,"ĠNero":13544,"Ġunsympathetic":13545,"ryn":13546,"arde":13547,"ipher":13548,"ignific":13549,"Ġshocks":13550,"Ġskilled":13551,"ĠSpoilers":13552,"IND":13553,"ĠLeg":13554,"Ġmorons":13555,"Ġcommenting":13556,"Ġcritique":13557,"ĠDanish":13558,"Ġcheaply":13559,"Ġ1974":13560,"Ġ1988":13561,"Ġrobbed":13562,"Ġcriticize":13563,"Ġprogramme":13564,"ĠColumbia":13565,"Ġpeaceful":13566,"ĠPacific":13567,"Ġtapes":13568,"ĠIncred":13569,"Grade":13570,"ĠNetwork":13571,"ĠFriends":13572,"ĠTokyo":13573,"Ġancest":13574,"Based":13575,"IES":13576,"inch":13577,"erity":13578,"Ġbilling":13579,"itivity":13580,"Ġduck":13581,"atography":13582,"Ġmold":13583,"Ġrear":13584,"ĠAF":13585,"ĠSinger":13586,"Ġjoint":13587,"Ġabomination":13588,"ĠPu":13589,"ĠLar":13590,"ĠNas":13591,"Ġlend":13592,"rup":13593,"Ġrealization":13594,"Ġcohes":13595,"ollowing":13596,"ĠScreen":13597,"Ġcracking":13598,"Ġassert":13599,"Ġopenly":13600,"Ġhopeful":13601,"OTH":13602,"Ġquestioning":13603,"Story":13604,"Ġcommunication":13605,"?!?!":13606,"Ġinsights":13607,"Ġdetermination":13608,"moving":13609,"RIBLE":13610,"Ġrewarding":13611,"Ġsamurai":13612,"Ġimpecc":13613,"Ġpromptly":13614,"Ġstabbed":13615,"Ġlavish":13616,"Ġrelevance":13617,"Mel":13618,"Pretty":13619,"TW":13620,"URE":13621,"kers":13622,"vability":13623,"rec":13624,"Ġware":13625,"ester":13626,"Ġpals":13627,"oming":13628,"ĠMafia":13629,"ĠHou":13630,"Ġdeft":13631,"Ġconco":13632,"Ġproced":13633,"Ġunion":13634,"Ġlends":13635,"Ġmanga":13636,"ourse":13637,"Ġpoll":13638,"Ġspan":13639,"Ġrifle":13640,"ĠAlas":13641,"Ġcoat":13642,"Ġcamps":13643,"itionally":13644,"Ġlocated":13645,"axi":13646,"Ġparade":13647,"Ġinfo":13648,"Ġcolours":13649,"Ġ1979":13650,"Ġintroducing":13651,"Ġundead":13652,"Ġapproached":13653,"Ġmentality":13654,"Ġinterviewed":13655,"Ġaffecting":13656,"Ġcells":13657,"ĠRonald":13658,"Ġtickets":13659,"Ġiconic":13660,"Ġneatly":13661,"Ġbetrayed":13662,"Ġdumped":13663,"iblical":13664,"Ġreliable":13665,"Ġaesthetic":13666,"ĠSydney":13667,"documentary":13668,"Ġredundant":13669,"?\".":13670,"Add":13671,"Hell":13672,"Sur":13673,"dro":13674,"eor":13675,"uki":13676,"vous":13677,"Ã¼":13678,"Ġsanity":13679,"Ġfodder":13680,"Ġmasc":13681,"oup":13682,"Ġduration":13683,"lead":13684,"ĠACT":13685,"ĠAksha":13686,"ĠMath":13687,"ĠDist":13688,"aints":13689,"ĠFool":13690,"ĠGone":13691,"ĠGret":13692,"osal":13693,"erto":13694,"assic":13695,"Ġspawn":13696,"ĠVoy":13697,"Ġaftermath":13698,"Ġunderworld":13699,"aughn":13700,"Ġmighty":13701,"Ġinsomn":13702,"scenes":13703,"Ġchoosing":13704,"Ġphones":13705,"Ġstudies":13706,"Ġdemonic":13707,"Ġmedieval":13708,"Ġfills":13709,"ĠFranklin":13710,"without":13711,"Ġstunningly":13712,"Ġdiscussed":13713,"Ġdaddy":13714,"Without":13715,"Ġunwilling":13716,"marine":13717,"ĠRambo":13718,"Ġpaintings":13719,"Ġsubsequently":13720,"ĠPrivate":13721,"Ġdeliberate":13722,"Ġgroan":13723,"Ġtormented":13724,"ĠBacon":13725,"Ġhunters":13726,"ĠSupporting":13727,"ĠThailand":13728,"Alien":13729,"Are":13730,"AGE":13731,"Mc":13732,"TAIN":13733,"bins":13734,"high":13735,"pop":13736,"sub":13737,"Ġcemetery":13738,"Ġpour":13739,"Ġpatch":13740,"Ġpanic":13741,"Ġinsect":13742,"Ġly":13743,"oma":13744,"ĠIQ":13745,"Ġbeard":13746,"raged":13747,"ima":13748,"chor":13749,"ĠAwards":13750,"ĠArizona":13751,"Ġhires":13752,"urrent":13753,"ĠHuman":13754,"ĠWha":13755,"ĠDakota":13756,"ifi":13757,"Ġwholes":13758,"aky":13759,"ĠFree":13760,"ĠFaw":13761,"ĠFitz":13762,"ĠJoy":13763,"Ġjustified":13764,"uded":13765,"Ġupside":13766,"oretta":13767,"Ġincidents":13768,"avia":13769,"Ġshotgun":13770,"Ġartif":13771,"Ġartwork":13772,"Ġdelicate":13773,"ĠCliff":13774,"iking":13775,"Ġshootout":13776,"Ġcolleague":13777,"Ġunfamiliar":13778,"Ġspirited":13779,"Ġrequest":13780,"Ġdolls":13781,"bbie":13782,"Ġpractical":13783,"ĠSchne":13784,"Ġmutual":13785,"ĠLynn":13786,"Ġvolunte":13787,"ĠSecondly":13788,"Ġgentleman":13789,"Ġarguments":13790,"ĠTyler":13791,"ĠMidler":13792,"Ġstylized":13793,"Ġmesmerizing":13794,"Ġplodding":13795,"Ġassembled":13796,"Ġunsuccess":13797,"ĠKumar":13798,"NY":13799,"Nat":13800,"Set":13801,"fus":13802,"names":13803,"yard":13804,"Ã³":13805,"Ġturd":13806,"Ġsorrow":13807,"erg":13808,"Ġbastard":13809,"itors":13810,"Ġcries":13811,"Ġpimp":13812,"Ġitems":13813,"Ġbegun":13814,"Ġbegging":13815,"raiser":13816,"Ġstake":13817,"eted":13818,"Ġhott":13819,"amour":13820,"ĠCube":13821,"emen":13822,"Ġalert":13823,"Ġaltered":13824,"oper":13825,"opers":13826,"ĠJaf":13827,"Ġunans":13828,"ĠUma":13829,"Ġexcellently":13830,"Ġdepra":13831,"Ġsooner":13832,"ĠShields":13833,"Ġcampus":13834,"Ġ1976":13835,"Ġdecidedly":13836,"Ġrobbers":13837,"ĠSerb":13838,"ĠBoyle":13839,"ĠLauren":13840,"ĠPolanski":13841,"Ġfreaky":13842,"Ġdegener":13843,"Robin":13844,"ĠDogs":13845,"Ġconveyed":13846,"Ġdemonstrate":13847,"Ġinjury":13848,"Ġrewarded":13849,"ĠBridges":13850,"ĠHyde":13851,"ĠBinoche":13852,"Ġhockey":13853,"14":13854,"FO":13855,"Tr":13856,"bast":13857,"first":13858,"Ġsunk":13859,"Ġfires":13860,"haw":13861,"Ġcunning":13862,"orous":13863,"steps":13864,"Ġitem":13865,"Ġbegs":13866,"holes":13867,"cemi":13868,"ĠMul":13869,"Ġnotices":13870,"ĠLess":13871,"fell":13872,"ĠGames":13873,"igel":13874,"Ġarray":13875,"Ġrealistically":13876,"typ":13877,"Ġchem":13878,"Ġsincerely":13879,"osedly":13880,"Ġadmired":13881,"Ġcentre":13882,"dys":13883,"Ġconsideration":13884,"ĠDana":13885,"ĠDanes":13886,"Ġrespects":13887,"Ġ1986":13888,"Ġgrowth":13889,"Ġharrowing":13890,"Ġcartoonish":13891,"Ġachieves":13892,"ĠActors":13893,"Ġsuspected":13894,"Ġaffects":13895,"Ġmouths":13896,"Ġgrip":13897,"Ġboost":13898,"Ġlesbians":13899,"Ġsucker":13900,"ĠWHO":13901,"ĠFerr":13902,"Ġvideot":13903,"Ġcrooked":13904,"Actually":13905,"Ġironically":13906,"ocratic":13907,"Ġslimy":13908,"Ġvomit":13909,"Ġpursue":13910,"ĠLennon":13911,"Ġmanifest":13912,".).":13913,"Jeff":13914,"Sil":13915,"gt":13916,"moon":13917,"uv":13918,"hast":13919,"ouement":13920,"Ġdun":13921,"Ġlaser":13922,"Ġec":13923,"etc":13924,"ĠBrett":13925,"ĠMildred":13926,"ĠCand":13927,"unless":13928,"Ġscored":13929,"ifty":13930,"ĠLad":13931,"Ġprog":13932,"Ġgoals":13933,"ĠOllie":13934,"ĠKudos":13935,"ĠKansas":13936,"ruce":13937,"Ġpopping":13938,"Ġhollow":13939,"Ġslut":13940,"Ġ23":13941,"ocracy":13942,"Ġaddicted":13943,"ĠForrest":13944,"Ġrepressed":13945,"ĠLeague":13946,"Ġadmission":13947,"loving":13948,"ĠWhoever":13949,"Ġapprox":13950,"asket":13951,"Ġterrorism":13952,"Ġineffect":13953,"Ġminority":13954,"ophren":13955,"Ġmobster":13956,"Ġskinny":13957,"Ġtightly":13958,"Ġorganization":13959,"ĠHawai":13960,"ĠDarren":13961,"Ġgigantic":13962,"ĠAndrea":13963,"Ġprejudice":13964,"spirited":13965,"Ġabstract":13966,"Ġwartime":13967,"ĠEntertainment":13968,"*<":13969,"Bob":13970,"Fe":13971,"Tw":13972,"VEN":13973,"Ġnom":13974,"ĠMack":13975,"ĠWa":13976,"Ġexempl":13977,"eler":13978,"Ġvoid":13979,"ĠPorky":13980,"ĠLock":13981,"astrop":13982,"Ġlikewise":13983,"Ġmeal":13984,"Ġmanic":13985,"Ġmanufact":13986,"ureau":13987,"ĠKirst":13988,"Ġperverse":13989,"ruck":13990,"eren":13991,"izophren":13992,"Ġsmash":13993,"Ġreaders":13994,"Ġelite":13995,"Ġskit":13996,"ĠClar":13997,"ountered":13998,"Ġindicate":13999,"Ġhats":14000,"ĠLevy":14001,"anca":14002,"Ġpsyched":14003,"Ġsteer":14004,"ĠSamantha":14005,"ĠAmitabh":14006,"Ġencountered":14007,"boys":14008,"Joan":14009,"ĠHamlet":14010,"ACT":14011,"remlins":14012,"ĠLohan":14013,"Ġcelebrities":14014,"Ġbiop":14015,"ĠBaron":14016,"ĠHayden":14017,"Ġhysterically":14018,"ĠMiy":14019,"Ġcontroversy":14020,"ĠAudrey":14021,"Ġstroke":14022,"ĠAlec":14023,"ĠGilbert":14024,"Ġfeeble":14025,"ĠPoirot":14026,"Ġunanswered":14027,"Ray":14028,"Ġmelt":14029,"Ġbounty":14030,"atman":14031,"ilot":14032,"ĠThai":14033,"Ġseats":14034,"ĠMess":14035,"ĠDest":14036,"Ġjam":14037,"usch":14038,"ĠRol":14039,"ĠFO":14040,"Ġbaddies":14041,"Ġtwent":14042,"forming":14043,"Ġcharacteristics":14044,"Ġbacks":14045,"Ġresident":14046,"actually":14047,"Ġartsy":14048,"scar":14049,"script":14050,"ĠChad":14051,"Ġstarters":14052,"Ġviolin":14053,"tersweet":14054,"Ġswing":14055,"Ġsufficient":14056,"working":14057,"ĠCrazy":14058,"Ġcommunist":14059,"Ġpacks":14060,"Ġbenefits":14061,"Ġemployee":14062,"Ġverbal":14063,"Ġresistance":14064,"Ġgeek":14065,"Ġsenior":14066,"Bottom":14067,"fers":14068,"ymp":14069,"Ġfierce":14070,"Ġbiol":14071,"ouching":14072,"anu":14073,"Ġinadvert":14074,"athered":14075,"Ġ/>--":14076,"ĠHers":14077,"people":14078,"ĠDum":14079,"Ġschol":14080,"iffer":14081,"Ġfruit":14082,"Ġabound":14083,"ĠLiv":14084,"Ġintact":14085,"Ġlean":14086,"plan":14087,"Ġclan":14088,"rug":14089,"Ġarche":14090,"asses":14091,"ĠStorm":14092,"bec":14093,"version":14094,"Ġresent":14095,"ĠSheen":14096,"Ġfemme":14097,"Ġnovelist":14098,"Ġmomentum":14099,"Ġsnap":14100,"Ġclimb":14101,"Ġavoiding":14102,"Ġfraud":14103,"Ġcovering":14104,"Ġmentor":14105,"ITE":14106,"Ġensure":14107,"ĠShore":14108,"Ġcontestants":14109,"ĠDepression":14110,"Ġvividly":14111,"Ġcarnage":14112,"Ġpoliticians":14113,"ĠNolan":14114,"Ġmythology":14115,"Ġantagonist":14116,"Ġinspirational":14117,"\":":14118,"\"--":14119,"Poor":14120,"mouthed":14121,"Ġbree":14122,"Ġyard":14123,"adventure":14124,"Ġhttp":14125,"Ġlighter":14126,"ĠMam":14127,"ĠHK":14128,"ĠJos":14129,"Ġuncover":14130,"ĠKiss":14131,"ĠKnox":14132,"Ġclad":14133,"ĠVe":14134,"meaning":14135,"Ġspeeches":14136,"ĠStri":14137,"ritz":14138,"Ġnewer":14139,"autiful":14140,"ashbuck":14141,"Ġreadily":14142,"atively":14143,"ĠBear":14144,"Ġintertw":14145,"Ġreviewing":14146,"Ġlightning":14147,"Ġpaints":14148,"ropol":14149,"Ġmasters":14150,"ORY":14151,"owski":14152,"OUSE":14153,"borg":14154,"OOK":14155,"Ġdelighted":14156,"Ġhostile":14157,"guez":14158,"Ġfreaking":14159,"Ġsells":14160,"ĠLooking":14161,"Ġfacility":14162,"ĠCrowe":14163,"AKE":14164,"Ġhippies":14165,"ĠBuscemi":14166,"idelity":14167,"ĠPamela":14168,"Ġabsorbing":14169,"ĠMassey":14170,"Ġnominations":14171,"ĠLundgren":14172,"Ġconclusions":14173,"Ġestranged":14174,"Ghost":14175,"May":14176,"ege":14177,"hu":14178,"uing":14179,"witted":14180,"herence":14181,"Ġsane":14182,"Ġbitten":14183,"Ġlol":14184,"ĠAut":14185,"ĠBody":14186,"ĠMP":14187,"ĠCreek":14188,"ĠWedding":14189,"ĠWait":14190,"olo":14191,"Ġvapid":14192,"ĠPau":14193,"ĠRid":14194,"ĠRider":14195,"ĠRupert":14196,"ĠFried":14197,"Ġordeal":14198,"Ġric":14199,"Ġperil":14200,"Ġquint":14201,"Ġspies":14202,"ĠVaughn":14203,"bearing":14204,"Ġrips":14205,"Ġsmarter":14206,"Ġneedless":14207,"Ġreader":14208,"ĠThats":14209,
[...]
